{
  "version": "1.0",
  "truncation": null,
  "padding": null,
  "added_tokens": [
    {
      "id": 0,
      "content": "<|kb|>",
      "single_word": false,
      "lstrip": false,
      "rstrip": false,
      "normalized": false,
      "special": true
    },
    {
      "id": 1,
      "content": "<|rule|>",
      "single_word": false,
      "lstrip": false,
      "rstrip": false,
      "normalized": false,
      "special": true
    },
    {
      "id": 2,
      "content": "<|ttp|>",
      "single_word": false,
      "lstrip": false,
      "rstrip": false,
      "normalized": false,
      "special": true
    },
    {
      "id": 3,
      "content": "<|ref|>",
      "single_word": false,
      "lstrip": false,
      "rstrip": false,
      "normalized": false,
      "special": true
    },
    {
      "id": 4,
      "content": "<|spam|>",
      "single_word": false,
      "lstrip": false,
      "rstrip": false,
      "normalized": false,
      "special": true
    },
    {
      "id": 5,
      "content": "<|ham|>",
      "single_word": false,
      "lstrip": false,
      "rstrip": false,
      "normalized": false,
      "special": true
    },
    {
      "id": 6,
      "content": "<|net|>",
      "single_word": false,
      "lstrip": false,
      "rstrip": false,
      "normalized": false,
      "special": true
    },
    {
      "id": 7,
      "content": "<|malware|>",
      "single_word": false,
      "lstrip": false,
      "rstrip": false,
      "normalized": false,
      "special": true
    },
    {
      "id": 8,
      "content": "<|pad|>",
      "single_word": false,
      "lstrip": false,
      "rstrip": false,
      "normalized": false,
      "special": true
    },
    {
      "id": 9,
      "content": "<|unk|>",
      "single_word": false,
      "lstrip": false,
      "rstrip": false,
      "normalized": false,
      "special": true
    }
  ],
  "normalizer": null,
  "pre_tokenizer": {
    "type": "ByteLevel",
    "add_prefix_space": false,
    "trim_offsets": true,
    "use_regex": true
  },
  "post_processor": null,
  "decoder": {
    "type": "ByteLevel",
    "add_prefix_space": true,
    "trim_offsets": true,
    "use_regex": true
  },
  "model": {
    "type": "BPE",
    "dropout": null,
    "unk_token": "<|unk|>",
    "continuing_subword_prefix": null,
    "end_of_word_suffix": null,
    "fuse_unk": false,
    "byte_fallback": false,
    "ignore_merges": false,
    "vocab": {
      "<|kb|>": 0,
      "<|rule|>": 1,
      "<|ttp|>": 2,
      "<|ref|>": 3,
      "<|spam|>": 4,
      "<|ham|>": 5,
      "<|net|>": 6,
      "<|malware|>": 7,
      "<|pad|>": 8,
      "<|unk|>": 9,
      "!": 10,
      "\"": 11,
      "#": 12,
      "$": 13,
      "%": 14,
      "&": 15,
      "'": 16,
      "(": 17,
      ")": 18,
      "*": 19,
      "+": 20,
      ",": 21,
      "-": 22,
      ".": 23,
      "/": 24,
      "0": 25,
      "1": 26,
      "2": 27,
      "3": 28,
      "4": 29,
      "5": 30,
      "6": 31,
      "7": 32,
      "8": 33,
      "9": 34,
      ":": 35,
      ";": 36,
      "<": 37,
      "=": 38,
      ">": 39,
      "?": 40,
      "@": 41,
      "A": 42,
      "B": 43,
      "C": 44,
      "D": 45,
      "E": 46,
      "F": 47,
      "G": 48,
      "H": 49,
      "I": 50,
      "J": 51,
      "K": 52,
      "L": 53,
      "M": 54,
      "N": 55,
      "O": 56,
      "P": 57,
      "Q": 58,
      "R": 59,
      "S": 60,
      "T": 61,
      "U": 62,
      "V": 63,
      "W": 64,
      "X": 65,
      "Y": 66,
      "Z": 67,
      "[": 68,
      "\\": 69,
      "]": 70,
      "^": 71,
      "_": 72,
      "`": 73,
      "a": 74,
      "b": 75,
      "c": 76,
      "d": 77,
      "e": 78,
      "f": 79,
      "g": 80,
      "h": 81,
      "i": 82,
      "j": 83,
      "k": 84,
      "l": 85,
      "m": 86,
      "n": 87,
      "o": 88,
      "p": 89,
      "q": 90,
      "r": 91,
      "s": 92,
      "t": 93,
      "u": 94,
      "v": 95,
      "w": 96,
      "x": 97,
      "y": 98,
      "z": 99,
      "{": 100,
      "|": 101,
      "}": 102,
      "~": 103,
      "¡": 104,
      "¢": 105,
      "£": 106,
      "¤": 107,
      "¥": 108,
      "¦": 109,
      "§": 110,
      "¨": 111,
      "©": 112,
      "ª": 113,
      "«": 114,
      "¬": 115,
      "®": 116,
      "¯": 117,
      "°": 118,
      "±": 119,
      "²": 120,
      "³": 121,
      "´": 122,
      "µ": 123,
      "¶": 124,
      "·": 125,
      "¸": 126,
      "¹": 127,
      "º": 128,
      "»": 129,
      "¼": 130,
      "½": 131,
      "¾": 132,
      "¿": 133,
      "Â": 134,
      "Ã": 135,
      "Ä": 136,
      "Å": 137,
      "Æ": 138,
      "Ç": 139,
      "É": 140,
      "Ê": 141,
      "Ë": 142,
      "Ì": 143,
      "Í": 144,
      "Î": 145,
      "Ï": 146,
      "Ð": 147,
      "Ñ": 148,
      "×": 149,
      "Ø": 150,
      "Ù": 151,
      "Ú": 152,
      "à": 153,
      "á": 154,
      "â": 155,
      "ã": 156,
      "ä": 157,
      "å": 158,
      "æ": 159,
      "ç": 160,
      "è": 161,
      "é": 162,
      "ê": 163,
      "ë": 164,
      "ì": 165,
      "í": 166,
      "î": 167,
      "ï": 168,
      "ð": 169,
      "Ā": 170,
      "ā": 171,
      "Ă": 172,
      "ă": 173,
      "ą": 174,
      "Ć": 175,
      "ć": 176,
      "Ĉ": 177,
      "ĉ": 178,
      "Ċ": 179,
      "ċ": 180,
      "Č": 181,
      "Ď": 182,
      "ď": 183,
      "Đ": 184,
      "đ": 185,
      "Ē": 186,
      "ē": 187,
      "Ĕ": 188,
      "ĕ": 189,
      "Ė": 190,
      "ė": 191,
      "Ę": 192,
      "ę": 193,
      "Ě": 194,
      "ě": 195,
      "Ĝ": 196,
      "ĝ": 197,
      "Ğ": 198,
      "ğ": 199,
      "Ġ": 200,
      "Ģ": 201,
      "ģ": 202,
      "Ĥ": 203,
      "ĥ": 204,
      "Ħ": 205,
      "ħ": 206,
      "Ĩ": 207,
      "ĩ": 208,
      "Ī": 209,
      "ī": 210,
      "Ĭ": 211,
      "ĭ": 212,
      "Į": 213,
      "į": 214,
      "İ": 215,
      "ı": 216,
      "Ĳ": 217,
      "ĳ": 218,
      "Ĵ": 219,
      "ĵ": 220,
      "Ķ": 221,
      "ķ": 222,
      "ĸ": 223,
      "Ĺ": 224,
      "ĺ": 225,
      "Ļ": 226,
      "ļ": 227,
      "Ľ": 228,
      "ľ": 229,
      "Ŀ": 230,
      "ŀ": 231,
      "Ł": 232,
      "ł": 233,
      "Ń": 234,
      "in": 235,
      "on": 236,
      "er": 237,
      "es": 238,
      "at": 239,
      "00": 240,
      "ĠĠ": 241,
      "Ġt": 242,
      "or": 243,
      "en": 244,
      "20": 245,
      "an": 246,
      "ro": 247,
      "st": 248,
      "ion": 249,
      "he": 250,
      "re": 251,
      "al": 252,
      "ic": 253,
      "it": 254,
      "ow": 255,
      "ed": 256,
      "##": 257,
      "et": 258,
      "Ġa": 259,
      "06": 260,
      "ec": 261,
      "201": 262,
      "ĠĠĠĠ": 263,
      "le": 264,
      "is": 265,
      "Ġthe": 266,
      "ou": 267,
      "ĠA": 268,
      "Ġc": 269,
      "of": 270,
      "ind": 271,
      "Ġs": 272,
      "ing": 273,
      "am": 274,
      "ar": 275,
      "ation": 276,
      "ent": 277,
      "ĠS": 278,
      "ag": 279,
      "ows": 280,
      "10": 281,
      "indows": 282,
      "ll": 283,
      "19": 284,
      "id": 285,
      "Ġf": 286,
      "and": 287,
      "Ġw": 288,
      "2017": 289,
      "32": 290,
      "ex": 291,
      "05": 292,
      "64": 293,
      "Windows": 294,
      "om": 295,
      "ac": 296,
      "as": 297,
      "ess": 298,
      "em": 299,
      "lo": 300,
      "Ġp": 301,
      "im": 302,
      "\":": 303,
      "16": 304,
      ",\"": 305,
      "38": 306,
      "ad": 307,
      "Ġd": 308,
      "Ġto": 309,
      "21": 310,
      "age": 311,
      "us": 312,
      "Ġb": 313,
      "56": 314,
      "31": 315,
      "Ġin": 316,
      "In": 317,
      "ect": 318,
      "..": 319,
      "07": 320,
      "oft": 321,
      "18": 322,
      "ut": 323,
      "ĠD": 324,
      "Ġm": 325,
      "ĠP": 326,
      "0000": 327,
      "est": 328,
      "iv": 329,
      "ce": 330,
      "Sy": 331,
      "ur": 332,
      "01": 333,
      "ru": 334,
      "ĠT": 335,
      "cess": 336,
      "el": 337,
      "ĠĠĠĠĠĠĠĠ": 338,
      "ol": 339,
      "03": 340,
      "Ġth": 341,
      "ĠC": 342,
      "ch": 343,
      "ig": 344,
      "ame": 345,
      "CE": 346,
      "stem": 347,
      "<|": 348,
      "ros": 349,
      "|>": 350,
      "ĠN": 351,
      "25": 352,
      "il": 353,
      "our": 354,
      "icros": 355,
      "icrosoft": 356,
      "Ġand": 357,
      "14": 358,
      "od": 359,
      "Ġn": 360,
      "yp": 361,
      "26": 362,
      ":\\": 363,
      "ers": 364,
      "ev": 365,
      "Ġ.": 366,
      "44": 367,
      "Ġof": 368,
      "exe": 369,
      "ot": 370,
      "ht": 371,
      "ate": 372,
      "Re": 373,
      "22": 374,
      "um": 375,
      "orm": 376,
      "âĢ": 377,
      "ab": 378,
      "if": 379,
      "un": 380,
      "all": 381,
      "ile": 382,
      "Ġ(": 383,
      "tp": 384,
      "11": 385,
      "se": 386,
      "ĠI": 387,
      "\":\"": 388,
      "\",\"": 389,
      "pl": 390,
      "ĠAM": 391,
      "Ġis": 392,
      "09": 393,
      "pt": 394,
      "ct": 395,
      "###": 396,
      "13": 397,
      "--": 398,
      "System": 399,
      "Microsoft": 400,
      "__": 401,
      "ack": 402,
      "ype": 403,
      "ĠL": 404,
      "ity": 405,
      "54": 406,
      "Ġre": 407,
      "res": 408,
      "erv": 409,
      "17": 410,
      "dd": 411,
      "ice": 412,
      "ort": 413,
      "23": 414,
      "Ġ\\": 415,
      "up": 416,
      "ul": 417,
      "35": 418,
      "88": 419,
      "ost": 420,
      "ey": 421,
      "Ġh": 422,
      "SS": 423,
      "wor": 424,
      "net": 425,
      "08": 426,
      "Op": 427,
      "Pro": 428,
      "http": 429,
      "12": 430,
      "ont": 431,
      "ĠM": 432,
      "Ġl": 433,
      "mon": 434,
      "59": 435,
      "34": 436,
      "ĠF": 437,
      "Ġ\\|": 438,
      "04": 439,
      "Ġus": 440,
      "192": 441,
      "ource": 442,
      "02": 443,
      "image": 444,
      "ĠE": 445,
      "39": 446,
      "AE": 447,
      "qu": 448,
      "log": 449,
      "168": 450,
      "cp": 451,
      "ist": 452,
      "ST": 453,
      "ain": 454,
      "24": 455,
      "SU": 456,
      "dll": 457,
      "Ġ21": 458,
      "ery": 459,
      "are": 460,
      "200": 461,
      "og": 462,
      "CESS": 463,
      "ata": 464,
      "ay": 465,
      "80": 466,
      "form": 467,
      "CCESS": 468,
      "ire": 469,
      "ri": 470,
      "oc": 471,
      "SUCCESS": 472,
      "OR": 473,
      "ive": 474,
      "Ġon": 475,
      "48": 476,
      "ith": 477,
      "th": 478,
      "com": 479,
      "ter": 480,
      "NT": 481,
      "Type": 482,
      "ef": 483,
      "ĠĊ": 484,
      "Reg": 485,
      "Key": 486,
      "ccess": 487,
      "2020": 488,
      "ection": 489,
      "work": 490,
      "55": 491,
      "``": 492,
      "QB": 493,
      "ĠH": 494,
      "rocess": 495,
      "ĠU": 496,
      "oun": 497,
      "ap": 498,
      "bf": 499,
      "76": 500,
      "ee": 501,
      "Ġfor": 502,
      "Ġbe": 503,
      "Qu": 504,
      "Ġthat": 505,
      "ĠIn": 506,
      "IT": 507,
      "Ġv": 508,
      "ure": 509,
      "tcp": 510,
      "HK": 511,
      "yt": 512,
      "ER": 513,
      "ĠSource": 514,
      "==": 515,
      "ĠR": 516,
      "](": 517,
      "2012": 518,
      "Ġor": 519,
      "kb": 520,
      "cc": 521,
      "own": 522,
      "onn": 523,
      "ecur": 524,
      "Query": 525,
      "Ġ-": 526,
      "ode": 527,
      "ination": 528,
      "Ġex": 529,
      "ON": 530,
      "78": 531,
      "ecurity": 532,
      "formation": 533,
      "Ġan": 534,
      "estination": 535,
      "ff": 536,
      "EA": 537,
      "Ġg": 538,
      "SY": 539,
      "36": 540,
      "Ġ0": 541,
      "op": 542,
      "ir": 543,
      "255": 544,
      "pro": 545,
      "ated": 546,
      "EM": 547,
      "Ġas": 548,
      "15": 549,
      "etwork": 550,
      "one": 551,
      "ĠĠĠĠĠĠĠĠĠĠĠĠĠĠĠĠ": 552,
      "Ġwh": 553,
      "evice": 554,
      "UT": 555,
      "Ex": 556,
      "ware": 557,
      "iz": 558,
      "ytes": 559,
      "riv": 560,
      "ory": 561,
      "Ġy": 562,
      "33": 563,
      "185": 564,
      "ount": 565,
      "ud": 566,
      "We": 567,
      "85": 568,
      "Ġcom": 569,
      "ĠDestination": 570,
      "29": 571,
      "Ġ\"": 572,
      "//": 573,
      "ime": 574,
      "ume": 575,
      "Ġwith": 576,
      "isk": 577,
      "Ġst": 578,
      "STEM": 579,
      "ly": 580,
      "384": 581,
      "ass": 582,
      "SYSTEM": 583,
      "....": 584,
      "27": 585,
      "CR": 586,
      "Name": 587,
      "ITY": 588,
      "Win": 589,
      "roup": 590,
      "HOR": 591,
      "Vol": 592,
      "37": 593,
      "ill": 594,
      "UTHOR": 595,
      "UTHORITY": 596,
      "ĠG": 597,
      "ĠAUTHORITY": 598,
      "Device": 599,
      "57": 600,
      "Open": 601,
      "ber": 602,
      "rom": 603,
      "364": 604,
      "Ġat": 605,
      "ontro": 606,
      "28": 607,
      "av": 608,
      "49": 609,
      "ĠO": 610,
      "SF": 611,
      "File": 612,
      "resp": 613,
      "Volume": 614,
      "loc": 615,
      "idType": 616,
      "46": 617,
      "ystem": 618,
      "3856": 619,
      "Har": 620,
      "ult": 621,
      "ip": 622,
      "Ġcan": 623,
      "AT": 624,
      "ddisk": 625,
      "Harddisk": 626,
      "Port": 627,
      "HarddiskVolume": 628,
      "able": 629,
      "nown": 630,
      "ontrol": 631,
      "os": 632,
      "Ip": 633,
      "LM": 634,
      "ue": 635,
      "#####": 636,
      "Ġthis": 637,
      "âĢ¢": 638,
      "Ġlog": 639,
      "53": 640,
      "tr": 641,
      "ens": 642,
      "ew": 643,
      "ccount": 644,
      "vent": 645,
      "EN": 646,
      "alse": 647,
      "Ġit": 648,
      "rue": 649,
      "ĠB": 650,
      "ions": 651,
      "Sys": 652,
      "urr": 653,
      "AR": 654,
      "AN": 655,
      "eration": 656,
      "Ġpro": 657,
      "ub": 658,
      "ject": 659,
      "Ġ20": 660,
      "microsoft": 661,
      "ore": 662,
      "ser": 663,
      "Ġwe": 664,
      "![": 665,
      "86": 666,
      "40": 667,
      "urrent": 668,
      "SidType": 669,
      "47": 670,
      "ge": 671,
      "Ġare": 672,
      "Ġ[": 673,
      "windows": 674,
      "Ġ2": 675,
      "ication": 676,
      "bytes": 677,
      "Group": 678,
      "AG": 679,
      "220": 680,
      "ĠThe": 681,
      "to": 682,
      "45": 683,
      "ov": 684,
      "####": 685,
      "min": 686,
      "ĠW": 687,
      "ĠID": 688,
      "EX": 689,
      "Ar": 690,
      "Des": 691,
      "ds": 692,
      "://": 693,
      "00000000": 694,
      "ĠTh": 695,
      "ts": 696,
      "ĠProcess": 697,
      "LS": 698,
      "tack": 699,
      "stall": 700,
      "ID": 701,
      "ags": 702,
      "Known": 703,
      "ies": 704,
      "amd": 705,
      "ine": 706,
      "name": 707,
      "nc": 708,
      "ail": 709,
      "AB": 710,
      "ask": 711,
      "Ġ1": 712,
      "orig": 713,
      "ĠName": 714,
      "ĠRe": 715,
      "ib": 716,
      "ment": 717,
      "HKLM": 718,
      "TO": 719,
      "Sysmon": 720,
      "Ġdet": 721,
      "108": 722,
      "ĠNT": 723,
      "58": 724,
      "ormal": 725,
      "anif": 726,
      "anifest": 727,
      "```": 728,
      "Ġyou": 729,
      "rust": 730,
      "her": 731,
      "chive": 732,
      "VI": 733,
      "end": 734,
      "AD": 735,
      "98": 736,
      "Well": 737,
      "Ġnot": 738,
      "ONEN": 739,
      "gr": 740,
      "WellKnown": 741,
      "run": 742,
      "WellKnownGroup": 743,
      "96": 744,
      "SidTypeWellKnownGroup": 745,
      "Proc": 746,
      "plor": 747,
      "ĠV": 748,
      "andle": 749,
      "cri": 750,
      "ast": 751,
      "ĠAccess": 752,
      "EXE": 753,
      "Archive": 754,
      "eng": 755,
      "act": 756,
      "none": 757,
      "IN": 758,
      "Operation": 759,
      "41": 760,
      "plorer": 761,
      "ings": 762,
      "ĠLog": 763,
      "ired": 764,
      "eb": 765,
      "AF": 766,
      "::": 767,
      "AEEA": 768,
      "AM": 769,
      "win": 770,
      "SE": 771,
      "ple": 772,
      "ces": 773,
      "42": 774,
      "cl": 775,
      "wB": 776,
      "port": 777,
      "erver": 778,
      "https": 779,
      "Control": 780,
      "ected": 781,
      "normal": 782,
      "alue": 783,
      "irect": 784,
      "50": 785,
      "ide": 786,
      "DE": 787,
      "____": 788,
      "Ġfrom": 789,
      "QQB": 790,
      "Information": 791,
      "the": 792,
      "Ġ|": 793,
      "iles": 794,
      "put": 795,
      "art": 796,
      "rusted": 797,
      "2009": 798,
      "ak": 799,
      "ne": 800,
      "sv": 801,
      "VICE": 802,
      "90": 803,
      "Set": 804,
      "52": 805,
      "cid": 806,
      "ERVICE": 807,
      "ervice": 808,
      "Time": 809,
      "ower": 810,
      "cript": 811,
      "Install": 812,
      "rule": 813,
      "43": 814,
      "ĠPage": 815,
      "Security": 816,
      "83": 817,
      "Explorer": 818,
      "Ġk": 819,
      "Ġby": 820,
      "Sx": 821,
      "DC": 822,
      "Trusted": 823,
      "Log": 824,
      "ĠSERVICE": 825,
      "eek": 826,
      "ĠK": 827,
      "Ad": 828,
      "ign": 829,
      "OT": 830,
      "Installer": 831,
      "380": 832,
      "Ġconn": 833,
      "uth": 834,
      "user": 835,
      "Operational": 836,
      "ans": 837,
      "St": 838,
      "ial": 839,
      "true": 840,
      "Host": 841,
      "RegQuery": 842,
      "SR": 843,
      "TrustedInstaller": 844,
      ")(": 845,
      "Tags": 846,
      "329": 847,
      "ĠĠĠ": 848,
      "Data": 849,
      "227": 850,
      "3948": 851,
      "Ġev": 852,
      "Procmon": 853,
      "ere": 854,
      "ĠWindows": 855,
      "int": 856,
      "649": 857,
      "omain": 858,
      "ight": 859,
      "ld": 860,
      "ction": 861,
      "ok": 862,
      "ms": 863,
      "Ġ192": 864,
      "183": 865,
      "Ġ3": 866,
      "464": 867,
      "ices": 868,
      "ys": 869,
      "77": 870,
      "Ġ5": 871,
      "956": 872,
      "WinSx": 873,
      "get": 874,
      "WinSxS": 875,
      "16384": 876,
      "CRONEN": 877,
      "US": 878,
      "ert": 879,
      "Ġr": 880,
      "oftware": 881,
      "ET": 882,
      "cr": 883,
      "ĠHandle": 884,
      "ength": 885,
      "mand": 886,
      "gB": 887,
      "zeek": 888,
      "Ġwas": 889,
      "ich": 890,
      "out": 891,
      "Current": 892,
      "...": 893,
      "arch": 894,
      "0088": 895,
      "reate": 896,
      "2631": 897,
      "1478": 898,
      "quest": 899,
      "34185": 900,
      "ĠHandleTags": 901,
      "008885": 902,
      "Ġal": 903,
      "18310": 904,
      "38044": 905,
      "22649": 906,
      "185329": 907,
      "2271478": 908,
      "956008885": 909,
      "pp": 910,
      "df": 911,
      "Desired": 912,
      "5432": 913,
      "3418522649": 914,
      "1853292631": 915,
      "1831038044": 916,
      "2271478464": 917,
      "che": 918,
      "Ġun": 919,
      "Is": 920,
      "The": 921,
      "xs": 922,
      "51": 923,
      "ress": 924,
      "ep": 925,
      "9200": 926,
      "RE": 927,
      "Ġwill": 928,
      "99": 929,
      "but": 930,
      "\",\".": 931,
      "Network": 932,
      "ĠRead": 933,
      "iel": 934,
      "Ġe": 935,
      "AC": 936,
      "Ġ23": 937,
      "ach": 938,
      "ww": 939,
      "Ġconnection": 940,
      "30": 941,
      "âĢĻ": 942,
      "uid": 943,
      "ave": 944,
      "ant": 945,
      "af": 946,
      "ob": 947,
      "wins": 948,
      "ize": 949,
      "Ġprocess": 950,
      "chost": 951,
      "ecut": 952,
      "68": 953,
      "hell": 954,
      "ary": 955,
      "der": 956,
      "ug": 957,
      "Ġ4": 958,
      "ally": 959,
      "svchost": 960,
      "ase": 961,
      "rivile": 962,
      "istr": 963,
      "winsxs": 964,
      "ous": 965,
      "Ġsh": 966,
      "toc": 967,
      "ĠThis": 968,
      "ribut": 969,
      "Ġlogon": 970,
      "fer": 971,
      "ext": 972,
      "Ġind": 973,
      "tt": 974,
      "Ġsystem": 975,
      "rit": 976,
      "udit": 977,
      "ition": 978,
      "----": 979,
      "........": 980,
      "tocol": 981,
      "ech": 982,
      "Ġsu": 983,
      "AA": 984,
      "ersion": 985,
      "ED": 986,
      "SRV": 987,
      "1384": 988,
      "ANS": 989,
      "Ġfalse": 990,
      "ĠOpen": 991,
      "Event": 992,
      "fo": 993,
      "zure": 994,
      "000": 995,
      "ources": 996,
      "Ġdetected": 997,
      "ould": 998,
      "2010": 999,
      "ĠUser": 1000,
      "ervices": 1001,
      "ates": 1002,
      "gram": 1003,
      "iqu": 1004,
      "Power": 1005,
      "ns": 1006,
      "Cl": 1007,
      "Hostname": 1008,
      "Ġcon": 1009,
      "Ipv": 1010,
      "385": 1011,
      "irectory": 1012,
      "ener": 1013,
      "IsIpv": 1014,
      "Sync": 1015,
      "PortName": 1016,
      "Ġattack": 1017,
      "Ġ=": 1018,
      "ance": 1019,
      "manifest": 1020,
      "72": 1021,
      "Ġle": 1022,
      "local": 1023,
      "ator": 1024,
      "ĠPro": 1025,
      "ank": 1026,
      "anag": 1027,
      "be": 1028,
      "load": 1029,
      "SK": 1030,
      "AU": 1031,
      "107": 1032,
      "Ġch": 1033,
      "Ġwhich": 1034,
      "Id": 1035,
      "Ġ{": 1036,
      "66": 1037,
      "ang": 1038,
      "ence": 1039,
      "Ġ03": 1040,
      "Ġim": 1041,
      "ĠLogon": 1042,
      "Ġdata": 1043,
      "ik": 1044,
      "79": 1045,
      "AH": 1046,
      "ust": 1047,
      "IM": 1048,
      "ppl": 1049,
      "ĠâĢ": 1050,
      "vm": 1051,
      "mp": 1052,
      "Â©": 1053,
      "ĠEx": 1054,
      "ml": 1055,
      "Th": 1056,
      "><": 1057,
      "En": 1058,
      "cd": 1059,
      "OpenKey": 1060,
      "une": 1061,
      "ND": 1062,
      "RegOpenKey": 1063,
      "Software": 1064,
      "Ġall": 1065,
      "ard": 1066,
      "92": 1067,
      "Nu": 1068,
      "Ġsp": 1069,
      "DESK": 1070,
      "Ġen": 1071,
      "Ġfile": 1072,
      "Ġused": 1073,
      "Ġadd": 1074,
      "\\{": 1075,
      "Ġ7": 1076,
      "Process": 1077,
      "Ġuse": 1078,
      ").": 1079,
      "Ġindic": 1080,
      "Ġ/": 1081,
      "olic": 1082,
      "QQBB": 1083,
      "LO": 1084,
      "Ġtr": 1085,
      "Ġ13": 1086,
      "ues": 1087,
      "TOP": 1088,
      "nept": 1089,
      "neptune": 1090,
      "other": 1091,
      "Ġhave": 1092,
      "lose": 1093,
      "ĠNetwork": 1094,
      "DESKTOP": 1095,
      "Ġop": 1096,
      "Ġhas": 1097,
      "cor": 1098,
      "Ġmay": 1099,
      "ui": 1100,
      "Ġevent": 1101,
      "vid": 1102,
      "84": 1103,
      "OU": 1104,
      "{\"": 1105,
      "AL": 1106,
      "Âł": 1107,
      "de": 1108,
      "ization": 1109,
      "con": 1110,
      "ession": 1111,
      "RegQueryKey": 1112,
      "Com": 1113,
      "Azure": 1114,
      "89": 1115,
      "md": 1116,
      "set": 1117,
      "CED": 1118,
      "SO": 1119,
      "Ġuser": 1120,
      "eth": 1121,
      "Audit": 1122,
      "ĠâĢ¢": 1123,
      "AV": 1124,
      "oll": 1125,
      "67": 1126,
      "resources": 1127,
      "ĠCom": 1128,
      "ttribut": 1129,
      "pos": 1130,
      "ull": 1131,
      "Ġaccount": 1132,
      "mage": 1133,
      "FCED": 1134,
      "ĠĠĠĠĠĠĠĠĠĠĠĠĠĠĠĠĠĠĠĠĠĠĠĠĠĠĠĠĠĠĠĠ": 1135,
      "??": 1136,
      "ace": 1137,
      "====": 1138,
      "442": 1139,
      "pr": 1140,
      "\",\".\":": 1141,
      "so": 1142,
      "rivilege": 1143,
      "SI": 1144,
      "sh": 1145,
      "\",\".\":,\"": 1146,
      "Ġcont": 1147,
      "false": 1148,
      "red": 1149,
      "ome": 1150,
      "Ġ:": 1151,
      "ility": 1152,
      "ample": 1153,
      "\":\"...": 1154,
      "rundll": 1155,
      "bb": 1156,
      "\":\"...\",\".\":,\"": 1157,
      "97": 1158,
      "Close": 1159,
      "conn": 1160,
      "umber": 1161,
      "LSB": 1162,
      "2500": 1163,
      "Ġinst": 1164,
      "ControlSet": 1165,
      "echn": 1166,
      "ĠSecurity": 1167,
      "prod": 1168,
      "CurrentControlSet": 1169,
      "Ġrequest": 1170,
      "5464": 1171,
      "Create": 1172,
      "ilo": 1173,
      "00107": 1174,
      "CEE": 1175,
      "CU": 1176,
      "li": 1177,
      "bject": 1178,
      "ched": 1179,
      "for": 1180,
      "87": 1181,
      "reat": 1182,
      "over": 1183,
      "ific": 1184,
      "aa": 1185,
      "Value": 1186,
      "ault": 1187,
      "ork": 1188,
      "ious": 1189,
      "ible": 1190,
      "cf": 1191,
      "bd": 1192,
      "Res": 1193,
      "NV": 1194,
      "ĠEvent": 1195,
      "Ġaccess": 1196,
      "ilobytes": 1197,
      "pplication": 1198,
      "puter": 1199,
      "ĠKilobytes": 1200,
      "69": 1201,
      "ĠType": 1202,
      "ï¬": 1203,
      "0700": 1204,
      "60": 1205,
      "Info": 1206,
      "Ġexecut": 1207,
      "ese": 1208,
      "ield": 1209,
      "ĠEn": 1210,
      "Admin": 1211,
      "page": 1212,
      "AME": 1213,
      "Ġab": 1214,
      "TR": 1215,
      "tings": 1216,
      "Ġusing": 1217,
      "AS": 1218,
      "ement": 1219,
      "arget": 1220,
      "FT": 1221,
      "ax": 1222,
      "Us": 1223,
      "system": 1224,
      "Class": 1225,
      "nal": 1226,
      "ick": 1227,
      "](#": 1228,
      "Ġhttp": 1229,
      "ĠAll": 1230,
      "}\\": 1231,
      "NAME": 1232,
      "Ġinformation": 1233,
      "oint": 1234,
      "LSBank": 1235,
      "ror": 1236,
      "eLSBank": 1237,
      "Ġres": 1238,
      "Ġyour": 1239,
      "Code": 1240,
      "mui": 1241,
      "</": 1242,
      "),": 1243,
      "olicy": 1244,
      "ĠNOT": 1245,
      "Ġ19": 1246,
      "NuNV": 1247,
      "Account": 1248,
      "ely": 1249,
      "HKCU": 1250,
      "TT": 1251,
      "OUND": 1252,
      "âĢĿ": 1253,
      "ĠGet": 1254,
      "Ġif": 1255,
      "________": 1256,
      "Ġ12": 1257,
      "fig": 1258,
      "ning": 1259,
      "EventLog": 1260,
      "Ġi": 1261,
      "org": 1262,
      "Privilege": 1263,
      "mis": 1264,
      "elet": 1265,
      "ual": 1266,
      "Program": 1267,
      "Ġhttps": 1268,
      "ner": 1269,
      "ypt": 1270,
      "ARE": 1271,
      "code": 1272,
      "iated": 1273,
      "bo": 1274,
      "ĠImage": 1275,
      "UI": 1276,
      "uthent": 1277,
      "read": 1278,
      "ca": 1279,
      "efault": 1280,
      "berg": 1281,
      "ĠFOUND": 1282,
      "cron": 1283,
      "ttributes": 1284,
      "Ġ2020": 1285,
      "Ġwhen": 1286,
      "ia": 1287,
      "ĠFiles": 1288,
      "me": 1289,
      "ents": 1290,
      "enberg": 1291,
      "inf": 1292,
      "Ġgener": 1293,
      "rite": 1294,
      "Ġsuch": 1295,
      "rivate": 1296,
      "ifi": 1297,
      "ĠDomain": 1298,
      "alware": 1299,
      "atus": 1300,
      "LL": 1301,
      "NET": 1302,
      "WARE": 1303,
      "abl": 1304,
      "ical": 1305,
      "App": 1306,
      "pat": 1307,
      "Ġdo": 1308,
      "Manifest": 1309,
      "Ġinter": 1310,
      "7600": 1311,
      "cronenberg": 1312,
      "ake": 1313,
      "ols": 1314,
      "ink": 1315,
      "Manifests": 1316,
      "Conn": 1317,
      "ĠData": 1318,
      "16385": 1319,
      "QQBBAEEA": 1320,
      "ident": 1321,
      "ache": 1322,
      "app": 1323,
      "'s": 1324,
      "js": 1325,
      "ote": 1326,
      "Ġper": 1327,
      "ruct": 1328,
      "Ġmod": 1329,
      "Guid": 1330,
      "WinEventLog": 1331,
      "Ġ6": 1332,
      "QA": 1333,
      "eed": 1334,
      "sp": 1335,
      "dv": 1336,
      "host": 1337,
      "isc": 1338,
      "da": 1339,
      "Ġkey": 1340,
      "ï¬ģ": 1341,
      "istrator": 1342,
      "Ġnetwork": 1343,
      "PE": 1344,
      "ck": 1345,
      "ages": 1346,
      "74": 1347,
      "75": 1348,
      "ION": 1349,
      "unction": 1350,
      "Ġcommand": 1351,
      "tc": 1352,
      "Sh": 1353,
      "Ġ06": 1354,
      "Str": 1355,
      "82": 1356,
      "ange": 1357,
      "95": 1358,
      "Ġany": 1359,
      "du": 1360,
      "essage": 1361,
      "ify": 1362,
      "Ġset": 1363,
      "Ġ80": 1364,
      "Directory": 1365,
      "94": 1366,
      "Ġ17": 1367,
      "SOFT": 1368,
      "Ġ+": 1369,
      "ĠKey": 1370,
      "Ġservice": 1371,
      "Ġ%": 1372,
      "uration": 1373,
      "data": 1374,
      "ba": 1375,
      "ĠCh": 1376,
      "Users": 1377,
      "Size": 1378,
      "any": 1379,
      "NOT": 1380,
      "SOFTWARE": 1381,
      "Ġsession": 1382,
      "None": 1383,
      "plo": 1384,
      "ĠProtocol": 1385,
      "ics": 1386,
      "ord": 1387,
      "Version": 1388,
      "ĠLength": 1389,
      "Ġspec": 1390,
      "ĠJ": 1391,
      "ysis": 1392,
      "gan": 1393,
      "bin": 1394,
      "earch": 1395,
      "Ġtrue": 1396,
      "Ġo": 1397,
      "we": 1398,
      "ĠInit": 1399,
      "User": 1400,
      "te": 1401,
      "ĠInformation": 1402,
      "Server": 1403,
      "_::": 1404,
      "2019": 1405,
      "clud": 1406,
      "ever": 1407,
      "per": 1408,
      "cription": 1409,
      "ethod": 1410,
      "ATED": 1411,
      "ating": 1412,
      "ss": 1413,
      "uthor": 1414,
      "Ġup": 1415,
      "iew": 1416,
      "Ġ10": 1417,
      "ong": 1418,
      "ubject": 1419,
      "AW": 1420,
      "word": 1421,
      "echniqu": 1422,
      "lock": 1423,
      "Ġ'": 1424,
      "FI": 1425,
      "Ġtcp": 1426,
      "Connect": 1427,
      "db": 1428,
      "tcTime": 1429,
      "private": 1430,
      "TRANS": 1431,
      "TRANSL": 1432,
      ":_": 1433,
      "Task": 1434,
      "ute": 1435,
      "Ġnew": 1436,
      "Ġcl": 1437,
      "TRANSLATED": 1438,
      "Loc": 1439,
      "Ġrun": 1440,
      "=--": 1441,
      "LSID": 1442,
      "Ġonly": 1443,
      "can": 1444,
      "ĠAccount": 1445,
      "day": 1446,
      "uthentication": 1447,
      "CLSID": 1448,
      "ĠSt": 1449,
      "Ġ,": 1450,
      "respon": 1451,
      "Logon": 1452,
      "aram": 1453,
      "FA": 1454,
      "VM": 1455,
      "ĠProcessId": 1456,
      "\",": 1457,
      "oz": 1458,
      "Ġcode": 1459,
      "Ġar": 1460,
      "ĠProcessGuid": 1461,
      "ĠUtcTime": 1462,
      "2016": 1463,
      "HKCR": 1464,
      "ari": 1465,
      "RegQueryValue": 1466,
      "Ġlo": 1467,
      "bc": 1468,
      "ict": 1469,
      "73": 1470,
      "[]": 1471,
      "To": 1472,
      "SH": 1473,
      "ike": 1474,
      "Ġ9": 1475,
      "ish": 1476,
      "SEC": 1477,
      "ptions": 1478,
      "ulner": 1479,
      "ĠInitiated": 1480,
      "ateg": 1481,
      "ĠDestinationIp": 1482,
      "Ġbut": 1483,
      "ĠSourceIp": 1484,
      "Ġaddress": 1485,
      "ĠDestinationPort": 1486,
      "ĠDestinationHostname": 1487,
      "ĠSourceHostname": 1488,
      "ganization": 1489,
      "ĠSourcePort": 1490,
      "ĠSourcePortName": 1491,
      "LD": 1492,
      "ĠSourceIsIpv": 1493,
      "ĠDestinationIsIpv": 1494,
      "ackage": 1495,
      "Ch": 1496,
      "ĠNetworkConnect": 1497,
      "Ġ5464": 1498,
      "ĠDestinationPortName": 1499,
      "FOR": 1500,
      "aw": 1501,
      "ability": 1502,
      "ption": 1503,
      "ĠDet": 1504,
      "ule": 1505,
      "ise": 1506,
      "Classes": 1507,
      "ĠFile": 1508,
      "Ġcall": 1509,
      "fe": 1510,
      "70": 1511,
      "main": 1512,
      "anager": 1513,
      "Ġact": 1514,
      "Ġtype": 1515,
      "logs": 1516,
      "ash": 1517,
      "Ġname": 1518,
      "ploit": 1519,
      "ae": 1520,
      "ĉĉ": 1521,
      "Ġob": 1522,
      "mm": 1523,
      "erson": 1524,
      "0001": 1525,
      "ree": 1526,
      "71": 1527,
      "emory": 1528,
      "Ġalso": 1529,
      "yn": 1530,
      "Ġ8": 1531,
      "Ġsign": 1532,
      "Ġother": 1533,
      "65": 1534,
      "ĠâĢľ": 1535,
      "Ġhe": 1536,
      "CloseKey": 1537,
      "RegCloseKey": 1538,
      "use": 1539,
      "current": 1540,
      "fd": 1541,
      "CreateFile": 1542,
      "illa": 1543,
      "ath": 1544,
      "ux": 1545,
      "ĠSh": 1546,
      "An": 1547,
      "words": 1548,
      "Shell": 1549,
      "................": 1550,
      "vir": 1551,
      "ĠInst": 1552,
      "Object": 1553,
      "ook": 1554,
      "Con": 1555,
      "ĠIt": 1556,
      "pk": 1557,
      "BER": 1558,
      "ozilla": 1559,
      "Ġj": 1560,
      "Ġident": 1561,
      "Ġpre": 1562,
      "nel": 1563,
      "93": 1564,
      "ĠWe": 1565,
      "ther": 1566,
      "='": 1567,
      "Ġmore": 1568,
      "Ġtask": 1569,
      "ced": 1570,
      "81": 1571,
      "Ġreg": 1572,
      "ential": 1573,
      "uccess": 1574,
      "elete": 1575,
      "ields": 1576,
      "chedul": 1577,
      "BERG": 1578,
      "856": 1579,
      "OW": 1580,
      "udp": 1581,
      "ities": 1582,
      "ased": 1583,
      "attack": 1584,
      "ĠAttributes": 1585,
      "7601": 1586,
      "RL": 1587,
      "mit": 1588,
      "CH": 1589,
      "ham": 1590,
      "Mozilla": 1591,
      "Ġapplication": 1592,
      "Administrator": 1593,
      "Ġav": 1594,
      "At": 1595,
      "sm": 1596,
      "owing": 1597,
      "Ġgenerated": 1598,
      "\\$": 1599,
      "Ġfiles": 1600,
      "gA": 1601,
      "apt": 1602,
      "river": 1603,
      "ound": 1604,
      "AP": 1605,
      "cb": 1606,
      "115": 1607,
      "inal": 1608,
      "IP": 1609,
      "idx": 1610,
      "www": 1611,
      "Ġrem": 1612,
      "91": 1613,
      "pon": 1614,
      "---": 1615,
      "itute": 1616,
      "unk": 1617,
      "Un": 1618,
      "Ġ14": 1619,
      "ark": 1620,
      "63": 1621,
      "error": 1622,
      "507": 1623,
      "âĶ": 1624,
      "This": 1625,
      "miss": 1626,
      "Ġpl": 1627,
      "Ġ2022": 1628,
      "Ġcre": 1629,
      "viron": 1630,
      "--------": 1631,
      "AppData": 1632,
      "Local": 1633,
      "Policy": 1634,
      "ified": 1635,
      "ĠĠĠĠĠĠĠĠĠĠĠĠ": 1636,
      "Ġ00": 1637,
      "ailable": 1638,
      "ged": 1639,
      "Ġneed": 1640,
      "ĠSANS": 1641,
      "ĠRec": 1642,
      "vironment": 1643,
      "Auditing": 1644,
      "Strings": 1645,
      "ite": 1646,
      "angu": 1647,
      "Ġmost": 1648,
      "For": 1649,
      "ARA": 1650,
      "par": 1651,
      "atic": 1652,
      "fc": 1653,
      "Description": 1654,
      "len": 1655,
      "Ġfields": 1656,
      "ph": 1657,
      "IS": 1658,
      "Ġinto": 1659,
      "dc": 1660,
      "Ġtime": 1661,
      "--::": 1662,
      "str": 1663,
      "Ġsome": 1664,
      "256": 1665,
      "Se": 1666,
      "elight": 1667,
      "nsm": 1668,
      "ĠCL": 1669,
      "uesday": 1670,
      "status": 1671,
      "Ġindicates": 1672,
      "with": 1673,
      "oin": 1674,
      "vider": 1675,
      ".\",\"": 1676,
      "Ġinclud": 1677,
      "oud": 1678,
      "row": 1679,
      "ily": 1680,
      "{\"\":\"": 1681,
      ".\",\"\":\"": 1682,
      "irst": 1683,
      "march": 1684,
      "ermin": 1685,
      "corelight": 1686,
      "{\"\":\"--::": 1687,
      "ody": 1688,
      "add": 1689,
      "{\"\":\"--::.\",\"\":\"": 1690,
      "tuesday": 1691,
      "CP": 1692,
      "wA": 1693,
      "ea": 1694,
      "pkts": 1695,
      "assword": 1696,
      "61": 1697,
      "wh": 1698,
      "CK": 1699,
      "Ġrule": 1700,
      "Ġass": 1701,
      "Ġfoll": 1702,
      "mod": 1703,
      "()": 1704,
      "file": 1705,
      "LT": 1706,
      "ĠY": 1707,
      "emb": 1708,
      "oth": 1709,
      "Ġindicate": 1710,
      "Ġone": 1711,
      "ient": 1712,
      "fl": 1713,
      "Ġ$": 1714,
      "ĠSe": 1715,
      "Ġtarget": 1716,
      "000000000000": 1717,
      "CurrentVersion": 1718,
      "Ġvalue": 1719,
      "ations": 1720,
      "OK": 1721,
      "ps": 1722,
      "alid": 1723,
      "327": 1724,
      "ĠSuccess": 1725,
      "DW": 1726,
      "GET": 1727,
      "Ġbytes": 1728,
      "ays": 1729,
      "Ġanal": 1730,
      "icious": 1731,
      "Ġsecurity": 1732,
      "No": 1733,
      "plet": 1734,
      "Ġ01": 1735,
      "FF": 1736,
      "atch": 1737,
      "ature": 1738,
      "Ġcor": 1739,
      ".\":\"...\",\".\":,\"": 1740,
      "Ġdes": 1741,
      "sel": 1742,
      "LE": 1743,
      "Length": 1744,
      ".\":\"...\",\".\":,\"\"": 1745,
      "{\"\":\"--::.\",\"\":\"\",\".": 1746,
      "Ġqu": 1747,
      "Back": 1748,
      "Ġour": 1749,
      "{\"\":\"--::.\",\"\":\"\",\".\":\"...\",\".\":,\"": 1750,
      "anguage": 1751,
      "iffer": 1752,
      "anagement": 1753,
      "ve": 1754,
      "{\"\":\"--::.\",\"\":\"\",\".\":\"...\",\".\":,\".\":\"...\",\".\":,\"\"": 1755,
      "RP": 1756,
      "Settings": 1757,
      "kA": 1758,
      "ategory": 1759,
      "itor": 1760,
      "bit": 1761,
      "ĠSubject": 1762,
      "utom": 1763,
      "ĠInstitute": 1764,
      "????": 1765,
      "ĠPM": 1766,
      "62": 1767,
      "time": 1768,
      "les": 1769,
      "VW": 1770,
      "CA": 1771,
      "ting": 1772,
      "Ġthese": 1773,
      "rans": 1774,
      "fb": 1775,
      "50727": 1776,
      "Mode": 1777,
      "ĉĊ": 1778,
      "ĠFor": 1779,
      "fa": 1780,
      "Ġro": 1781,
      "Ġ*": 1782,
      "oog": 1783,
      "alues": 1784,
      "ĠDis": 1785,
      "ĠSet": 1786,
      "not": 1787,
      "ĠIP": 1788,
      "cheduler": 1789,
      "Ġlist": 1790,
      "Ġlike": 1791,
      "owed": 1792,
      "FAST": 1793,
      "istry": 1794,
      "patible": 1795,
      "1016": 1796,
      "Default": 1797,
      "eve": 1798,
      "Ġent": 1799,
      "ĠRE": 1800,
      "outp": 1801,
      "Ġx": 1802,
      "adf": 1803,
      "ports": 1804,
      "plunk": 1805,
      "ĠServer": 1806,
      "aun": 1807,
      "ose": 1808,
      "ures": 1809,
      "Ġcommon": 1810,
      "Ġshould": 1811,
      "cont": 1812,
      "roug": 1813,
      "cmd": 1814,
      "output": 1815,
      "Ġinstance": 1816,
      "dvers": 1817,
      "gg": 1818,
      "Ġexample": 1819,
      "html": 1820,
      "body": 1821,
      "efin": 1822,
      "Ġ02": 1823,
      "TTP": 1824,
      "Ġsee": 1825,
      "Ġlocal": 1826,
      "full": 1827,
      "Page": 1828,
      "IA": 1829,
      "cA": 1830,
      "âĶĢ": 1831,
      "Ġ&": 1832,
      "Get": 1833,
      "ĠAdd": 1834,
      "Ġfunction": 1835,
      "ft": 1836,
      "Ġ<": 1837,
      "ĠOp": 1838,
      "ear": 1839,
      "Ġopen": 1840,
      "cat": 1841,
      "lic": 1842,
      "175": 1843,
      "ocation": 1844,
      "Ġwhere": 1845,
      "ors": 1846,
      "ilter": 1847,
      "ĠLast": 1848,
      "ames": 1849,
      "Ġ@": 1850,
      "Ġstr": 1851,
      "Ġhow": 1852,
      "aries": 1853,
      "rough": 1854,
      "Ġout": 1855,
      "und": 1856,
      "ĠMSI": 1857,
      "Off": 1858,
      "Ġ\"\\": 1859,
      "Ġcontain": 1860,
      "ry": 1861,
      "compatible": 1862,
      "ShAD": 1863,
      "Ġno": 1864,
      "ense": 1865,
      "inux": 1866,
      "MA": 1867,
      "ĠDelete": 1868,
      "Ġpart": 1869,
      "achine": 1870,
      "Ind": 1871,
      "OS": 1872,
      "tem": 1873,
      "ĠCR": 1874,
      "ĠWh": 1875,
      "Ġsuccess": 1876,
      "ative": 1877,
      "544": 1878,
      "Ġ2023": 1879,
      "ĠMSIE": 1880,
      "Ġabout": 1881,
      "637": 1882,
      "itation": 1883,
      "eam": 1884,
      "rame": 1885,
      "ĠCLR": 1886,
      "oogle": 1887,
      "Ġme": 1888,
      "Ġserver": 1889,
      "edi": 1890,
      "ases": 1891,
      "rypt": 1892,
      "Number": 1893,
      "Ġso": 1894,
      "Ġthey": 1895,
      "UA": 1896,
      "212": 1897,
      "Ġservices": 1898,
      "ĠTask": 1899,
      "100": 1900,
      "Service": 1901,
      "ited": 1902,
      "itional": 1903,
      "Ġunder": 1904,
      "___": 1905,
      "Ġavailable": 1906,
      "ĠSV": 1907,
      "service": 1908,
      "âĶĢâĶĢ": 1909,
      "Citation": 1910,
      "Ġthen": 1911,
      "response": 1912,
      "ĠTo": 1913,
      "125": 1914,
      "irt": 1915,
      "Ġcreated": 1916,
      "PP": 1917,
      "Wh": 1918,
      "adfF": 1919,
      "ĠUn": 1920,
      "ailed": 1921,
      "UID": 1922,
      "ShADadfF": 1923,
      "yar": 1924,
      "Ġag": 1925,
      "Ġ_": 1926,
      "Category": 1927,
      "ttp": 1928,
      "NS": 1929,
      "echniques": 1930,
      "Ġgo": 1931,
      "ver": 1932,
      "rel": 1933,
      "Cont": 1934,
      "uil": 1935,
      "ĠMessage": 1936,
      "sys": 1937,
      "WS": 1938,
      "Mod": 1939,
      "evel": 1940,
      "Ali": 1941,
      "UILT": 1942,
      "UILTIN": 1943,
      "igh": 1944,
      "Administrators": 1945,
      "Ġse": 1946,
      "heck": 1947,
      "lp": 1948,
      "ocationSize": 1949,
      "Ġbet": 1950,
      "ĠComputer": 1951,
      "$(": 1952,
      "Read": 1953,
      "îģ": 1954,
      "BUILTIN": 1955,
      "Ġrequ": 1956,
      "QQBBAEEAQQBBAEEA": 1957,
      "ĠShare": 1958,
      "ma": 1959,
      "date": 1960,
      "oot": 1961,
      "ĠIf": 1962,
      "position": 1963,
      "sec": 1964,
      "cur": 1965,
      "Ġhost": 1966,
      "204": 1967,
      "ĠMicrosoft": 1968,
      "ync": 1969,
      "crypt": 1970,
      "Ġ16": 1971,
      "ets": 1972,
      "ĠRecord": 1973,
      "Ġtyp": 1974,
      "vel": 1975,
      "ences": 1976,
      "ĠAn": 1977,
      "redential": 1978,
      "Result": 1979,
      "Ġpos": 1980,
      "ock": 1981,
      "Ġsame": 1982,
      "ĠDes": 1983,
      "reg": 1984,
      "Ġpack": 1985,
      "Ġsup": 1986,
      "ifferent": 1987,
      "dmin": 1988,
      "xx": 1989,
      "Ġobject": 1990,
      "YARA": 1991,
      "ĠÂ©": 1992,
      "ĠOptions": 1993,
      "Ġlogged": 1994,
      "ument": 1995,
      "ĠX": 1996,
      ");": 1997,
      "ĠAP": 1998,
      "Ġstart": 1999,
      "Ġweb": 2000,
      "cre": 2001,
      "domain": 2002,
      "xy": 2003,
      "Ġtheir": 2004,
      "ĠScheduler": 2005,
      "ebug": 2006,
      "ertific": 2007,
      "urn": 2008,
      "wo": 2009,
      "ĠOr": 2010,
      "ulnerability": 2011,
      "ix": 2012,
      "ove": 2013,
      "________________": 2014,
      "Ġover": 2015,
      "oad": 2016,
      "enc": 2017,
      "figuration": 2018,
      "Ġsub": 2019,
      "resent": 2020,
      "Ġsim": 2021,
      "ges": 2022,
      "pre": 2023,
      "2023": 2024,
      "Ġresult": 2025,
      "igned": 2026,
      "inter": 2027,
      "Ġwork": 2028,
      "source": 2029,
      "eep": 2030,
      "fully": 2031,
      "ron": 2032,
      "Ġdis": 2033,
      "Ġmemory": 2034,
      "ĠCRONEN": 2035,
      "IO": 2036,
      "Ġĉĉ": 2037,
      "ized": 2038,
      "istory": 2039,
      "Ġlook": 2040,
      "ownload": 2041,
      "ĠEventCode": 2042,
      "Ġmany": 2043,
      "Hc": 2044,
      "ause": 2045,
      "ĠSid": 2046,
      "its": 2047,
      "alicious": 2048,
      "ĠKeywords": 2049,
      "ĠComputerName": 2050,
      "++": 2051,
      "ĠRes": 2052,
      "play": 2053,
      "ump": 2054,
      "Ġ>": 2055,
      "ĠEventType": 2056,
      "ĠOpCode": 2057,
      "ĠDisposition": 2058,
      "_::_": 2059,
      "CC": 2060,
      "ĠSourceName": 2061,
      "ĠLogName": 2062,
      "ĠRecordNumber": 2063,
      "//_::_": 2064,
      "CRONENBERG": 2065,
      "ĠIO": 2066,
      "Ġsel": 2067,
      "ĠTaskCategory": 2068,
      "Ġorganization": 2069,
      "Ġhash": 2070,
      "_^": 2071,
      "Index": 2072,
      "UU": 2073,
      "Section": 2074,
      "irtual": 2075,
      "CT": 2076,
      "onitor": 2077,
      "Alias": 2078,
      "ĠBytes": 2079,
      "**": 2080,
      "mitre": 2081,
      "ernel": 2082,
      "Ġerror": 2083,
      "pth": 2084,
      "Ġtest": 2085,
      "ormat": 2086,
      "Driver": 2087,
      "aramet": 2088,
      "ĠNew": 2089,
      "asic": 2090,
      "Ġbeen": 2091,
      "Ġmalware": 2092,
      "uch": 2093,
      "âĢĵ": 2094,
      "imum": 2095,
      "ATION": 2096,
      "plement": 2097,
      "):": 2098,
      "orage": 2099,
      "Ġem": 2100,
      "point": 2101,
      "Enum": 2102,
      "RO": 2103,
      "pert": 2104,
      "ique": 2105,
      "ructure": 2106,
      "Ġwhat": 2107,
      "ĠWork": 2108,
      "Access": 2109,
      "io": 2110,
      "Ġfollowing": 2111,
      "Manager": 2112,
      "WOW": 2113,
      "ead": 2114,
      "SidTypeAlias": 2115,
      "ween": 2116,
      "Ġcomputer": 2117,
      "by": 2118,
      "ĠURL": 2119,
      "REJ": 2120,
      "ification": 2121,
      "serv": 2122,
      "Sp": 2123,
      "ger": 2124,
      "tel": 2125,
      "aff": 2126,
      "ivity": 2127,
      "ĠObject": 2128,
      "Ġspecific": 2129,
      "Ġinv": 2130,
      "ĠAllocationSize": 2131,
      "==___": 2132,
      "rivileges": 2133,
      "Ġ11": 2134,
      "ĠCon": 2135,
      "now": 2136,
      "Ġ2021": 2137,
      "line": 2138,
      "ĠSystem": 2139,
      "ilities": 2140,
      "Ġperform": 2141,
      "Ġsec": 2142,
      "Ġits": 2143,
      "process": 2144,
      "Ġnumber": 2145,
      "owers": 2146,
      "Ġfield": 2147,
      "Ġthrough": 2148,
      "2015": 2149,
      "ĠShareMode": 2150,
      "Ġï¬ģ": 2151,
      "Ġoff": 2152,
      "Ġlong": 2153,
      "mun": 2154,
      "000000": 2155,
      "âĢĶ": 2156,
      "MJ": 2157,
      "Al": 2158,
      "PS": 2159,
      "All": 2160,
      "Ġattacker": 2161,
      "Ġeach": 2162,
      "sc": 2163,
      "api": 2164,
      "ĠSidType": 2165,
      "that": 2166,
      "ĠREG": 2167,
      "ĠCl": 2168,
      "Ġcomplet": 2169,
      "==---": 2170,
      "Inter": 2171,
      "criptor": 2172,
      "Ġwere": 2173,
      "Ġlaun": 2174,
      "state": 2175,
      "=--/": 2176,
      "evelo": 2177,
      "do": 2178,
      "ĠEng": 2179,
      "Ġdec": 2180,
      "Sche": 2181,
      "..==---": 2182,
      "ĠDate": 2183,
      "List": 2184,
      "ater": 2185,
      "=--/=--": 2186,
      "BAEEA": 2187,
      "request": 2188,
      "amily": 2189,
      "nalysis": 2190,
      "=--/=--====": 2191,
      "ĠâĢĵ": 2192,
      "Ġcould": 2193,
      "ĠOpenResult": 2194,
      "ĠOpened": 2195,
      "MI": 2196,
      "ĠZ": 2197,
      "ref": 2198,
      "(:_": 2199,
      "//_::_=--/=--====": 2200,
      "(:_)": 2201,
      "Command": 2202,
      "Ġlength": 2203,
      "Ġget": 2204,
      "Ġsuccessfully": 2205,
      "ĠĠĠĠĠĠĠ": 2206,
      "(:_)====": 2207,
      "--_::": 2208,
      "009": 2209,
      "erber": 2210,
      "\")": 2211,
      "posit": 2212,
      ":_--_::": 2213,
      "SysWOW": 2214,
      "fter": 2215,
      "âĪ": 2216,
      "CLO": 2217,
      "Ġprogram": 2218,
      "amp": 2219,
      "IRP": 2220,
      "aximum": 2221,
      "apping": 2222,
      "Ġsystems": 2223,
      "ASQB": 2224,
      "Ġdoes": 2225,
      "gh": 2226,
      "erc": 2227,
      "Web": 2228,
      "CLOSE": 2229,
      "Ġret": 2230,
      "ails": 2231,
      "CloseFile": 2232,
      "--..==---": 2233,
      "xml": 2234,
      "504": 2235,
      "If": 2236,
      "Ġfirst": 2237,
      "//_::_=--/=--====--..==---": 2238,
      "cept": 2239,
      "vide": 2240,
      "Ġback": 2241,
      "ibr": 2242,
      "Ġpe": 2243,
      "trans": 2244,
      "Ġthere": 2245,
      "Ġdifferent": 2246,
      "ĠDetection": 2247,
      "ĠNon": 2248,
      "AGE": 2249,
      "Ġport": 2250,
      "Add": 2251,
      "Ġimp": 2252,
      "__:\\": 2253,
      "Ġtools": 2254,
      "ĠQuery": 2255,
      "ĠValue": 2256,
      "==___(:_)====": 2257,
      "Ġdisc": 2258,
      "Ġcontrol": 2259,
      "ramework": 2260,
      "aph": 2261,
      "Store": 2262,
      "Ġdomain": 2263,
      "Ġbetween": 2264,
      "ensor": 2265,
      "==___(:_)====__:\\": 2266,
      "Write": 2267,
      "ĠServices": 2268,
      "duct": 2269,
      "IND": 2270,
      "tmp": 2271,
      "BC": 2272,
      "ral": 2273,
      "ffff": 2274,
      "station": 2275,
      "eff": 2276,
      "var": 2277,
      "eg": 2278,
      "lide": 2279,
      "ister": 2280,
      "|$": 2281,
      "//_::_=--/=--====--..==---==___(:_)====__:\\": 2282,
      "embly": 2283,
      "ELS": 2284,
      "Ġwould": 2285,
      "AFEA": 2286,
      "Dis": 2287,
      "emp": 2288,
      "oldf": 2289,
      "Cache": 2290,
      "292": 2291,
      "andl": 2292,
      "Ġpr": 2293,
      "efore": 2294,
      "ular": 2295,
      "oldfield": 2296,
      "pository": 2297,
      "ins": 2298,
      "tection": 2299,
      "Ġaction": 2300,
      "version": 2301,
      "Ġchang": 2302,
      "\"}": 2303,
      "17514": 2304,
      "olut": 2305,
      "HE": 2306,
      "IZ": 2307,
      "old": 2308,
      "ĠWin": 2309,
      "erberos": 2310,
      "ls": 2311,
      "Ġremote": 2312,
      "004": 2313,
      "GG": 2314,
      "Bl": 2315,
      "ble": 2316,
      "Ġprotocol": 2317,
      "method": 2318,
      "Inst": 2319,
      "lob": 2320,
      "agent": 2321,
      "rivers": 2322,
      "776": 2323,
      "Ġunique": 2324,
      "admin": 2325,
      "LOW": 2326,
      "QgB": 2327,
      "ses": 2328,
      "Ġsection": 2329,
      "chron": 2330,
      "ĠCreate": 2331,
      "man": 2332,
      "Ġ15": 2333,
      "als": 2334,
      "ĠVM": 2335,
      "Ag": 2336,
      "104": 2337,
      "war": 2338,
      "Ġtool": 2339,
      "Ġoper": 2340,
      "Cre": 2341,
      "Ġlink": 2342,
      "ayload": 2343,
      "wow": 2344,
      "older": 2345,
      ";;": 2346,
      "itions": 2347,
      "arent": 2348,
      "ively": 2349,
      "ftp": 2350,
      "lient": 2351,
      "'>": 2352,
      "indow": 2353,
      "fr": 2354,
      "atab": 2355,
      "owershell": 2356,
      "proc": 2357,
      "Ġprovid": 2358,
      "ĠAt": 2359,
      "proto": 2360,
      "ferences": 2361,
      "ules": 2362,
      "Ġ18": 2363,
      "ara": 2364,
      "ggoldfield": 2365,
      "}\"": 2366,
      "GP": 2367,
      "MM": 2368,
      "ĠAuthor": 2369,
      "Ġadvers": 2370,
      "lat": 2371,
      "001": 2372,
      "Ġauthentication": 2373,
      "Ġmalicious": 2374,
      "Ġgroup": 2375,
      "ng": 2376,
      "Ġnow": 2377,
      "Mj": 2378,
      "abled": 2379,
      "Ġvia": 2380,
      "yber": 2381,
      "Ġscript": 2382,
      "td": 2383,
      "Ġoutput": 2384,
      "rome": 2385,
      "ithub": 2386,
      "network": 2387,
      "opy": 2388,
      "ĠWrite": 2389,
      "ell": 2390,
      "Ġdevice": 2391,
      "905": 2392,
      "map": 2393,
      "ynchron": 2394,
      "text": 2395,
      "key": 2396,
      "ared": 2397,
      "rror": 2398,
      "OCR": 2399,
      "top": 2400,
      "ĠĠĠĠĠ": 2401,
      "Ġint": 2402,
      "129": 2403,
      "this": 2404,
      "ecf": 2405,
      "sw": 2406,
      "abilities": 2407,
      "ĠDef": 2408,
      "ĠGUID": 2409,
      "PowerSche": 2410,
      "Registry": 2411,
      "127": 2412,
      "tx": 2413,
      "ML": 2414,
      "back": 2415,
      "Ġthem": 2416,
      "ĠPackage": 2417,
      "olog": 2418,
      "4468": 2419,
      "Ġfe": 2420,
      "Provider": 2421,
      "NO": 2422,
      "Ġrequested": 2423,
      "DLL": 2424,
      "EF": 2425,
      "Ġtwo": 2426,
      "LEA": 2427,
      "ments": 2428,
      "BA": 2429,
      "ĠHTTP": 2430,
      "SHA": 2431,
      "ending": 2432,
      "history": 2433,
      "DP": 2434,
      "from": 2435,
      "Ġthan": 2436,
      "security": 2437,
      "lish": 2438,
      "etc": 2439,
      "ines": 2440,
      "ampl": 2441,
      "loy": 2442,
      "ires": 2443,
      "Ġac": 2444,
      "Ġfl": 2445,
      "uss": 2446,
      "InformationFile": 2447,
      "TION": 2448,
      "Ġprovide": 2449,
      "here": 2450,
      "Ġloc": 2451,
      "ives": 2452,
      "ĠInter": 2453,
      "duration": 2454,
      "ĠCommand": 2455,
      "py": 2456,
      "Ġmodel": 2457,
      "Ġfind": 2458,
      "stand": 2459,
      "PowerSettings": 2460,
      "yte": 2461,
      "ql": 2462,
      "nt": 2463,
      "Repository": 2464,
      "sid": 2465,
      "ecause": 2466,
      "uring": 2467,
      "Ġwithin": 2468,
      "cident": 2469,
      "Ġext": 2470,
      "128": 2471,
      "303": 2472,
      "vers": 2473,
      "anced": 2474,
      "Ġleft": 2475,
      "tempt": 2476,
      "MP": 2477,
      "igure": 2478,
      "github": 2479,
      "Ġoc": 2480,
      "hav": 2481,
      "ways": 2482,
      "=\"": 2483,
      "Ġ__": 2484,
      "cs": 2485,
      "âĢľ": 2486,
      "FC": 2487,
      "files": 2488,
      "echnique": 2489,
      "lean": 2490,
      "Ġanalysis": 2491,
      "EE": 2492,
      "Level": 2493,
      "Red": 2494,
      "ie": 2495,
      "ĠControl": 2496,
      "002": 2497,
      "known": 2498,
      "evelop": 2499,
      "Or": 2500,
      "ĠPower": 2501,
      "lab": 2502,
      "Ġlab": 2503,
      "Offset": 2504,
      "FASTIO": 2505,
      "core": 2506,
      "Ġmethod": 2507,
      "clus": 2508,
      "Iy": 2509,
      "sensor": 2510,
      "Ġpassword": 2511,
      "iple": 2512,
      "Ġsearch": 2513,
      "eploy": 2514,
      "msg": 2515,
      "ector": 2516,
      "raph": 2517,
      "round": 2518,
      "163": 2519,
      "On": 2520,
      "wm": 2521,
      "\\\\": 2522,
      ".,": 2523,
      "Ġtrans": 2524,
      "view": 2525,
      "ITRE": 2526,
      "LEASE": 2527,
      "iD": 2528,
      "pc": 2529,
      "537": 2530,
      "sible": 2531,
      "ĠLanguage": 2532,
      "Ġ--": 2533,
      "Ġmult": 2534,
      "ename": 2535,
      "ĠAnalysis": 2536,
      "Ġbl": 2537,
      "tod": 2538,
      "ond": 2539,
      "redentials": 2540,
      "ĠMaximum": 2541,
      "ĠSync": 2542,
      "CI": 2543,
      "ĠOff": 2544,
      "Package": 2545,
      "Services": 2546,
      "ĠAllowed": 2547,
      "Ġlevel": 2548,
      "self": 2549,
      "ING": 2550,
      "Ġorig": 2551,
      "Backup": 2552,
      "Handle": 2553,
      "usr": 2554,
      "Rec": 2555,
      "press": 2556,
      "missed": 2557,
      "Ġcorrel": 2558,
      "(\"": 2559,
      "Mapping": 2560,
      "sensorname": 2561,
      "used": 2562,
      "ĠYou": 2563,
      "vious": 2564,
      "utomatic": 2565,
      "affic": 2566,
      "esting": 2567,
      "ade": 2568,
      "ĠAr": 2569,
      "ersist": 2570,
      "ĠOrganization": 2571,
      "Ġversion": 2572,
      "ĠThreat": 2573,
      "Ac": 2574,
      "type": 2575,
      "ream": 2576,
      "RELEASE": 2577,
      "go": 2578,
      "print": 2579,
      "Input": 2580,
      "tract": 2581,
      "ES": 2582,
      "ustom": 2583,
      "MAN": 2584,
      "ruction": 2585,
      "Attributes": 2586,
      "box": 2587,
      "umer": 2588,
      "'t": 2589,
      "EB": 2590,
      "AdminELS": 2591,
      "depth": 2592,
      "ables": 2593,
      "ken": 2594,
      "Ġcheck": 2595,
      "SYN": 2596,
      "Ġ\"{": 2597,
      "aps": 2598,
      "VMware": 2599,
      "itial": 2600,
      "ĠTeam": 2601,
      "uild": 2602,
      "IZATION": 2603,
      "Ġu": 2604,
      "CAL": 2605,
      "Ġ201": 2606,
      "ORD": 2607,
      "ublic": 2608,
      "fmon": 2609,
      "often": 2610,
      "Det": 2611,
      "ĠATT": 2612,
      "Ġpage": 2613,
      "yz": 2614,
      "ersonation": 2615,
      "RON": 2616,
      "based": 2617,
      "CO": 2618,
      "icmp": 2619,
      "wit": 2620,
      "Basic": 2621,
      "8427": 2622,
      "Ġend": 2623,
      "Ġload": 2624,
      "Ġhigh": 2625,
      "Ġexploit": 2626,
      "DriverStore": 2627,
      "$@": 2628,
      "As": 2629,
      "atures": 2630,
      "Ġsource": 2631,
      "ret": 2632,
      "Ġinstall": 2633,
      "Ġlogs": 2634,
      "Ġmust": 2635,
      "123": 2636,
      "ĠDirectory": 2637,
      "00998": 2638,
      "Ġenvironment": 2639,
      "leg": 2640,
      "Thread": 2641,
      "ĠLinux": 2642,
      "9800998": 2643,
      "Ġph": 2644,
      "ough": 2645,
      "GroupPolicy": 2646,
      "ian": 2647,
      "^_": 2648,
      "Ġrunning": 2649,
      "Ġtypes": 2650,
      "sing": 2651,
      "ĠEnglish": 2652,
      "105": 2653,
      "Ġattempt": 2654,
      "Ġsupport": 2655,
      "EY": 2656,
      "SECTION": 2657,
      "ibrary": 2658,
      "acker": 2659,
      "Ġoperation": 2660,
      "Source": 2661,
      "></": 2662,
      "SRVVM": 2663,
      "$!": 2664,
      "EC": 2665,
      "Ġadmin": 2666,
      "106": 2667,
      "CHRON": 2668,
      "face": 2669,
      "Ġgit": 2670,
      "Ġ#": 2671,
      "Ġexecutable": 2672,
      "808": 2673,
      "lib": 2674,
      "SYNCHRON": 2675,
      "ym": 2676,
      "INDX": 2677,
      "cal": 2678,
      "apter": 2679,
      "amples": 2680,
      "SYNCHRONIZATION": 2681,
      "DF": 2682,
      "101": 2683,
      "%\\": 2684,
      "ocument": 2685,
      "CreateFileMapping": 2686,
      "ging": 2687,
      "estig": 2688,
      "????????": 2689,
      "HH": 2690,
      "SyncType": 2691,
      "ĠAttack": 2692,
      "ĠSyncType": 2693,
      "Ġtim": 2694,
      "lear": 2695,
      "ourse": 2696,
      "mes": 2697,
      "Yara": 2698,
      "ince": 2699,
      "EAD": 2700,
      "Pack": 2701,
      "ually": 2702,
      "Ġoccur": 2703,
      "Ġcreate": 2704,
      "ĠTrans": 2705,
      "Ġ22": 2706,
      "ĠDescriptor": 2707,
      "Ġver": 2708,
      "ecution": 2709,
      "ĠĠĠĠĠĠĠĠĠĠĠĠĠĠĠĠĠĠĠĠĠĠĠĠĠĠĠĠĠĠĠĠĠĠĠĠĠĠĠĠĠĠĠĠĠĠĠĠĠĠĠĠĠĠĠĠĠĠĠĠĠĠĠĠ": 2710,
      "pe": 2711,
      "Act": 2712,
      "server": 2713,
      "uri": 2714,
      "PEiD": 2715,
      "iquer": 2716,
      "Ġexecution": 2717,
      "arami": 2718,
      "Xume": 2719,
      "uff": 2720,
      "oparami": 2721,
      "Ġpeid": 2722,
      "todoparami": 2723,
      "Xumeiquer": 2724,
      "medi": 2725,
      "Error": 2726,
      "ference": 2727,
      "Ġinte": 2728,
      "Ġusers": 2729,
      "powershell": 2730,
      "Ġrel": 2731,
      "AUAT": 2732,
      "list": 2733,
      "AUQB": 2734,
      "OLD": 2735,
      "ivers": 2736,
      "Ġdirect": 2737,
      "ton": 2738,
      "102": 2739,
      "STR": 2740,
      "dev": 2741,
      "ically": 2742,
      "ĠChange": 2743,
      "aining": 2744,
      "Inv": 2745,
      "Kx": 2746,
      "promis": 2747,
      "ĠSynchron": 2748,
      "ilename": 2749,
      "ELD": 2750,
      "Load": 2751,
      "................................": 2752,
      "ception": 2753,
      "QL": 2754,
      "web": 2755,
      "Ġ32": 2756,
      "parse": 2757,
      "az": 2758,
      "Ġimport": 2759,
      "ply": 2760,
      "igence": 2761,
      "Application": 2762,
      "Fl": 2763,
      "olicies": 2764,
      "erminal": 2765,
      "ains": 2766,
      "\"]": 2767,
      "PowerShell": 2768,
      "Ġdirectory": 2769,
      "splunk": 2770,
      "utral": 2771,
      "âĪĴ": 2772,
      "tags": 2773,
      "NU": 2774,
      "ful": 2775,
      "ctfmon": 2776,
      "Ġ~": 2777,
      "hide": 2778,
      "BB": 2779,
      "0000000000": 2780,
      "Ġread": 2781,
      ".(": 2782,
      "ero": 2783,
      "Ġapp": 2784,
      "FileRepository": 2785,
      "Ġline": 2786,
      "Defin": 2787,
      "neutral": 2788,
      "ctions": 2789,
      "rive": 2790,
      "Run": 2791,
      "744": 2792,
      "ĠAuthentication": 2793,
      "FIELD": 2794,
      "AEkA": 2795,
      "7292": 2796,
      "hed": 2797,
      "Ġvari": 2798,
      "YA": 2799,
      "ects": 2800,
      "ĠPoint": 2801,
      "acking": 2802,
      "atabase": 2803,
      "Ġagain": 2804,
      "thon": 2805,
      "172": 2806,
      "AWAV": 2807,
      "Destination": 2808,
      "Temp": 2809,
      "9056": 2810,
      "Ġpass": 2811,
      "olution": 2812,
      "ktop": 2813,
      "Creation": 2814,
      "ifier": 2815,
      "OLDFIELD": 2816,
      "\":[]": 2817,
      "Ġclass": 2818,
      "++-": 2819,
      "Ġcoll": 2820,
      "\":\"/": 2821,
      "def": 2822,
      "off": 2823,
      "ĠHow": 2824,
      "ĠPowerShell": 2825,
      "arameters": 2826,
      "Ġidentify": 2827,
      "enses": 2828,
      "omware": 2829,
      "ored": 2830,
      "Ġalways": 2831,
      "MAC": 2832,
      "ering": 2833,
      "ends": 2834,
      "Ġwant": 2835,
      "Ġtext": 2836,
      "ĠĠĠĠĠĠ": 2837,
      "Path": 2838,
      "Ġoften": 2839,
      "FILE": 2840,
      "7760": 2841,
      "MITRE": 2842,
      "ructions": 2843,
      "ersonate": 2844,
      "rant": 2845,
      "Ġpartic": 2846,
      "Ġformat": 2847,
      "||": 2848,
      "Ġwell": 2849,
      "prise": 2850,
      "br": 2851,
      "etr": 2852,
      "sr": 2853,
      "ather": 2854,
      "exec": 2855,
      "Ġ!": 2856,
      "\".": 2857,
      ")|": 2858,
      "Ġprivileges": 2859,
      "PN": 2860,
      "268": 2861,
      "malware": 2862,
      "GGOLDFIELD": 2863,
      "istribut": 2864,
      "class": 2865,
      "[\"": 2866,
      "AEk": 2867,
      "atest": 2868,
      "Ġmake": 2869,
      "NX": 2870,
      "PC": 2871,
      "sl": 2872,
      "Line": 2873,
      "InProc": 2874,
      "ponse": 2875,
      "Ġway": 2876,
      "Ġ->": 2877,
      "2092": 2878,
      "LOCAL": 2879,
      "InProcServer": 2880,
      "aQB": 2881,
      "ĠĠĠĠĠĠĠĠĠ": 2882,
      "Resource": 2883,
      "dns": 2884,
      "Ġright": 2885,
      "havi": 2886,
      "Ġ`": 2887,
      "ourses": 2888,
      "ij": 2889,
      "Ġthreat": 2890,
      "ĠUse": 2891,
      "Ġ05": 2892,
      "adml": 2893,
      "ilar": 2894,
      "Ġbeing": 2895,
      "INE": 2896,
      "ĠAddress": 2897,
      "ReadFile": 2898,
      "gn": 2899,
      "overy": 2900,
      "RI": 2901,
      "shell": 2902,
      "ingle": 2903,
      "VE": 2904,
      "using": 2905,
      "260": 2906,
      "317": 2907,
      "Ġmachine": 2908,
      "ember": 2909,
      "root": 2910,
      "emote": 2911,
      "po": 2912,
      "Ġ64": 2913,
      "State": 2914,
      "ĠService": 2915,
      "edia": 2916,
      "Ġencrypt": 2917,
      "boot": 2918,
      "712": 2919,
      "ĠReparse": 2920,
      "Ġsoftware": 2921,
      "0000000000000000": 2922,
      "ĠNot": 2923,
      "ĠMod": 2924,
      "lay": 2925,
      ")\",\"": 2926,
      "CreationTime": 2927,
      "Ġimplement": 2928,
      "AGk": 2929,
      "Of": 2930,
      "ied": 2931,
      "oA": 2932,
      "WriteTime": 2933,
      "De": 2934,
      "Ġman": 2935,
      "Ġsignature": 2936,
      "Agent": 2937,
      "\":[]}": 2938,
      "400": 2939,
      "unctions": 2940,
      "perty": 2941,
      "icense": 2942,
      "ServerManager": 2943,
      "ttribute": 2944,
      "568": 2945,
      "AccessTime": 2946,
      "services": 2947,
      "ĠLastWriteTime": 2948,
      "ictim": 2949,
      "ĠLastAccessTime": 2950,
      "AEUA": 2951,
      "Ro": 2952,
      "121": 2953,
      "ĠDIS": 2954,
      "eline": 2955,
      "Im": 2956,
      "VER": 2957,
      "Ġafter": 2958,
      "Ġblock": 2959,
      "ALLOW": 2960,
      "Ġjust": 2961,
      "Ġfamily": 2962,
      "222": 2963,
      "ĠLO": 2964,
      "Ġattacks": 2965,
      "group": 2966,
      "ĠChangeTime": 2967,
      "action": 2968,
      "BasicInformationFile": 2969,
      "you": 2970,
      "Ġcase": 2971,
      "uments": 2972,
      "Ġstep": 2973,
      "eleted": 2974,
      "Core": 2975,
      "QwB": 2976,
      "drivers": 2977,
      "ially": 2978,
      "Ġcalled": 2979,
      "New": 2980,
      "789": 2981,
      "Ġchar": 2982,
      "Ġdefault": 2983,
      "ĠFileAttributes": 2984,
      "ALLOWED": 2985,
      "ox": 2986,
      "uditing": 2987,
      "Image": 2988,
      "Ġmode": 2989,
      "rowser": 2990,
      "ross": 2991,
      "238": 2992,
      "Certific": 2993,
      "HT": 2994,
      "smtp": 2995,
      "MO": 2996,
      "ray": 2997,
      "QueryBasicInformationFile": 2998,
      "ĠCRONENBERG": 2999,
      "tl": 3000,
      "ted": 3001,
      "lease": 3002,
      "andard": 3003,
      "UR": 3004,
      "Ġdef": 3005,
      "Ġexist": 3006,
      "ender": 3007,
      "no": 3008,
      "ĠAl": 3009,
      "oints": 3010,
      "MB": 3011,
      "ZwB": 3012,
      "evices": 3013,
      "Ġadversary": 3014,
      "fx": 3015,
      "clusive": 3016,
      "ĠDISALLOWED": 3017,
      "XX": 3018,
      "----------------": 3019,
      "Ġwrit": 3020,
      "Ġcompleted": 3021,
      "config": 3022,
      "Files": 3023,
      "lev": 3024,
      "ision": 3025,
      "Ġmight": 3026,
      "UN": 3027,
      "535": 3028,
      "ontroll": 3029,
      "itect": 3030,
      "Ġap": 3031,
      "Ġfound": 3032,
      "asp": 3033,
      "jection": 3034,
      "Ġwww": 3035,
      "QueryOpen": 3036,
      "ARQB": 3037,
      "SV": 3038,
      "Ġcases": 3039,
      "Splunk": 3040,
      "IG": 3041,
      "Ġrecor": 3042,
      "plication": 3043,
      "iss": 3044,
      "onitoring": 3045,
      "Up": 3046,
      "ten": 3047,
      "Ġes": 3048,
      "Ġstate": 3049,
      "\"\"": 3050,
      "Instance": 3051,
      "jan": 3052,
      "CL": 3053,
      "mail": 3054,
      "Content": 3055,
      "ology": 3056,
      "which": 3057,
      "Attribute": 3058,
      "usp": 3059,
      "Ġbecause": 3060,
      "AAAA": 3061,
      "ypass": 3062,
      "cons": 3063,
      "Management": 3064,
      "ĠAPI": 3065,
      "254": 3066,
      "ersistence": 3067,
      "$$": 3068,
      "Ġknow": 3069,
      "SP": 3070,
      "anal": 3071,
      "Definitions": 3072,
      "Ġlaunch": 3073,
      "Ġcomp": 3074,
      "active": 3075,
      "109": 3076,
      "Ġhelp": 3077,
      "PolicyDefinitions": 3078,
      "ĠWorkstation": 3079,
      "CB": 3080,
      "Ġhere": 3081,
      "blog": 3082,
      "Ġeff": 3083,
      "command": 3084,
      "Ġatt": 3085,
      "âĶĢâĶĢâĶĢâĶĢ": 3086,
      "Ġblank": 3087,
      "ĠLab": 3088,
      "ĠAs": 3089,
      "Ġclient": 3090,
      "Ġshell": 3091,
      "ded": 3092,
      "ĠDNS": 3093,
      "ra": 3094,
      "Ġvalues": 3095,
      "assembly": 3096,
      "ĠAzure": 3097,
      "Not": 3098,
      "Ġsettings": 3099,
      "ĠSettings": 3100,
      "RegEnum": 3101,
      "Ġfull": 3102,
      "rior": 3103,
      "txt": 3104,
      "cod": 3105,
      "techniques": 3106,
      "ader": 3107,
      "tern": 3108,
      "lligence": 3109,
      "Ġinclude": 3110,
      "ency": 3111,
      "Ġtraffic": 3112,
      "ached": 3113,
      "Environment": 3114,
      "ulti": 3115,
      "dir": 3116,
      "-++-": 3117,
      "))": 3118,
      "4844": 3119,
      "ĠAp": 3120,
      "iversal": 3121,
      "Start": 3122,
      "index": 3123,
      "Work": 3124,
      "Ġvery": 3125,
      "aj": 3126,
      "last": 3127,
      "aking": 3128,
      "DB": 3129,
      "ofthe": 3130,
      "ecting": 3131,
      "Ġappl": 3132,
      ")\\": 3133,
      "rr": 3134,
      "ĠFl": 3135,
      "Ġcredentials": 3136,
      "DS": 3137,
      "Ġbased": 3138,
      "210": 3139,
      "Google": 3140,
      "ITH": 3141,
      "WD": 3142,
      "Figure": 3143,
      "Session": 3144,
      "Ġchanged": 3145,
      "Ġcap": 3146,
      "References": 3147,
      "Status": 3148,
      "logon": 3149,
      "Ġmultiple": 3150,
      "Ġsigned": 3151,
      "Ġallows": 3152,
      "Ġapplications": 3153,
      "Ġrec": 3154,
      "Ġcontains": 3155,
      "di": 3156,
      "Filename": 3157,
      "AEI": 3158,
      "ait": 3159,
      "dition": 3160,
      "aster": 3161,
      "Ġexecute": 3162,
      "base": 3163,
      "less": 3164,
      "Lab": 3165,
      "ritical": 3166,
      "ĠOffice": 3167,
      "You": 3168,
      "gor": 3169,
      "Ġlar": 3170,
      "Ġpayload": 3171,
      "\":[\"": 3172,
      "USH": 3173,
      "Ġincluding": 3174,
      "ĠAct": 3175,
      "idd": 3176,
      "],": 3177,
      "ention": 3178,
      "ko": 3179,
      "KL": 3180,
      "Ġown": 3181,
      "plic": 3182,
      "DWORD": 3183,
      "512": 3184,
      "Ġ)": 3185,
      "381": 3186,
      "Ġcommonly": 3187,
      "Pr": 3188,
      "aming": 3189,
      "ality": 3190,
      "Ġ:=": 3191,
      "latform": 3192,
      "icing": 3193,
      "itig": 3194,
      "andom": 3195,
      "ĠPort": 3196,
      "ured": 3197,
      "Framework": 3198,
      "duction": 3199,
      "Ġconfiguration": 3200,
      "Ġpoint": 3201,
      "Ġboth": 3202,
      "Ġarg": 3203,
      "PU": 3204,
      "String": 3205,
      "*]": 3206,
      "dates": 3207,
      "Ġbefore": 3208,
      "Ġlear": 3209,
      "board": 3210,
      "FE": 3211,
      "icket": 3212,
      "Ġeas": 3213,
      "Ġprevious": 3214,
      "ethe": 3215,
      "Ġmessage": 3216,
      "Ġregister": 3217,
      "Ġbel": 3218,
      "gorith": 3219,
      "Ġcloud": 3220,
      "eneric": 3221,
      "Ġevery": 3222,
      "Link": 3223,
      "VV": 3224,
      "Trans": 3225,
      "oid": 3226,
      "Ġevents": 3227,
      "Nr": 3228,
      "vert": 3229,
      "ward": 3230,
      "ython": 3231,
      "ries": 3232,
      "prn": 3233,
      "hot": 3234,
      "det": 3235,
      "munication": 3236,
      "UTE": 3237,
      "Ġeven": 3238,
      "led": 3239,
      "SB": 3240,
      "ercise": 3241,
      "Ġstring": 3242,
      "PH": 3243,
      "akes": 3244,
      "present": 3245,
      "acts": 3246,
      "AdwB": 3247,
      "access": 3248,
      "Ġz": 3249,
      "change": 3250,
      "ĠMalware": 3251,
      "Ġuses": 3252,
      "ensics": 3253,
      "Ġtake": 3254,
      "roy": 3255,
      "protocol": 3256,
      "Universal": 3257,
      "Net": 3258,
      "raw": 3259,
      "Ġlim": 3260,
      "Sample": 3261,
      "sql": 3262,
      "Ġsc": 3263,
      "Ġquery": 3264,
      "Ġsent": 3265,
      "Search": 3266,
      "Ġprotocols": 3267,
      "warder": 3268,
      "Ġappro": 3269,
      "els": 3270,
      "120": 3271,
      "ĠId": 3272,
      "ained": 3273,
      "Ġexp": 3274,
      "ansomware": 3275,
      "client": 3276,
      "PowerSchemes": 3277,
      "event": 3278,
      "Debug": 3279,
      "Ġresults": 3280,
      "ended": 3281,
      "des": 3282,
      "Forwarder": 3283,
      "ĠAdvers": 3284,
      "Protocol": 3285,
      "402": 3286,
      "bed": 3287,
      "itive": 3288,
      "ĠOS": 3289,
      "Ġcommands": 3290,
      "UniversalForwarder": 3291,
      "4192": 3292,
      "[^_": 3293,
      "Ġinstructions": 3294,
      "Ġrequire": 3295,
      "Other": 3296,
      "count": 3297,
      "ered": 3298,
      "olv": 3299,
      "144": 3300,
      "rojan": 3301,
      "162": 3302,
      "Ġdetection": 3303,
      "SplunkUniversalForwarder": 3304,
      "alu": 3305,
      "Author": 3306,
      "HINE": 3307,
      "pack": 3308,
      "reak": 3309,
      "',": 3310,
      "Ġtoken": 3311,
      "Ġallow": 3312,
      "util": 3313,
      "everal": 3314,
      "Ġprocesses": 3315,
      "Ġshown": 3316,
      "Client": 3317,
      "doc": 3318,
      "NuNuNV": 3319,
      "ĠĠĠĠĠĠĠĠĠĠĠ": 3320,
      "ĠFalse": 3321,
      "astructure": 3322,
      "Ġpar": 3323,
      "ĠSynchronous": 3324,
      "rupt": 3325,
      "ĠOn": 3326,
      "Detection": 3327,
      "NXN": 3328,
      "inst": 3329,
      "\"],\"": 3330,
      "508": 3331,
      "Ġ==": 3332,
      "ately": 3333,
      "Ġcompromis": 3334,
      "Tr": 3335,
      "Ġactivity": 3336,
      "Ġcr": 3337,
      "Ġcurrent": 3338,
      "ush": 3339,
      "ĠRule": 3340,
      "Ġtoo": 3341,
      "ĠCont": 3342,
      "Â®": 3343,
      "Ġinput": 3344,
      "ĠTransited": 3345,
      "Ġimage": 3346,
      "new": 3347,
      "003": 3348,
      "ikely": 3349,
      "servicing": 3350,
      "function": 3351,
      "ĠIm": 3352,
      "ĠCloud": 3353,
      "fil": 3354,
      "task": 3355,
      "sole": 3356,
      "389": 3357,
      "ulation": 3358,
      "door": 3359,
      "dec": 3360,
      "selection": 3361,
      "MACHINE": 3362,
      "requ": 3363,
      "ready": 3364,
      "IyMj": 3365,
      "mgr": 3366,
      "Ġaccessed": 3367,
      "Ġwithout": 3368,
      "________________________________": 3369,
      "andler": 3370,
      "CN": 3371,
      "Ġinstruction": 3372,
      "cdf": 3373,
      "SZ": 3374,
      "\\.": 3375,
      "target": 3376,
      "DD": 3377,
      "116": 3378,
      "ProcessH": 3379,
      "740": 3380,
      "nd": 3381,
      "HTTP": 3382,
      "Ġ04": 3383,
      "estroy": 3384,
      "ier": 3385,
      "path": 3386,
      "îĢ": 3387,
      "Nj": 3388,
      "Ġ;": 3389,
      "ðĿ": 3390,
      "AFM": 3391,
      "acy": 3392,
      "inary": 3393,
      "Exam": 3394,
      "944": 3395,
      "Amd": 3396,
      "rect": 3397,
      "ĠRed": 3398,
      "Packages": 3399,
      "Root": 3400,
      "Ġsubject": 3401,
      "ĠTr": 3402,
      "LY": 3403,
      "chitect": 3404,
      "Ġthose": 3405,
      "Ġlicense": 3406,
      "ynam": 3407,
      "dp": 3408,
      "Ġmain": 3409,
      "MD": 3410,
      "ĠInte": 3411,
      "365": 3412,
      "Ġserv": 3413,
      "325": 3414,
      "Ġpath": 3415,
      "Chrome": 3416,
      "NTLM": 3417,
      "png": 3418,
      "ĠĠĠĠĠĠĠĠĠĠ": 3419,
      "\";": 3420,
      "ai": 3421,
      "Ġadditional": 3422,
      "Ġvulner": 3423,
      "amed": 3424,
      "Ġvalid": 3425,
      "Ġanother": 3426,
      "Ġ24": 3427,
      "Ġmin": 3428,
      "software": 3429,
      "Ġnext": 3430,
      "Destinations": 3431,
      "AI": 3432,
      "ke": 3433,
      "arg": 3434,
      "ĠFire": 3435,
      "pass": 3436,
      "Ġwor": 3437,
      "ĠThese": 3438,
      "havior": 3439,
      "rm": 3440,
      "Alert": 3441,
      "154": 3442,
      "156": 3443,
      "511": 3444,
      "ĠWeb": 3445,
      "iginal": 3446,
      "aws": 3447,
      "Ġorigin": 3448,
      "BAE": 3449,
      "epar": 3450,
      "php": 3451,
      "Download": 3452,
      "oken": 3453,
      "olum": 3454,
      "114": 3455,
      "MS": 3456,
      "Ġemail": 3457,
      ">>": 3458,
      "rules": 3459,
      "Ġrece": 3460,
      "ensic": 3461,
      "ensive": 3462,
      "ĠSp": 3463,
      "ĠGrant": 3464,
      "wall": 3465,
      "will": 3466,
      "Ġcontent": 3467,
      "Ġoption": 3468,
      "ĠSub": 3469,
      "It": 3470,
      "PD": 3471,
      "234": 3472,
      "Final": 3473,
      "annel": 3474,
      "rop": 3475,
      "[*]": 3476,
      "sn": 3477,
      "wn": 3478,
      "FD": 3479,
      "rem": 3480,
      "Domain": 3481,
      "ĠNTLM": 3482,
      "TH": 3483,
      ",$": 3484,
      "Ġ2024": 3485,
      "viders": 3486,
      "Ass": 3487,
      "1023": 3488,
      "Free": 3489,
      "Ġresponse": 3490,
      "122": 3491,
      "576": 3492,
      "ason": 3493,
      "engine": 3494,
      "Ġmodule": 3495,
      "Ġvulnerability": 3496,
      "hip": 3497,
      "dat": 3498,
      "ERS": 3499,
      "ah": 3500,
      "Ġreturn": 3501,
      "call": 3502,
      "Ġdevelop": 3503,
      "dvanced": 3504,
      "FS": 3505,
      "âĸ": 3506,
      "terprise": 3507,
      "ĠExploit": 3508,
      "Ġpossible": 3509,
      "âĢ¦": 3510,
      "Ġfilter": 3511,
      "ole": 3512,
      "ool": 3513,
      "iven": 3514,
      "Address": 3515,
      "uffer": 3516,
      "AWAVAUAT": 3517,
      "search": 3518,
      "netfx": 3519,
      "IC": 3520,
      "509": 3521,
      "469": 3522,
      "!$": 3523,
      "EP": 3524,
      "bl": 3525,
      "AGs": 3526,
      "ĠImp": 3527,
      "8212": 3528,
      "0000000": 3529,
      "utomaticDestinations": 3530,
      "WW": 3531,
      "ĠDLL": 3532,
      "AFA": 3533,
      "ĠKerberos": 3534,
      "oo": 3535,
      "unting": 3536,
      "ĠManager": 3537,
      "flow": 3538,
      "Ġagainst": 3539,
      "ĠAdmin": 3540,
      "ARAB": 3541,
      "AWH": 3542,
      "ĠResponse": 3543,
      "Ġtechnique": 3544,
      "gnu": 3545,
      "How": 3546,
      "110": 3547,
      "Ġdon": 3548,
      "BD": 3549,
      "Policies": 3550,
      "ProcessHacker": 3551,
      "essages": 3552,
      "json": 3553,
      "Ġlast": 3554,
      "HKEY": 3555,
      "igma": 3556,
      "Storage": 3557,
      "ibility": 3558,
      "Ġpresent": 3559,
      "Ph": 3560,
      "694": 3561,
      "Display": 3562,
      "Per": 3563,
      "[^_]": 3564,
      "inc": 3565,
      "Ġsize": 3566,
      "Ġduring": 3567,
      "ground": 3568,
      "ociated": 3569,
      "Ġorder": 3570,
      "PEC": 3571,
      "229": 3572,
      "rv": 3573,
      "BE": 3574,
      "AUwB": 3575,
      "ĠâĢĶ": 3576,
      "301": 3577,
      "YU": 3578,
      "00000000000003": 3579,
      "licenses": 3580,
      "Certificates": 3581,
      "umm": 3582,
      "Office": 3583,
      "Ġresources": 3584,
      "Ġtechniques": 3585,
      "endor": 3586,
      "jp": 3587,
      "att": 3588,
      "cee": 3589,
      "30319": 3590,
      "Ġbit": 3591,
      "NN": 3592,
      "119": 3593,
      "hark": 3594,
      "When": 3595,
      "RegEnumKey": 3596,
      "Ġscan": 3597,
      "Ġroot": 3598,
      "Ġlaunched": 3599,
      "Ġimportant": 3600,
      "ĠWhen": 3601,
      "ild": 3602,
      "596": 3603,
      "âĹ": 3604,
      "Ġdetailed": 3605,
      "Ġkind": 3606,
      "estr": 3607,
      "OAB": 3608,
      "Ġknown": 3609,
      "Field": 3610,
      "application": 3611,
      "Ġvictim": 3612,
      "ĠTools": 3613,
      "224": 3614,
      "eful": 3615,
      "Ġdetermin": 3616,
      "Ġunderstand": 3617,
      "Ab": 3618,
      "137": 3619,
      "uthentic": 3620,
      "Ġwhile": 3621,
      "PRO": 3622,
      "147": 3623,
      "Nt": 3624,
      "SA": 3625,
      "eM": 3626,
      "tif": 3627,
      "echnology": 3628,
      "ĠTCP": 3629,
      "3572": 3630,
      "Ġoccurred": 3631,
      "Roaming": 3632,
      "Keys": 3633,
      "ites": 3634,
      "mediate": 3635,
      "awB": 3636,
      "Ġsimilar": 3637,
      "iff": 3638,
      "mong": 3639,
      "ĠIntel": 3640,
      "Ġvirtual": 3641,
      "Ġnon": 3642,
      "Ġlet": 3643,
      "118": 3644,
      "Imp": 3645,
      "Script": 3646,
      "script": 3647,
      "ĠIN": 3648,
      "556": 3649,
      "146": 3650,
      "erved": 3651,
      "EXEC": 3652,
      "ĠEnd": 3653,
      "atched": 3654,
      "Ġdefin": 3655,
      "ĠIncident": 3656,
      ",,": 3657,
      "CV": 3658,
      "gpl": 3659,
      "Ġlater": 3660,
      "NG": 3661,
      "pH": 3662,
      "Machine": 3663,
      "141": 3664,
      "Ġdatabase": 3665,
      "address": 3666,
      "ĠApple": 3667,
      "Ġsingle": 3668,
      "4824": 3669,
      ")(?": 3670,
      "ĠOperation": 3671,
      "input": 3672,
      "asion": 3673,
      "\\|": 3674,
      "tim": 3675,
      "ireshark": 3676,
      "Common": 3677,
      "OM": 3678,
      "aces": 3679,
      "urther": 3680,
      "Ġ\"/": 3681,
      "Ġstill": 3682,
      "ĠHowever": 3683,
      "$`": 3684,
      "}#": 3685,
      "ana": 3686,
      "Ġtry": 3687,
      "ocket": 3688,
      "ponent": 3689,
      "510": 3690,
      "bat": 3691,
      "Ġrequired": 3692,
      "co": 3693,
      "470": 3694,
      "ective": 3695,
      "5332": 3696,
      "ĠIDs": 3697,
      "AVAWH": 3698,
      "lan": 3699,
      "2022": 3700,
      "Kerberos": 3701,
      "1844": 3702,
      "ertificate": 3703,
      "Platform": 3704,
      "arameter": 3705,
      "Init": 3706,
      "eal": 3707,
      "zA": 3708,
      "cap": 3709,
      "aging": 3710,
      "upport": 3711,
      "907": 3712,
      "Ġbr": 3713,
      "503": 3714,
      "124": 3715,
      "RD": 3716,
      "null": 3717,
      "Ġpolicy": 3718,
      "ĠGoogle": 3719,
      "Ġverified": 3720,
      "Ġpot": 3721,
      "contains": 3722,
      "bers": 3723,
      "ership": 3724,
      "530": 3725,
      "Ġclick": 3726,
      "EL": 3727,
      "part": 3728,
      "cab": 3729,
      "Resources": 3730,
      "AEIA": 3731,
      "Ġassigned": 3732,
      "Blue": 3733,
      "Ġdownload": 3734,
      "update": 3735,
      "missions": 3736,
      "control": 3737,
      "ĠApplication": 3738,
      "uck": 3739,
      "Ġ200": 3740,
      "..-": 3741,
      "103": 3742,
      "IF": 3743,
      "Ġsm": 3744,
      "Ġidentifier": 3745,
      "One": 3746,
      "ĠAND": 3747,
      "imate": 3748,
      "model": 3749,
      "ecial": 3750,
      "ĠĠĠĠĠĠĠĠĠĠĠĠĠĠĠĠĠĠĠĠĠĠĠĠĠĠĠĠ": 3751,
      "008": 3752,
      "Ġimports": 3753,
      "ĠDC": 3754,
      "right": 3755,
      "Protection": 3756,
      "ĠVulnerability": 3757,
      "Ġamong": 3758,
      "ĠApp": 3759,
      "Ġconfig": 3760,
      "Ġmeans": 3761,
      "Ġchange": 3762,
      "Window": 3763,
      "Ġsom": 3764,
      "ĠGroup": 3765,
      "ĠON": 3766,
      "244": 3767,
      "ĠSID": 3768,
      "ĠCode": 3769,
      "ension": 3770,
      "Base": 3771,
      "295": 3772,
      "zY": 3773,
      "istribution": 3774,
      "ished": 3775,
      "Ġposit": 3776,
      "QQ": 3777,
      "Ġteam": 3778,
      "unc": 3779,
      "AMAB": 3780,
      "Ġcustom": 3781,
      "Ġdocument": 3782,
      "ĠPAGE": 3783,
      "Ġalready": 3784,
      "ishing": 3785,
      "lobal": 3786,
      "CF": 3787,
      "Linux": 3788,
      "PL": 3789,
      "hat": 3790,
      "acter": 3791,
      "Ġreboot": 3792,
      "155": 3793,
      "Ġrespon": 3794,
      "Ġaddresses": 3795,
      "159": 3796,
      "ĠHE": 3797,
      "API": 3798,
      "Ġinvestig": 3799,
      "Ġsend": 3800,
      "lastic": 3801,
      "etad": 3802,
      "312": 3803,
      "ĠLevel": 3804,
      "Ġreport": 3805,
      "ograph": 3806,
      "Ġstored": 3807,
      "Ġregistry": 3808,
      "consent": 3809,
      "533251": 3810,
      "Text": 3811,
      "fde": 3812,
      "ĠPCA": 3813,
      "oke": 3814,
      "ProgramData": 3815,
      "Ġmov": 3816,
      "ital": 3817,
      "ĠWITH": 3818,
      "TP": 3819,
      "Table": 3820,
      "54533251": 3821,
      "Ġable": 3822,
      "Ġmy": 3823,
      "132": 3824,
      "578": 3825,
      "Property": 3826,
      "Ġshows": 3827,
      "Ġcons": 3828,
      "ĠInternet": 3829,
      "524": 3830,
      "gu": 3831,
      "Ġel": 3832,
      "ĠParent": 3833,
      "USER": 3834,
      "QQBBAEEAQQBBAEEAQQBBAEEAQQBBAEEA": 3835,
      "ived": 3836,
      "AHcA": 3837,
      "Ġlarge": 3838,
      "rt": 3839,
      "side": 3840,
      "Ġiss": 3841,
      "ĠWhat": 3842,
      "OP": 3843,
      "Ġmatch": 3844,
      "ators": 3845,
      "ĠHEUR": 3846,
      "@.": 3847,
      "level": 3848,
      "Ġlikely": 3849,
      "Invalid": 3850,
      "164": 3851,
      "736": 3852,
      "AGcA": 3853,
      "Ġdevices": 3854,
      "Ġnames": 3855,
      "Ġpacket": 3856,
      "Af": 3857,
      "ĠTime": 3858,
      "].": 3859,
      "oh": 3860,
      "Ġform": 3861,
      "Ġdiscuss": 3862,
      "756": 3863,
      "down": 3864,
      "site": 3865,
      "AX": 3866,
      "way": 3867,
      "ava": 3868,
      "Ġtop": 3869,
      "ointer": 3870,
      "232": 3871,
      "203": 3872,
      "Ġprovides": 3873,
      "iï¬ģ": 3874,
      "Ġleg": 3875,
      "BU": 3876,
      "ems": 3877,
      "OST": 3878,
      "ASgB": 3879,
      "etadata": 3880,
      "Ġfunctions": 3881,
      "Ġcannot": 3882,
      "126": 3883,
      "start": 3884,
      "ison": 3885,
      "ternal": 3886,
      "Ġoptions": 3887,
      "BF": 3888,
      "1055": 3889,
      "tools": 3890,
      "rc": 3891,
      "Ġview": 3892,
      "158": 3893,
      "frastructure": 3894,
      "ding": 3895,
      "ĠReg": 3896,
      "Ġauthor": 3897,
      "005": 3898,
      "Ġsince": 3899,
      "Ġspace": 3900,
      "BASE": 3901,
      "PAGE": 3902,
      "wd": 3903,
      "exp": 3904,
      "250": 3905,
      "ĠLatest": 3906,
      "Ġseveral": 3907,
      "uto": 3908,
      "Values": 3909,
      "Ġsecond": 3910,
      "EXECUTE": 3911,
      "Ġbus": 3912,
      "ensions": 3913,
      "perties": 3914,
      "pri": 3915,
      "info": 3916,
      "Sec": 3917,
      "CD": 3918,
      "169": 3919,
      "ĠREAD": 3920,
      "Remote": 3921,
      "ĠCourses": 3922,
      "Ġvis": 3923,
      "ĠExclusive": 3924,
      "768": 3925,
      "Ġextract": 3926,
      "Ġrange": 3927,
      "uilt": 3928,
      "130": 3929,
      "Ġhard": 3930,
      "til": 3931,
      "167": 3932,
      "149": 3933,
      "Ġ}": 3934,
      "eliv": 3935,
      "/.": 3936,
      "Ġ44": 3937,
      "Module": 3938,
      "rec": 3939,
      "<>": 3940,
      "Ġmuch": 3941,
      "307": 3942,
      "sed": 3943,
      "look": 3944,
      "692": 3945,
      "Ġdown": 3946,
      "ĠEv": 3947,
      "ifying": 3948,
      "chitecture": 3949,
      "CAC": 3950,
      "HP": 3951,
      "Ġpur": 3952,
      "echo": 3953,
      "example": 3954,
      "ither": 3955,
      "stat": 3956,
      "ĠLOCK": 3957,
      "enu": 3958,
      "Ġinitial": 3959,
      "kernel": 3960,
      "Ġlive": 3961,
      "common": 3962,
      "ynamic": 3963,
      "Enc": 3964,
      "1112": 3965,
      "echan": 3966,
      "Ġbelow": 3967,
      "air": 3968,
      "information": 3969,
      "ĠKDC": 3970,
      "696": 3971,
      "ĠAWS": 3972,
      "624": 3973,
      "disc": 3974,
      "========": 3975,
      "Ext": 3976,
      "interactive": 3977,
      "252": 3978,
      "eployment": 3979,
      "RC": 3980,
      "ood": 3981,
      "Ġprot": 3982,
      "sat": 3983,
      "ĠDeleted": 3984,
      "idden": 3985,
      "'/": 3986,
      "direct": 3987,
      "ker": 3988,
      "209": 3989,
      "Ġvar": 3990,
      "andles": 3991,
      "RM": 3992,
      "hether": 3993,
      "Ġfoc": 3994,
      "Ġreal": 3995,
      "Ġcapt": 3996,
      "Model": 3997,
      "Ġgood": 3998,
      "estrict": 3999,
      "PT": 4000,
      "Ġparticip": 4001,
      "ently": 4002,
      "only": 4003,
      "006": 4004,
      "Ġdestroy": 4005,
      "ounter": 4006,
      "try": 4007,
      "Ġdetails": 4008,
      "Ġheader": 4009,
      "ĠGranted": 4010,
      "filter": 4011,
      "Providers": 4012,
      "obe": 4013,
      "ĠSyncTypeOther": 4014,
      "ĠAdversaries": 4015,
      "si": 4016,
      "svc": 4017,
      "RedBlue": 4018,
      "1212": 4019,
      "ĠRun": 4020,
      "Ġresource": 4021,
      "estore": 4022,
      "597": 4023,
      "ertain": 4024,
      "Ġintermediate": 4025,
      "init": 4026,
      "Ġbrowser": 4027,
      "AEQA": 4028,
      "Ġattackers": 4029,
      "ants": 4030,
      "Ġreview": 4031,
      "Ġstack": 4032,
      "gorithm": 4033,
      "NjNXN": 4034,
      "ĠDetailed": 4035,
      "uspicious": 4036,
      "Map": 4037,
      "Multi": 4038,
      "324": 4039,
      "490": 4040,
      "Ġaccounts": 4041,
      "spec": 4042,
      "ned": 4043,
      "clean": 4044,
      "ness": 4045,
      "irm": 4046,
      "AEEAQQB": 4047,
      "060": 4048,
      "ĠAuditing": 4049,
      "Ġdep": 4050,
      "ĠTarget": 4051,
      "Ġuseful": 4052,
      "splunkd": 4053,
      "Patched": 4054,
      "Ġshared": 4055,
      "content": 4056,
      "cec": 4057,
      "ĠWinlogon": 4058,
      "URL": 4059,
      "Ap": 4060,
      "Events": 4061,
      "Ġcorrelate": 4062,
      "FM": 4063,
      "gm": 4064,
      "AEM": 4065,
      "TC": 4066,
      "string": 4067,
      "OO": 4068,
      "Ġcorrelated": 4069,
      "528": 4070,
      "hH": 4071,
      "pace": 4072,
      "pose": 4073,
      "217": 4074,
      "CreateSection": 4075,
      "Ġselection": 4076,
      "UUUU": 4077,
      "includ": 4078,
      "ĠUnknown": 4079,
      "ĠONLY": 4080,
      "value": 4081,
      "Ġfolder": 4082,
      "Ġhide": 4083,
      "ĠExecution": 4084,
      "reating": 4085,
      "Last": 4086,
      "emon": 4087,
      "legation": 4088,
      "agn": 4089,
      "????????????????": 4090,
      "cgo": 4091,
      "sign": 4092,
      "~~": 4093,
      "Ġtable": 4094,
      "provider": 4095,
      "Ġoriginated": 4096,
      "isting": 4097,
      "ĠVirtual": 4098,
      "500": 4099,
      "PG": 4100,
      "FinalExam": 4101,
      "720": 4102,
      "IST": 4103,
      "Ġwhom": 4104,
      "icro": 4105,
      "plug": 4106,
      "Ġexecuted": 4107,
      "Ġassociated": 4108,
      "help": 4109,
      "328": 4110,
      "eco": 4111,
      "8500": 4112,
      "witch": 4113,
      "Ġimpersonate": 4114,
      "ĠLOCKED": 4115,
      "anc": 4116,
      "inue": 4117,
      "ĠSys": 4118,
      "utomation": 4119,
      "Ġoperating": 4120,
      "Ġens": 4121,
      "roid": 4122,
      "ecom": 4123,
      "ĠAdvanced": 4124,
      "ampa": 4125,
      "sider": 4126,
      "ĠREADERS": 4127,
      "AY": 4128,
      "actics": 4129,
      "meValues": 4130,
      "339": 4131,
      "518": 4132,
      "PK": 4133,
      "ĠPageProtection": 4134,
      "telnet": 4135,
      "PowerSchemeValues": 4136,
      ")(?)(?": 4137,
      "634": 4138,
      "iness": 4139,
      "ĠPE": 4140,
      "ĠSyncTypeCreateSection": 4141,
      "light": 4142,
      "oding": 4143,
      "13568": 4144,
      "9685": 4145,
      "ponents": 4146,
      "echanis": 4147,
      "enter": 4148,
      "ADAA": 4149,
      "LF": 4150,
      "aAB": 4151,
      "atform": 4152,
      "148": 4153,
      "Over": 4154,
      "Ġprom": 4155,
      "Ġï¬ģle": 4156,
      "Black": 4157,
      "309": 4158,
      "zz": 4159,
      "ATQB": 4160,
      "ecko": 4161,
      "Execut": 4162,
      "165": 4163,
      "adget": 4164,
      "xH": 4165,
      "036": 4166,
      "SANS": 4167,
      "por": 4168,
      "0924": 4169,
      "Ġwho": 4170,
      "Ġ+=": 4171,
      "ampaign": 4172,
      "GA": 4173,
      "WMI": 4174,
      "inthe": 4175,
      "Crypt": 4176,
      "199": 4177,
      "comm": 4178,
      "uk": 4179,
      "Ġrisk": 4180,
      "Ġam": 4181,
      "228": 4182,
      "Ġreboots": 4183,
      "4222": 4184,
      "ories": 4185,
      "arm": 4186,
      "Ġkernel": 4187,
      "251": 4188,
      "gin": 4189,
      "AVQB": 4190,
      "DefaultPowerSchemeValues": 4191,
      "Tools": 4192,
      "Ġanalyz": 4193,
      "tain": 4194,
      "ĠChrome": 4195,
      "Date": 4196,
      "ih": 4197,
      "Ġcount": 4198,
      "ĠEnterprise": 4199,
      "131": 4200,
      "zYQ": 4201,
      "Ġdestroyed": 4202,
      "CACHE": 4203,
      "gt": 4204,
      "007": 4205,
      "166": 4206,
      "overed": 4207,
      "Ġabove": 4208,
      "Ġparticipated": 4209,
      "202": 4210,
      "Ġwindow": 4211,
      "ANK": 4212,
      "Ġfew": 4213,
      "4403": 4214,
      "rep": 4215,
      "ational": 4216,
      "ecr": 4217,
      "304": 4218,
      "Library": 4219,
      "rs": 4220,
      "ĠMac": 4221,
      "ope": 4222,
      "Enable": 4223,
      "ears": 4224,
      "MX": 4225,
      "][": 4226,
      "object": 4227,
      "Ġlocation": 4228,
      "Ġservers": 4229,
      "WK": 4230,
      "ĠImpersonation": 4231,
      "Ġmanagement": 4232,
      "ensitive": 4233,
      "afe": 4234,
      "Computer": 4235,
      ";;;": 4236,
      "NOCACHE": 4237,
      "Ġpositively": 4238,
      "fort": 4239,
      "AND": 4240,
      "ARAI": 4241,
      "link": 4242,
      "asR": 4243,
      "msil": 4244,
      "igger": 4245,
      "Ġstructure": 4246,
      "IyMjIyMj": 4247,
      "fcee": 4248,
      "Ġspecified": 4249,
      "Filter": 4250,
      "SD": 4251,
      "Ġdirectly": 4252,
      "218": 4253,
      "ĠIdent": 4254,
      "gment": 4255,
      "Ġslide": 4256,
      "ands": 4257,
      "152": 4258,
      "What": 4259,
      "vc": 4260,
      "Ġconf": 4261,
      "Ġdisplay": 4262,
      "ĠWorker": 4263,
      "rrC": 4264,
      "ini": 4265,
      "206": 4266,
      "ecess": 4267,
      "ALwA": 4268,
      "mmK": 4269,
      "648": 4270,
      "Ġcho": 4271,
      "777": 4272,
      "Nrh": 4273,
      "'ll": 4274,
      "plex": 4275,
      "Activ": 4276,
      "asRrrC": 4277,
      "my": 4278,
      "296": 4279,
      "ATAU": 4280,
      "ĠExplorer": 4281,
      "Ġremov": 4282,
      "5984": 4283,
      "345": 4284,
      "Ident": 4285,
      "eMv": 4286,
      "AfzA": 4287,
      "SN": 4288,
      "install": 4289,
      "From": 4290,
      "url": 4291,
      "Ġprevent": 4292,
      "Ġfeatures": 4293,
      "NrhAfzA": 4294,
      "274": 4295,
      "Ġencod": 4296,
      "Ġimpersonation": 4297,
      "Ġextent": 4298,
      "YUEB": 4299,
      "RU": 4300,
      "560": 4301,
      "ĠGecko": 4302,
      "294": 4303,
      "LSBANK": 4304,
      "mission": 4305,
      "zYQeMv": 4306,
      "ENT": 4307,
      "âĹı": 4308,
      "wb": 4309,
      "CacheStorage": 4310,
      "140": 4311,
      "fs": 4312,
      "Ġgreat": 4313,
      "ird": 4314,
      "Ġproduct": 4315,
      "ALwB": 4316,
      "condition": 4317,
      "Ġed": 4318,
      "ayer": 4319,
      "ATH": 4320,
      "359": 4321,
      "AMSI": 4322,
      "REP": 4323,
      "092453": 4324,
      "how": 4325,
      "ivot": 4326,
      "ience": 4327,
      "111": 4328,
      "096": 4329,
      "174": 4330,
      "681112": 4331,
      "Special": 4332,
      "GT": 4333,
      "INT": 4334,
      "Message": 4335,
      "184": 4336,
      "see": 4337,
      "139": 4338,
      "WH": 4339,
      "Ġcourse": 4340,
      "196": 4341,
      "386": 4342,
      "ĠNet": 4343,
      "prov": 4344,
      "ters": 4345,
      "yst": 4346,
      "ĠLogic": 4347,
      "2021": 4348,
      "4021055": 4349,
      "blob": 4350,
      "ĠVol": 4351,
      "ivid": 4352,
      "208": 4353,
      "query": 4354,
      "Ġselect": 4355,
      "XH": 4356,
      "Ġ?": 4357,
      "198": 4358,
      "145": 4359,
      "sers": 4360,
      "})": 4361,
      "ouble": 4362,
      "iment": 4363,
      "tot": 4364,
      "ua": 4365,
      "inu": 4366,
      "ĠPrivileges": 4367,
      "igital": 4368,
      "threat": 4369,
      "GL": 4370,
      "SC": 4371,
      "[_^": 4372,
      "eries": 4373,
      "160": 4374,
      "117": 4375,
      "Ġartif": 4376,
      "ontroller": 4377,
      "hp": 4378,
      "|[": 4379,
      "ĠStep": 4380,
      "Ġadministrator": 4381,
      "621": 4382,
      "blem": 4383,
      "Ġvarious": 4384,
      "ĠPolicy": 4385,
      "labs": 4386,
      "GR": 4387,
      "318": 4388,
      "comp": 4389,
      "edium": 4390,
      "Ġrules": 4391,
      "Ġbits": 4392,
      "ĠEnc": 4393,
      "308": 4394,
      "TCP": 4395,
      "thing": 4396,
      "Hide": 4397,
      "family": 4398,
      "usion": 4399,
      "ĠLoad": 4400,
      "Update": 4401,
      "have": 4402,
      "idence": 4403,
      "Int": 4404,
      "Ġinstalled": 4405,
      "By": 4406,
      "Ni": 4407,
      "314": 4408,
      "ptim": 4409,
      "irewall": 4410,
      "VWSH": 4411,
      "/*": 4412,
      "Ġmac": 4413,
      "ĠNumber": 4414,
      "Ġcalls": 4415,
      "306": 4416,
      "author": 4417,
      "gen": 4418,
      "Ġdestination": 4419,
      "Ġbreak": 4420,
      "satan": 4421,
      "588": 4422,
      "Sc": 4423,
      "dump": 4424,
      "uf": 4425,
      "etch": 4426,
      "AFAA": 4427,
      "modules": 4428,
      "Yes": 4429,
      "ky": 4430,
      "reach": 4431,
      "ĠAD": 4432,
      "Lib": 4433,
      "Ġwrite": 4434,
      "adm": 4435,
      "ĠPython": 4436,
      "Ġthree": 4437,
      "Ġleast": 4438,
      "Ġenabled": 4439,
      "138": 4440,
      "Ne": 4441,
      "Ġpublic": 4442,
      "ipe": 4443,
      "%%": 4444,
      "688": 4445,
      "Desktop": 4446,
      "Take": 4447,
      "master": 4448,
      "quence": 4449,
      "367": 4450,
      "default": 4451,
      "Ġquest": 4452,
      "Ġbehavior": 4453,
      "ULL": 4454,
      "ĠManagement": 4455,
      "Ġrout": 4456,
      "SAFA": 4457,
      "Ġfr": 4458,
      "Ġexam": 4459,
      "cel": 4460,
      "AUgB": 4461,
      "ZAB": 4462,
      "Ġbinary": 4463,
      "187": 4464,
      "AEU": 4465,
      "ern": 4466,
      "avid": 4467,
      "Authentication": 4468,
      "ĠMS": 4469,
      "udo": 4470,
      "Token": 4471,
      "sans": 4472,
      "1760": 4473,
      "520": 4474,
      "ypes": 4475,
      "236": 4476,
      "396": 4477,
      "ARgB": 4478,
      "grity": 4479,
      "ysical": 4480,
      "Ġrelated": 4481,
      "Join": 4482,
      "Virtual": 4483,
      "242": 4484,
      "Folder": 4485,
      "ĠFOR": 4486,
      "hel": 4487,
      "irection": 4488,
      "thes": 4489,
      "ĠRansomware": 4490,
      "ii": 4491,
      "erm": 4492,
      "ĠNo": 4493,
      "ĠInv": 4494,
      "708": 4495,
      "Sigma": 4496,
      "XP": 4497,
      "ances": 4498,
      "itimate": 4499,
      "With": 4500,
      "yle": 4501,
      "ifies": 4502,
      "136": 4503,
      "176": 4504,
      "Ġstatic": 4505,
      "Ġincludes": 4506,
      "tz": 4507,
      "ye": 4508,
      "112": 4509,
      "Ġcomplete": 4510,
      "test": 4511,
      "ones": 4512,
      "113": 4513,
      "Ġentry": 4514,
      "DU": 4515,
      "RR": 4516,
      "bwB": 4517,
      "Ġde": 4518,
      "dis": 4519,
      "Ġdisk": 4520,
      "ExW": 4521,
      "Ġmethods": 4522,
      "ĠActive": 4523,
      "RST": 4524,
      "197": 4525,
      "214": 4526,
      "ĠOut": 4527,
      "Ġkeys": 4528,
      "Listing": 4529,
      "rst": 4530,
      "âķ": 4531,
      "ctl": 4532,
      "Ġdescri": 4533,
      "gp": 4534,
      "obile": 4535,
      "ĠCyber": 4536,
      "crt": 4537,
      "analysis": 4538,
      "LB": 4539,
      "MSI": 4540,
      "ĠTable": 4541,
      "ubl": 4542,
      "Ġlever": 4543,
      "Out": 4544,
      "FB": 4545,
      "enetr": 4546,
      "ĠPre": 4547,
      "mov": 4548,
      "ards": 4549,
      "Let": 4550,
      "SystemRoot": 4551,
      "Note": 4552,
      "execut": 4553,
      "additional": 4554,
      "Ġdetermine": 4555,
      "Ġbase": 4556,
      "quired": 4557,
      "4507": 4558,
      "12544": 4559,
      "$,": 4560,
      "IL": 4561,
      "google": 4562,
      "Ġgu": 4563,
      "Comp": 4564,
      "Hit": 4565,
      "$\"": 4566,
      ":/": 4567,
      "Next": 4568,
      "AEQ": 4569,
      "WV": 4570,
      "253": 4571,
      "548": 4572,
      "cleanmgr": 4573,
      "lex": 4574,
      "Ġencryption": 4575,
      "ĈĈ": 4576,
      "ĠSection": 4577,
      "Ġdat": 4578,
      "AGc": 4579,
      "ĠSim": 4580,
      "ething": 4581,
      "ĠAPT": 4582,
      "gener": 4583,
      "ws": 4584,
      "592": 4585,
      "4154": 4586,
      "ĠBl": 4587,
      "ELSBANK": 4588,
      "password": 4589,
      "CS": 4590,
      "INF": 4591,
      "xxxx": 4592,
      "ymb": 4593,
      "ĠShell": 4594,
      "establ": 4595,
      "eter": 4596,
      "Ġacc": 4597,
      "796": 4598,
      "Ġ09": 4599,
      "ATAB": 4600,
      "Can": 4601,
      "xN": 4602,
      "Ġcopy": 4603,
      "dl": 4604,
      "ingField": 4605,
      "Ġprivilege": 4606,
      "239": 4607,
      "creen": 4608,
      "sub": 4609,
      "entially": 4610,
      "215": 4611,
      "2612": 4612,
      "ĠThere": 4613,
      "ĠCommandLine": 4614,
      "Ġprompt": 4615,
      "ADEA": 4616,
      "BackingField": 4617,
      "12545": 4618,
      "Ġfeature": 4619,
      "ons": 4620,
      "AdgB": 4621,
      "Ġpackets": 4622,
      "enetration": 4623,
      "nap": 4624,
      "Ġrefer": 4625,
      "Ġbuild": 4626,
      "AGkA": 4627,
      "Ġchanges": 4628,
      "Ġgroups": 4629,
      "Hat": 4630,
      "ZQB": 4631,
      "most": 4632,
      "Ġ26": 4633,
      "884": 4634,
      "703": 4635,
      "dr": 4636,
      "Ġstorage": 4637,
      "ATgB": 4638,
      "ADg": 4639,
      "RT": 4640,
      "Restore": 4641,
      "vari": 4642,
      "ĠCVE": 4643,
      "preter": 4644,
      ".)": 4645,
      "Ġdone": 4646,
      "AEo": 4647,
      "ja": 4648,
      "ĠSlide": 4649,
      "Ġkeep": 4650,
      "nn": 4651,
      "enari": 4652,
      "ĠTechnique": 4653,
      "Ġrequests": 4654,
      "ĠĠĠĠĠĠĠĠĠĠĠĠĠ": 4655,
      "424": 4656,
      "Ev": 4657,
      "Ġtypically": 4658,
      "ĠSec": 4659,
      "usc": 4660,
      "Slide": 4661,
      "Ġoriginal": 4662,
      "Ġwritten": 4663,
      "check": 4664,
      "bus": 4665,
      "FFER": 4666,
      "groups": 4667,
      "7000": 4668,
      "ĠMay": 4669,
      "599": 4670,
      "location": 4671,
      "226": 4672,
      "Ġcmd": 4673,
      "Ġbypass": 4674,
      "Ġdetect": 4675,
      "89504": 4676,
      "->": 4677,
      "Own": 4678,
      "ĠSearch": 4679,
      "Ġwhether": 4680,
      "orth": 4681,
      "ĠLoc": 4682,
      "ĠMonitoring": 4683,
      "494844": 4684,
      "Ġcontext": 4685,
      "49484452": 4686,
      "017": 4687,
      "unt": 4688,
      "04944": 4689,
      "GPD": 4690,
      "189": 4691,
      "ocuments": 4692,
      "fox": 4693,
      "Critical": 4694,
      "IV": 4695,
      "300": 4696,
      "func": 4697,
      "your": 4698,
      "AUAB": 4699,
      "return": 4700,
      "endswith": 4701,
      "Impersonate": 4702,
      "BUFFER": 4703,
      "049444154": 4704,
      "ric": 4705,
      "uc": 4706,
      "Ġprovided": 4707,
      "open": 4708,
      "Alloc": 4709,
      "Ġlinked": 4710,
      "anel": 4711,
      "alk": 4712,
      "ĠRev": 4713,
      "Ġoh": 4714,
      "207": 4715,
      "188": 4716,
      "runtime": 4717,
      "Runtime": 4718,
      "0010": 4719,
      "ĠGeneric": 4720,
      "Count": 4721,
      "debug": 4722,
      "ĠStr": 4723,
      "ĠNULL": 4724,
      "pression": 4725,
      "GI": 4726,
      "kr": 4727,
      "00000": 4728,
      "048": 4729,
      "Ġmessages": 4730,
      "Ġ28": 4731,
      "ece": 4732,
      "0000200": 4733,
      "Ġhome": 4734,
      "467": 4735,
      "Chapter": 4736,
      "WR": 4737,
      "mask": 4738,
      "np": 4739,
      "docs": 4740,
      "409": 4741,
      "CY": 4742,
      "bab": 4743,
      "account": 4744,
      "ĠOperations": 4745,
      "Maps": 4746,
      "ĠScript": 4747,
      "order": 4748,
      "inger": 4749,
      "Ġsimple": 4750,
      "264": 4751,
      "Bag": 4752,
      "326": 4753,
      "Ġparticular": 4754,
      "($": 4755,
      "aQA": 4756,
      "ĠEd": 4757,
      "Ġcontents": 4758,
      "505": 4759,
      "IE": 4760,
      "Trojan": 4761,
      "imes": 4762,
      "Ġnamed": 4763,
      "540": 4764,
      "ĠGu": 4765,
      "Ġrights": 4766,
      "Drive": 4767,
      "stack": 4768,
      "ĠUsing": 4769,
      "Ġoperations": 4770,
      "RedBlueHit": 4771,
      "806": 4772,
      "View": 4773,
      "ImpersonatePrivilege": 4774,
      "Ġ100": 4775,
      "Kit": 4776,
      "eQB": 4777,
      "ĠHash": 4778,
      "ADD": 4779,
      "redict": 4780,
      "adow": 4781,
      "olumn": 4782,
      "0201": 4783,
      "288": 4784,
      "yc": 4785,
      "135": 4786,
      "0000200049444154": 4787,
      "bt": 4788,
      "186": 4789,
      "Ġcharacter": 4790,
      "Handles": 4791,
      "Ls": 4792,
      "mer": 4793,
      "erial": 4794,
      "Ġansw": 4795,
      "Exception": 4796,
      "Configuration": 4797,
      "Ġfact": 4798,
      "munity": 4799,
      "WE": 4800,
      "ĠAnd": 4801,
      "00000007": 4802,
      "phan": 4803,
      "205": 4804,
      "SystemCertificates": 4805,
      "verse": 4806,
      "BlackHat": 4807,
      "195": 4808,
      "updates": 4809,
      "Ġcomput": 4810,
      "216": 4811,
      "There": 4812,
      "YwB": 4813,
      "such": 4814,
      "appro": 4815,
      "784": 4816,
      "Ġargument": 4817,
      "zu": 4818,
      "Ġ58": 4819,
      "exit": 4820,
      "Ġpower": 4821,
      "available": 4822,
      "HTML": 4823,
      "142": 4824,
      "150": 4825,
      "853": 4826,
      "SL": 4827,
      "Ġinjection": 4828,
      "ĠNone": 4829,
      "133": 4830,
      "AEEAQQBBAEEA": 4831,
      "DCL": 4832,
      "Adv": 4833,
      "scal": 4834,
      "Recent": 4835,
      "179": 4836,
      "Ġvers": 4837,
      "aving": 4838,
      "Ġprocessor": 4839,
      "mof": 4840,
      "194": 4841,
      "ĠWith": 4842,
      "ĠRegistry": 4843,
      "Ġeither": 4844,
      "AHc": 4845,
      "ProcessId": 4846,
      "pa": 4847,
      "inv": 4848,
      "ĠPer": 4849,
      "fff": 4850,
      "pped": 4851,
      "ĠohNrhAfzA": 4852,
      "BlackHatEvents": 4853,
      "FLOW": 4854,
      "ĠClient": 4855,
      "Ġoperand": 4856,
      "74494": 4857,
      "Cap": 4858,
      "Ġpop": 4859,
      "Ġstream": 4860,
      "DEST": 4861,
      "Ġthread": 4862,
      "443": 4863,
      "Too": 4864,
      "bound": 4865,
      "ĠSQL": 4866,
      "izing": 4867,
      "SecurityPrivilege": 4868,
      "0000000774494": 4869,
      "KR": 4870,
      "258": 4871,
      "ollection": 4872,
      "YY": 4873,
      "ias": 4874,
      "ti": 4875,
      "bfusc": 4876,
      "Ġconnect": 4877,
      "RQB": 4878,
      "elect": 4879,
      "029": 4880,
      "ĠOVER": 4881,
      "umerate": 4882,
      "#{": 4883,
      "mode": 4884,
      "Ġ57": 4885,
      "struct": 4886,
      "iscovery": 4887,
      "olders": 4888,
      "Ġsupported": 4889,
      "RSTR": 4890,
      "'/><": 4891,
      "FN": 4892,
      "umbers": 4893,
      "tra": 4894,
      "Ġear": 4895,
      "afari": 4896,
      "rad": 4897,
      "ĉĠ": 4898,
      "alc": 4899,
      "though": 4900,
      "ĠOne": 4901,
      "GNU": 4902,
      "ips": 4903,
      "Ġinternal": 4904,
      "ocker": 4905,
      "sweep": 4906,
      "Ġapproach": 4907,
      "Ġfree": 4908,
      "Product": 4909,
      "Ġ2011": 4910,
      "mac": 4911,
      "552": 4912,
      "FileMaps": 4913,
      "Ġendpoint": 4914,
      "LoadDriver": 4915,
      "DebugPrivilege": 4916,
      "sim": 4917,
      "atter": 4918,
      "aset": 4919,
      "ĠPr": 4920,
      "End": 4921,
      "Ġvulnerabilities": 4922,
      "032": 4923,
      "MC": 4924,
      "OQB": 4925,
      "Target": 4926,
      "Ġbyte": 4927,
      "ipsweep": 4928,
      "Ġlead": 4929,
      "134": 4930,
      "Ġstandard": 4931,
      "ĠDetects": 4932,
      "940": 4933,
      "DNS": 4934,
      "yy": 4935,
      "Ġmade": 4936,
      "Ġshow": 4937,
      "Pre": 4938,
      "alt": 4939,
      "5696": 4940,
      "olve": 4941,
      "177": 4942,
      "CRP": 4943,
      "Ġgenerate": 4944,
      "DWO": 4945,
      "Ġattribut": 4946,
      "ael": 4947,
      "Ġca": 4948,
      "290": 4949,
      "anaged": 4950,
      "Ġpermissions": 4951,
      "Delegation": 4952,
      "Ownership": 4953,
      "pdf": 4954,
      "leep": 4955,
      "Ġstarted": 4956,
      "184467": 4957,
      "SDW": 4958,
      "home": 4959,
      "Ġdid": 4960,
      "Ġrepresent": 4961,
      "BackupPrivilege": 4962,
      "TakeOwnership": 4963,
      "PATH": 4964,
      "Ġwindows": 4965,
      "Ġinf": 4966,
      "SystemEnvironment": 4967,
      "Ġele": 4968,
      "Ġoffset": 4969,
      "Ġacross": 4970,
      "Ġcapabilities": 4971,
      "0000200049444154789": 4972,
      "428": 4973,
      "Memory": 4974,
      "PX": 4975,
      "ccf": 4976,
      "itigation": 4977,
      "608": 4978,
      "ACs": 4979,
      "RestorePrivilege": 4980,
      "LoadDriverPrivilege": 4981,
      "BH": 4982,
      "omic": 4983,
      "182": 4984,
      "urf": 4985,
      "037": 4986,
      "AGEA": 4987,
      "TakeOwnershipPrivilege": 4988,
      "GCC": 4989,
      "Internet": 4990,
      "EV": 4991,
      "onds": 4992,
      "181": 4993,
      "ists": 4994,
      "DEF": 4995,
      "ĠStart": 4996,
      "aunch": 4997,
      "Ġfunctionality": 4998,
      "Ġengine": 4999,
      "143": 5000,
      "program": 5001,
      "ĠVer": 5002,
      "Use": 5003,
      "inally": 5004,
      "Ġintelligence": 5005,
      "PropertyBag": 5006,
      "SystemEnvironmentPrivilege": 5007,
      "Ġbuilt": 5008,
      "../": 5009,
      "259": 5010,
      "ulate": 5011,
      "istrative": 5012,
      "Ġinterface": 5013,
      "pcap": 5014,
      "DCLCRP": 5015,
      "just": 5016,
      "arts": 5017,
      "ĠCA": 5018,
      "ĠUp": 5019,
      "ADM": 5020,
      "NULL": 5021,
      "610": 5022,
      "Ġparent": 5023,
      "Ġless": 5024,
      "ĠBe": 5025,
      "ugg": 5026,
      "Ġcompromised": 5027,
      "DCLCRPCR": 5028,
      "IX": 5029,
      "where": 5030,
      "TypeLib": 5031,
      "ĠHunting": 5032,
      "Ġinstead": 5033,
      "SDWDWO": 5034,
      "ium": 5035,
      "CAPEC": 5036,
      "Ġsections": 5037,
      "DCLCRPCRSDWDWO": 5038,
      "LP": 5039,
      "SM": 5040,
      "240": 5041,
      "oper": 5042,
      "Ġstop": 5043,
      "795": 5044,
      "ecessary": 5045,
      "Ġsure": 5046,
      "0409": 5047,
      "Ġcommunication": 5048,
      "Ġlegitimate": 5049,
      "LAN": 5050,
      "bs": 5051,
      "ĠMD": 5052,
      "Ġtimes": 5053,
      "ĠTerminal": 5054,
      "MSIL": 5055,
      "231": 5056,
      "rbf": 5057,
      ".âĢĿ": 5058,
      "GAC": 5059,
      "ta": 5060,
      "Ġ49": 5061,
      "Ġgiven": 5062,
      "Ġ||": 5063,
      "ledge": 5064,
      "hu": 5065,
      "spam": 5066,
      "Ġadversaries": 5067,
      "Ġfocus": 5068,
      "539": 5069,
      "EST": 5070,
      "rodu": 5071,
      "Ġavoid": 5072,
      "Ġplace": 5073,
      "ĠIntelligence": 5074,
      "Now": 5075,
      "Native": 5076,
      "Pending": 5077,
      "ĠQ": 5078,
      "Ġetc": 5079,
      "ety": 5080,
      "Ġdebug": 5081,
      "237": 5082,
      "Ġlibrary": 5083,
      "ĠFind": 5084,
      "ĠHe": 5085,
      "ĠComp": 5086,
      "ĠIPv": 5087,
      "Di": 5088,
      "bAB": 5089,
      "Ġ33": 5090,
      "Ġdriver": 5091,
      "Ġhapp": 5092,
      "ARSE": 5093,
      "filtr": 5094,
      "456": 5095,
      "cache": 5096,
      "Ġincre": 5097,
      "AEY": 5098,
      "248": 5099,
      "acters": 5100,
      "ĠAttacks": 5101,
      "ĠOVERFLOW": 5102,
      "hr": 5103,
      "more": 5104,
      "Ġ54": 5105,
      "ises": 5106,
      "Orphan": 5107,
      "516": 5108,
      "GV": 5109,
      "ha": 5110,
      "names": 5111,
      "Ġcertain": 5112,
      "imit": 5113,
      "cm": 5114,
      "Ġ55": 5115,
      "Ġmis": 5116,
      "ĠCourse": 5117,
      "408": 5118,
      "bot": 5119,
      "Ġmechanis": 5120,
      "362": 5121,
      "Ġobjects": 5122,
      "atal": 5123,
      "ĠAg": 5124,
      "odes": 5125,
      "444": 5126,
      "ĠEm": 5127,
      "360": 5128,
      "289": 5129,
      "ATAUAVAWH": 5130,
      "Ġgoing": 5131,
      "088": 5132,
      "Ġ27": 5133,
      "ĠELF": 5134,
      "Ġstat": 5135,
      "AdAB": 5136,
      "Ġactions": 5137,
      "DR": 5138,
      "static": 5139,
      "ĠTest": 5140,
      "place": 5141,
      "PR": 5142,
      "oy": 5143,
      "write": 5144,
      "ceed": 5145,
      "ĠClass": 5146,
      "iod": 5147,
      "Ġ56": 5148,
      "Ġfurther": 5149,
      "299": 5150,
      "Parameters": 5151,
      "bas": 5152,
      "Ġbest": 5153,
      "Ġnormal": 5154,
      "ĠIs": 5155,
      "659": 5156,
      "wise": 5157,
      "plac": 5158,
      "QQBBAEEAQQB": 5159,
      "305": 5160,
      "II": 5161,
      "wer": 5162,
      "ART": 5163,
      "Ġcorrect": 5164,
      ":%": 5165,
      "Sub": 5166,
      "writ": 5167,
      "Ġms": 5168,
      "Ġseen": 5169,
      "ĠQu": 5170,
      "sequ": 5171,
      "858": 5172,
      "Connection": 5173,
      "And": 5174,
      "Ġflag": 5175,
      "ðĿĲ": 5176,
      "/%": 5177,
      "wp": 5178,
      "result": 5179,
      "foll": 5180,
      "ĠĠĠĠĠĠĠĠĠĠĠĠĠĠĠ": 5181,
      "Ġloaded": 5182,
      "246": 5183,
      "ĠĠĠĠĠĠĠĠĠĠĠĠĠĠĠĠĠĠĠĠĠĠĠĠĠĠĠĠĠĠĠĠĠĠĠĠĠĠĠĠĠĠĠĠĠĠĠĠ": 5184,
      "Images": 5185,
      "agnost": 5186,
      "REPARSE": 5187,
      "265": 5188,
      "AGo": 5189,
      "Ġquick": 5190,
      "Ġlooking": 5191,
      "219": 5192,
      "has": 5193,
      "mum": 5194,
      "ĠCopy": 5195,
      "Ġstore": 5196,
      "ĠExecut": 5197,
      "Config": 5198,
      "InitPropertyBag": 5199,
      "iant": 5200,
      "Ġprior": 5201,
      "161": 5202,
      "266": 5203,
      "249": 5204,
      "istic": 5205,
      "12548": 5206,
      "UM": 5207,
      "let": 5208,
      "sche": 5209,
      "Ġ...": 5210,
      "ĠAction": 5211,
      "olor": 5212,
      "udent": 5213,
      "450": 5214,
      "Language": 5215,
      "ali": 5216,
      "Ġhad": 5217,
      "335": 5218,
      "Ġinfrastructure": 5219,
      "269": 5220,
      "events": 5221,
      "Ġshort": 5222,
      "ĠâĢĺ": 5223,
      "See": 5224,
      "azure": 5225,
      "kill": 5226,
      "Ġsl": 5227,
      "then": 5228,
      "Ġactiv": 5229,
      "ummary": 5230,
      "plugins": 5231,
      "IB": 5232,
      "size": 5233,
      "ĠSoftware": 5234,
      "DO": 5235,
      "Terminal": 5236,
      "445": 5237,
      "OF": 5238,
      "nl": 5239,
      "ĠSY": 5240,
      "import": 5241,
      "[]_^": 5242,
      "0000000000000": 5243,
      "Ġbetter": 5244,
      "Ġencrypted": 5245,
      "KN": 5246,
      "388": 5247,
      "udio": 5248,
      "Eng": 5249,
      "space": 5250,
      "Ġrequires": 5251,
      "WebKit": 5252,
      "EnableDelegation": 5253,
      "My": 5254,
      "isual": 5255,
      "ĠValues": 5256,
      "Rem": 5257,
      "Rel": 5258,
      "device": 5259,
      "AHY": 5260,
      "ividual": 5261,
      "EnableDelegationPrivilege": 5262,
      "imer": 5263,
      "040": 5264,
      "istics": 5265,
      "Ġ172": 5266,
      "Interface": 5267,
      "')": 5268,
      "eparation": 5269,
      "Ġensure": 5270,
      "QV": 5271,
      "like": 5272,
      "Ġincident": 5273,
      "may": 5274,
      "ram": 5275,
      "ĠTH": 5276,
      "research": 5277,
      "Ġenter": 5278,
      "Ġcontrols": 5279,
      "leanup": 5280,
      ":~": 5281,
      "ane": 5282,
      "ĠCor": 5283,
      "ĠMode": 5284,
      "Ġlow": 5285,
      "cloud": 5286,
      "wbem": 5287,
      "ĠLocal": 5288,
      "Handler": 5289,
      "00000000000000": 5290,
      "ryption": 5291,
      "Ġtimest": 5292,
      "GS": 5293,
      "ĠElastic": 5294,
      "ĠRemote": 5295,
      "4624": 5296,
      "Ġtesting": 5297,
      "ography": 5298,
      "QJ": 5299,
      "ĠSafari": 5300,
      "Ġ30": 5301,
      "ĠĠĠĠĠĠĠĠĠĠĠĠĠĠ": 5302,
      "Ġneeded": 5303,
      "utomatically": 5304,
      "Ġpasswords": 5305,
      "Ġpost": 5306,
      "Ġpersistence": 5307,
      "imports": 5308,
      "Prot": 5309,
      "AEMA": 5310,
      "Ġobserv": 5311,
      "Ġorganizations": 5312,
      "Ġscripts": 5313,
      "Ġcollection": 5314,
      "Fe": 5315,
      "_]": 5316,
      "eue": 5317,
      "Ġadv": 5318,
      "ĠConn": 5319,
      "Ġbegin": 5320,
      "Ġadded": 5321,
      "dep": 5322,
      "resh": 5323,
      "Ġhandle": 5324,
      "Original": 5325,
      "699": 5326,
      "BN": 5327,
      "Bad": 5328,
      "GH": 5329,
      "Point": 5330,
      "byte": 5331,
      "ober": 5332,
      "AEw": 5333,
      "760": 5334,
      "Reader": 5335,
      "OrphanFiles": 5336,
      "Ed": 5337,
      "WindowsPowerShell": 5338,
      "572": 5339,
      "jpg": 5340,
      "716": 5341,
      "sync": 5342,
      "AFk": 5343,
      "updateservices": 5344,
      "VP": 5345,
      "cw": 5346,
      "egB": 5347,
      "ĠAppl": 5348,
      "andbox": 5349,
      "ITE": 5350,
      "Ġresearch": 5351,
      "Ġartifacts": 5352,
      "exploit": 5353,
      "ARwB": 5354,
      "derstand": 5355,
      "Ġsteps": 5356,
      "334": 5357,
      "TAEk": 5358,
      "weep": 5359,
      "VISO": 5360,
      "AVgB": 5361,
      "Context": 5362,
      "UVW": 5363,
      "vv": 5364,
      "AEEAU": 5365,
      "Redirection": 5366,
      "aut": 5367,
      "ening": 5368,
      "ĠTim": 5369,
      "cheduled": 5370,
      "priate": 5371,
      "Courses": 5372,
      "first": 5373,
      "190": 5374,
      "Ġden": 5375,
      "298": 5376,
      "Ġrest": 5377,
      ".\"": 5378,
      "zh": 5379,
      "Ġ40": 5380,
      "157": 5381,
      "loading": 5382,
      "Ġtasks": 5383,
      "Ġ25": 5384,
      "Ġdiff": 5385,
      "Adobe": 5386,
      "Ġrecord": 5387,
      "mem": 5388,
      "pop": 5389,
      "err": 5390,
      "555": 5391,
      "ople": 5392,
      "Ġproject": 5393,
      "Ġneeds": 5394,
      "Ġhosts": 5395,
      "5353": 5396,
      "Ġdefined": 5397,
      "Ġparameter": 5398,
      "ights": 5399,
      "NDQ": 5400,
      "Workstation": 5401,
      "Cs": 5402,
      "Pl": 5403,
      "mark": 5404,
      "post": 5405,
      "Ġseq": 5406,
      "rf": 5407,
      "ĠAS": 5408,
      "Ġwebsite": 5409,
      "lm": 5410,
      "286": 5411,
      "everity": 5412,
      "Ġpract": 5413,
      "entionally": 5414,
      "!'": 5415,
      "He": 5416,
      "Ġ2017": 5417,
      "211": 5418,
      "âĢĲ": 5419,
      "283": 5420,
      "olutions": 5421,
      "Ġvariable": 5422,
      "Byte": 5423,
      "images": 5424,
      "Ġbook": 5425,
      "ipher": 5426,
      "achines": 5427,
      "AVAB": 5428,
      "Ġstrings": 5429,
      "src": 5430,
      "memory": 5431,
      "oa": 5432,
      "âĶĢâĶĢâĶĢâĶĢâĶĢâĶĢâĶĢâĶĢ": 5433,
      "Bit": 5434,
      "bg": 5435,
      "cad": 5436,
      "encrypt": 5437,
      "AMQB": 5438,
      "Ġupdate": 5439,
      "Console": 5440,
      "ĠSystems": 5441,
      "CommandLine": 5442,
      "block": 5443,
      "alloc": 5444,
      "book": 5445,
      "Ġsensitive": 5446,
      "Ġmonitoring": 5447,
      "ingshot": 5448,
      "Advers": 5449,
      "AWAB": 5450,
      "plicit": 5451,
      "QU": 5452,
      "bi": 5453,
      "bet": 5454,
      "ĠAss": 5455,
      "888": 5456,
      "ĠAppleWebKit": 5457,
      "750": 5458,
      "icult": 5459,
      "Ġsite": 5460,
      "3333": 5461,
      "AFI": 5462,
      "Ġtraining": 5463,
      "Dll": 5464,
      "qexec": 5465,
      "Ġauthentic": 5466,
      "Ġreason": 5467,
      "overn": 5468,
      "smurf": 5469,
      "Ġrecords": 5470,
      "Overlay": 5471,
      "NiN": 5472,
      "KHTML": 5473,
      "LK": 5474,
      "atz": 5475,
      "outs": 5476,
      "014": 5477,
      "oded": 5478,
      "poqexec": 5479,
      "Separation": 5480,
      "213": 5481,
      "ĠPEF": 5482,
      "ĠOriginal": 5483,
      "ormatError": 5484,
      "ĠPEFormatError": 5485,
      "672": 5486,
      "Item": 5487,
      "eAB": 5488,
      "ĠSI": 5489,
      "Ġlogin": 5490,
      "AFU": 5491,
      "ACK": 5492,
      "ĠDo": 5493,
      "ĠPath": 5494,
      "ĠTHE": 5495,
      "797": 5496,
      "OUR": 5497,
      "OfFile": 5498,
      "agB": 5499,
      "Ġexception": 5500,
      "Ġsomething": 5501,
      "Ġestabl": 5502,
      "173": 5503,
      "475": 5504,
      "Scheduler": 5505,
      "dx": 5506,
      "Ġmakes": 5507,
      "char": 5508,
      "178": 5509,
      "Ġplug": 5510,
      "Ġentries": 5511,
      "Cr": 5512,
      "Ġpoints": 5513,
      "formance": 5514,
      "ĠHost": 5515,
      "./": 5516,
      "ĠTesting": 5517,
      "Ġ2019": 5518,
      "Ġmonitor": 5519,
      "Ġconnections": 5520,
      "\">": 5521,
      "437": 5522,
      "bef": 5523,
      "chain": 5524,
      "ili": 5525,
      "pty": 5526,
      "login": 5527,
      "bitr": 5528,
      "Auth": 5529,
      "AutomaticDestinations": 5530,
      "Sign": 5531,
      "TA": 5532,
      "Advanced": 5533,
      "Block": 5534,
      "DA": 5535,
      "proxy": 5536,
      "Ġlimit": 5537,
      "automaticDestinations": 5538,
      "ĠÂ": 5539,
      "ĠKnown": 5540,
      "utes": 5541,
      "ift": 5542,
      "ortana": 5543,
      "echnical": 5544,
      "StateSeparation": 5545,
      "taskhost": 5546,
      "RedirectionMap": 5547,
      "514": 5548,
      "Cyber": 5549,
      "FQ": 5550,
      "dated": 5551,
      "ni": 5552,
      "ping": 5553,
      "aca": 5554,
      "urns": 5555,
      "embed": 5556,
      "VWUSH": 5557,
      "Ġsmall": 5558,
      "Ġversions": 5559,
      "Function": 5560,
      "ina": 5561,
      "adc": 5562,
      "Ġmedium": 5563,
      "Ġlines": 5564,
      "ĠProtection": 5565,
      "Attack": 5566,
      "ĠEngine": 5567,
      "AFMASQB": 5568,
      "Ġsuspicious": 5569,
      "ĠSysmon": 5570,
      "fw": 5571,
      "zip": 5572,
      "Ġsample": 5573,
      "ĠBy": 5574,
      "ï¬Ĥ": 5575,
      "Ġ**": 5576,
      "Ġinvolv": 5577,
      "selfupdate": 5578,
      "WL": 5579,
      "mi": 5580,
      "mar": 5581,
      "ĠFigure": 5582,
      "ĠProcesses": 5583,
      "Ġdescriptor": 5584,
      "DI": 5585,
      "Ġmitig": 5586,
      "chang": 5587,
      "3924": 5588,
      "Ġvendor": 5589,
      "ificant": 5590,
      "Ġ%%": 5591,
      "ĠDefender": 5592,
      "CriticalSection": 5593,
      "+]": 5594,
      "BJ": 5595,
      "kens": 5596,
      "sup": 5597,
      "448": 5598,
      "erview": 5599,
      "368": 5600,
      "AWQB": 5601,
      "\\_^": 5602,
      "ĠSEC": 5603,
      "chi": 5604,
      "ĠWhile": 5605,
      "Ġsimply": 5606,
      "378": 5607,
      "xt": 5608,
      "Ġauditing": 5609,
      "078": 5610,
      "549": 5611,
      "ĠMSR": 5612,
      "FileName": 5613,
      "ĠReport": 5614,
      "Ġretri": 5615,
      "5372": 5616,
      "Ġpotential": 5617,
      "Rtl": 5618,
      "itle": 5619,
      "Ġfailed": 5620,
      "Indexed": 5621,
      "First": 5622,
      "PA": 5623,
      "aN": 5624,
      "max": 5625,
      "pme": 5626,
      "sbin": 5627,
      "ĠDavid": 5628,
      "ĠCAF": 5629,
      "230": 5630,
      "NoN": 5631,
      "$_": 5632,
      "ural": 5633,
      "245": 5634,
      "Hash": 5635,
      "Ġ34": 5636,
      "Ġ[[": 5637,
      "Ġdesigned": 5638,
      "portsweep": 5639,
      "hash": 5640,
      "nop": 5641,
      "Ġperson": 5642,
      "adv": 5643,
      "ĠCount": 5644,
      "shot": 5645,
      "iction": 5646,
      "TM": 5647,
      "zc": 5648,
      "261": 5649,
      "irus": 5650,
      "Ġ47": 5651,
      "ĠLet": 5652,
      "SFT": 5653,
      "Ġesp": 5654,
      "Ġremoved": 5655,
      "DAT": 5656,
      "num": 5657,
      "itt": 5658,
      "Ġparameters": 5659,
      "221": 5660,
      "UL": 5661,
      "lt": 5662,
      "247": 5663,
      "ĠRem": 5664,
      "Ġexternal": 5665,
      "574": 5666,
      "Ġitems": 5667,
      "AEEAQQBB": 5668,
      "Ġnetworks": 5669,
      "ookie": 5670,
      "Ġtargeted": 5671,
      "320": 5672,
      "Do": 5673,
      "vAC": 5674,
      "Ġfail": 5675,
      "170": 5676,
      "ĠMethod": 5677,
      "Ġreserved": 5678,
      "KwB": 5679,
      "Ġxmm": 5680,
      "Acro": 5681,
      "Ġlearning": 5682,
      "193": 5683,
      "153": 5684,
      "ĠmacOS": 5685,
      "JK": 5686,
      "manager": 5687,
      "tion": 5688,
      "191": 5689,
      "Exec": 5690,
      "Ġconfigured": 5691,
      "Cor": 5692,
      "Ġtell": 5693,
      "loating": 5694,
      "3120": 5695,
      "Ġitself": 5696,
      "Ġeasy": 5697,
      "After": 5698,
      "CX": 5699,
      "cdd": 5700,
      "235": 5701,
      "ANAB": 5702,
      "Ġupdates": 5703,
      "andling": 5704,
      "calation": 5705,
      "levated": 5706,
      "Ġ0000": 5707,
      "users": 5708,
      "ape": 5709,
      "Ġexper": 5710,
      "Ġcomponents": 5711,
      "297": 5712,
      "TaskScheduler": 5713,
      "Cortana": 5714,
      "WO": 5715,
      "hen": 5716,
      "format": 5717,
      "ultiple": 5718,
      "gress": 5719,
      "Ġidentified": 5720,
      "Ġlimited": 5721,
      "Assembly": 5722,
      "Ġways": 5723,
      "AEs": 5724,
      "('": 5725,
      "Password": 5726,
      "\\_": 5727,
      "358": 5728,
      "eba": 5729,
      "Channel": 5730,
      "Ġ08": 5731,
      "arily": 5732,
      "089": 5733,
      "Ġproper": 5734,
      "Arg": 5735,
      "ĠAdministrator": 5736,
      "incip": 5737,
      "344": 5738,
      "TE": 5739,
      "Ġcritical": 5740,
      "267": 5741,
      "rike": 5742,
      "Entry": 5743,
      "ISA": 5744,
      "Ġattempts": 5745,
      "332": 5746,
      "Automation": 5747,
      "Check": 5748,
      "ped": 5749,
      "Ġsolution": 5750,
      "acked": 5751,
      "Ġlogging": 5752,
      "Ġintentionally": 5753,
      "Ġapply": 5754,
      "Analysis": 5755,
      "HA": 5756,
      "nk": 5757,
      "ĠCre": 5758,
      "END": 5759,
      "AFY": 5760,
      "Standard": 5761,
      "Ġability": 5762,
      ":\"": 5763,
      "auth": 5764,
      "jz": 5765,
      "ela": 5766,
      "Ġplatform": 5767,
      "Transited": 5768,
      "UDP": 5769,
      "AEoA": 5770,
      "trusion": 5771,
      "Ġloop": 5772,
      "ĠDescription": 5773,
      "ĠPassword": 5774,
      "BAEEAQQB": 5775,
      "Flags": 5776,
      "||||": 5777,
      "NativeImages": 5778,
      "Cal": 5779,
      "bec": 5780,
      "Ġben": 5781,
      "Ġinterest": 5782,
      "CTION": 5783,
      "taskhostw": 5784,
      "337": 5785,
      "Ġcomplex": 5786,
      "Ġprocessing": 5787,
      "cwB": 5788,
      "Ġlock": 5789,
      "Ġcyber": 5790,
      "Ġcertificate": 5791,
      "Ġremain": 5792,
      "ASAB": 5793,
      "AAAAAAAA": 5794,
      "404": 5795,
      "values": 5796,
      "ouse": 5797,
      "Ġswitch": 5798,
      "ĠVersion": 5799,
      "produ": 5800,
      "ĠForensics": 5801,
      "fac": 5802,
      "kit": 5803,
      "439": 5804,
      "Dec": 5805,
      "Ġclear": 5806,
      "180": 5807,
      "151": 5808,
      "BL": 5809,
      "CM": 5810,
      "mb": 5811,
      "Ġîģ": 5812,
      "erts": 5813,
      "ĠST": 5814,
      "Proxy": 5815,
      "ContentIndexed": 5816,
      "ming": 5817,
      "015": 5818,
      "Profile": 5819,
      "028": 5820,
      "Ġadministrative": 5821,
      "\\(": 5822,
      "ann": 5823,
      "alen": 5824,
      "2013": 5825,
      "imary": 5826,
      "Ġdue": 5827,
      "Ġthink": 5828,
      "printf": 5829,
      "ĠNotContentIndexed": 5830,
      "rupted": 5831,
      "AJ": 5832,
      "tom": 5833,
      "Ġask": 5834,
      "NB": 5835,
      "ores": 5836,
      "ĠTechniques": 5837,
      "Kernel": 5838,
      "fed": 5839,
      "opt": 5840,
      "AHo": 5841,
      "AHQA": 5842,
      "sd": 5843,
      "wiz": 5844,
      "Ġut": 5845,
      "Ġcache": 5846,
      "Ġdeploy": 5847,
      "Ġ2018": 5848,
      "points": 5849,
      "Ġalert": 5850,
      "Ġequ": 5851,
      "Ġagent": 5852,
      "Ġdisabled": 5853,
      "Ġfin": 5854,
      "Ġdeliv": 5855,
      "Complet": 5856,
      "ĠArchitecture": 5857,
      "010": 5858,
      "Box": 5859,
      "elp": 5860,
      "532": 5861,
      "attern": 5862,
      "âĢĿ.": 5863,
      "Ġmodify": 5864,
      "Ġworks": 5865,
      "Ġsecure": 5866,
      "SMB": 5867,
      "ĠAnal": 5868,
      "Required": 5869,
      "171": 5870,
      "':": 5871,
      "(;": 5872,
      "uu": 5873,
      "environment": 5874,
      "ares": 5875,
      "Ġdiffer": 5876,
      "plit": 5877,
      "ĠThey": 5878,
      "enario": 5879,
      "522": 5880,
      "800": 5881,
      "904": 5882,
      "UH": 5883,
      "Ġaff": 5884,
      "evasion": 5885,
      "605": 5886,
      "Î¸": 5887,
      "icient": 5888,
      "263": 5889,
      "Ġinteract": 5890,
      "Ġprint": 5891,
      "ĠImplement": 5892,
      "bitrary": 5893,
      "storage": 5894,
      "lood": 5895,
      "313": 5896,
      "Ġthird": 5897,
      "Ġ2025": 5898,
      "esearch": 5899,
      "COM": 5900,
      "PM": 5901,
      "sthe": 5902,
      "Ġwin": 5903,
      "ORE": 5904,
      "cfd": 5905,
      "internal": 5906,
      "VH": 5907,
      "uv": 5908,
      "ĠĠĊ": 5909,
      "233": 5910,
      "984": 5911,
      "ĠFirefox": 5912,
      "zuela": 5913,
      "alenzuela": 5914,
      "there": 5915,
      "ĠReader": 5916,
      "ĠJava": 5917,
      "creens": 5918,
      "iï¬ģc": 5919,
      "eterpreter": 5920,
      "Side": 5921,
      "bad": 5922,
      "Ġ59": 5923,
      "1440": 5924,
      "ĠInstall": 5925,
      "Modules": 5926,
      "908": 5927,
      "So": 5928,
      "ĠUS": 5929,
      "witter": 5930,
      "WM": 5931,
      "met": 5932,
      "esp": 5933,
      "Ġsymb": 5934,
      "los": 5935,
      "ĠCheck": 5936,
      "((": 5937,
      "]](#": 5938,
      "ĠIA": 5939,
      "ĠMitigation": 5940,
      "Ġprotection": 5941,
      "click": 5942,
      "need": 5943,
      "posed": 5944,
      "roll": 5945,
      "Ġ./": 5946,
      "rix": 5947,
      "374": 5948,
      "GM": 5949,
      "Vulnerability": 5950,
      "fix": 5951,
      "ler": 5952,
      "wr": 5953,
      "eneration": 5954,
      "AgentHost": 5955,
      "ManagementAgentHost": 5956,
      "Acrobat": 5957,
      "805": 5958,
      "lol": 5959,
      "aved": 5960,
      "aker": 5961,
      "Ġinteresting": 5962,
      "AUwBJ": 5963,
      "Ġdifficult": 5964,
      "rid": 5965,
      "imik": 5966,
      "ĠDec": 5967,
      "257": 5968,
      "Ġenable": 5969,
      "when": 5970,
      "Valid": 5971,
      "enge": 5972,
      "Ġcause": 5973,
      "347": 5974,
      "eee": 5975,
      "830": 5976,
      "manifests": 5977,
      "`.": 5978,
      "Ġ48": 5979,
      "Ġproxy": 5980,
      "Ġentire": 5981,
      "Ġlinks": 5982,
      "Ġautomatically": 5983,
      "387": 5984,
      "utex": 5985,
      "otal": 5986,
      "542": 5987,
      "763": 5988,
      "cli": 5989,
      "AEUAaQB": 5990,
      "405": 5991,
      "600": 5992,
      "PI": 5993,
      "aid": 5994,
      "ulated": 5995,
      "organ": 5996,
      "BAEEAQQBB": 5997,
      "609": 5998,
      "Ġcar": 5999,
      "essions": 6000,
      "AGQA": 6001,
      "ĠProduction": 6002,
      "Ġmean": 6003,
      "GN": 6004,
      "Ġinside": 6005,
      "olume": 6006,
      "392": 6007,
      "Ġalloc": 6008,
      "Ġuntil": 6009,
      "istration": 6010,
      "ibraries": 6011,
      "create": 6012,
      "5672": 6013,
      "HKU": 6014,
      "ideo": 6015,
      "Cloud": 6016,
      "Ġfollow": 6017,
      "--------------------------------": 6018,
      "uggest": 6019,
      "ZH": 6020,
      "Ġexpl": 6021,
      "Ġactive": 6022,
      "Ġanalyst": 6023,
      "Ġchecks": 6024,
      "FL": 6025,
      "caf": 6026,
      "3892": 6027,
      "Ġdump": 6028,
      "Initial": 6029,
      "Ġlanguage": 6030,
      "340": 6031,
      "Ġexisting": 6032,
      "Ġzero": 6033,
      "XY": 6034,
      "_='": 6035,
      "mat": 6036,
      "random": 6037,
      "sy": 6038,
      "uzz": 6039,
      "Ġpres": 6040,
      "223": 6041,
      "Ġtrad": 6042,
      "Ġvulnerable": 6043,
      "WP": 6044,
      "ĠSc": 6045,
      "empl": 6046,
      "Once": 6047,
      "imikatz": 6048,
      "501": 6049,
      "BR": 6050,
      "Ġword": 6051,
      "ebp": 6052,
      "Stream": 6053,
      "brid": 6054,
      "Ġcapture": 6055,
      "authorized": 6056,
      "$\\": 6057,
      "809": 6058,
      "DH": 6059,
      "jk": 6060,
      "management": 6061,
      "sk": 6062,
      "allowed": 6063,
      "compl": 6064,
      "759": 6065,
      "Wireshark": 6066,
      "au": 6067,
      "env": 6068,
      "uses": 6069,
      "ulting": 6070,
      "actic": 6071,
      "Ġsegment": 6072,
      "gmt": 6073,
      ")=": 6074,
      "909": 6075,
      "CAT": 6076,
      "eto": 6077,
      "ogn": 6078,
      "4634": 6079,
      "Ġrandom": 6080,
      "Ġunknown": 6081,
      "Flow": 6082,
      "336": 6083,
      "Ti": 6084,
      "ĠChapter": 6085,
      "Ġcharacters": 6086,
      "MultiMachine": 6087,
      "686": 6088,
      "728": 6089,
      "mscor": 6090,
      "CMP": 6091,
      "eef": 6092,
      "Ġalgorithm": 6093,
      "eveloper": 6094,
      "Ġstatically": 6095,
      "was": 6096,
      "asploit": 6097,
      "ĠOper": 6098,
      "secure": 6099,
      "*.": 6100,
      "Â£": 6101,
      "ĠPh": 6102,
      "ĠCached": 6103,
      "AEwA": 6104,
      "through": 6105,
      "Ġexercise": 6106,
      "573": 6107,
      "ATwB": 6108,
      "Dd": 6109,
      "roduction": 6110,
      "Ġaround": 6111,
      "Ġgain": 6112,
      "wwww": 6113,
      "Ġindividual": 6114,
      "APT": 6115,
      "Backdoor": 6116,
      "Ġemplo": 6117,
      "AEc": 6118,
      "Ġpreviously": 6119,
      "@@": 6120,
      "Copy": 6121,
      "Parent": 6122,
      "atable": 6123,
      "Reference": 6124,
      "Step": 6125,
      "ty": 6126,
      "Ġticket": 6127,
      "imal": 6128,
      "Ġimages": 6129,
      "Ca": 6130,
      "YQB": 6131,
      "Ġec": 6132,
      "tool": 6133,
      "others": 6134,
      "layer": 6135,
      "ĠApply": 6136,
      "signed": 6137,
      "Ġsepar": 6138,
      "aml": 6139,
      "5604": 6140,
      "315": 6141,
      "Ġmaking": 6142,
      "allenge": 6143,
      "Oper": 6144,
      "ERN": 6145,
      "activity": 6146,
      "Ġaddition": 6147,
      "AVH": 6148,
      "ĠAdded": 6149,
      "Invoke": 6150,
      "Ga": 6151,
      "case": 6152,
      "Ġ46": 6153,
      "Ġprivate": 6154,
      "EXP": 6155,
      "also": 6156,
      "amespace": 6157,
      "FH": 6158,
      "hm": 6159,
      "Ġnet": 6160,
      "ORK": 6161,
      "Ġcome": 6162,
      "Ġproblem": 6163,
      "setup": 6164,
      "isco": 6165,
      "Ġcreation": 6166,
      "Ġhowever": 6167,
      "Pj": 6168,
      "RV": 6169,
      "fi": 6170,
      "etimes": 6171,
      "565": 6172,
      "077": 6173,
      "ĠNote": 6174,
      "parent": 6175,
      "Ġperformance": 6176,
      "defense": 6177,
      "Head": 6178,
      "Wait": 6179,
      "cn": 6180,
      "Request": 6181,
      "Ġexamples": 6182,
      "571": 6183,
      "Be": 6184,
      "Min": 6185,
      "number": 6186,
      "wi": 6187,
      "ĠSE": 6188,
      "279": 6189,
      "AFUA": 6190,
      "Ġassess": 6191,
      "Ġsuccessful": 6192,
      "riority": 6193,
      "atalog": 6194,
      "Ġcreating": 6195,
      "Ġboot": 6196,
      "ĠNVISO": 6197,
      "ytics": 6198,
      "âĸł": 6199,
      "285": 6200,
      "Gadget": 6201,
      "Normal": 6202,
      "find": 6203,
      "1032": 6204,
      "Ġreference": 6205,
      "ĠInjection": 6206,
      "4937": 6207,
      "wmi": 6208,
      "225": 6209,
      "LC": 6210,
      "rd": 6211,
      "sg": 6212,
      "Ġ29": 6213,
      "Ġbasic": 6214,
      "398": 6215,
      "ĠDiscovery": 6216,
      "Ġnumbers": 6217,
      "ĠBase": 6218,
      "AGMA": 6219,
      "ĠJan": 6220,
      "506": 6221,
      "864": 6222,
      "aged": 6223,
      "Ġfrequ": 6224,
      "execution": 6225,
      "img": 6226,
      "Ġbuffer": 6227,
      "ĠOF": 6228,
      "munic": 6229,
      "................................................................": 6230,
      "Ġshellcode": 6231,
      "Ġcompromise": 6232,
      "specific": 6233,
      "ĠVerification": 6234,
      ".\\": 6235,
      "hes": 6236,
      "Due": 6237,
      "anch": 6238,
      "ĠAI": 6239,
      "vention": 6240,
      "ADgA": 6241,
      "ĠKeys": 6242,
      "Ġbusiness": 6243,
      "700": 6244,
      "Part": 6245,
      "769": 6246,
      "////": 6247,
      "AFQ": 6248,
      "ĠZero": 6249,
      "Ġports": 6250,
      "estigation": 6251,
      "ze": 6252,
      "0020": 6253,
      "Ġad": 6254,
      "](../": 6255,
      "786": 6256,
      "rivacy": 6257,
      "272": 6258,
      "4692": 6259,
      "conf": 6260,
      "lier": 6261,
      "788": 6262,
      "lin": 6263,
      "policy": 6264,
      "Ġid": 6265,
      "Ġfirewall": 6266,
      "383": 6267,
      "Ġbad": 6268,
      "quire": 6269,
      "660": 6270,
      "mitted": 6271,
      "ercises": 6272,
      "PNF": 6273,
      "Ġdrive": 6274,
      "Report": 6275,
      "AGwA": 6276,
      "Ġmodules": 6277,
      "Ġ144": 6278,
      "UQ": 6279,
      "msv": 6280,
      "icon": 6281,
      "Ġframework": 6282,
      "thread": 6283,
      "Ġhead": 6284,
      "Ġpacker": 6285,
      "ucket": 6286,
      "FAGk": 6287,
      "each": 6288,
      "};": 6289,
      "âĢĺ": 6290,
      "isters": 6291,
      "Ġshare": 6292,
      "ikel": 6293,
      "Ġdoesn": 6294,
      "Ġlearn": 6295,
      "Platforms": 6296,
      "Ġhardware": 6297,
      "Find": 6298,
      "cert": 6299,
      "language": 6300,
      "option": 6301,
      "uture": 6302,
      "546": 6303,
      "243": 6304,
      "aspnet": 6305,
      "Ns": 6306,
      "mas": 6307,
      "Ġ//": 6308,
      "Ġtrust": 6309,
      "ĠDevelop": 6310,
      "AGQ": 6311,
      "Ġ511": 6312,
      "rivileged": 6313,
      "ĠForensic": 6314,
      "Ġrole": 6315,
      "ĠSynchronize": 6316,
      "levant": 6317,
      "DM": 6318,
      "rw": 6319,
      "std": 6320,
      "amaz": 6321,
      "iler": 6322,
      "sha": 6323,
      "ï¬ģg": 6324,
      "Ġanswer": 6325,
      "ECE": 6326,
      "Monitor": 6327,
      "OL": 6328,
      "394": 6329,
      "ĠInd": 6330,
      "Ġgraph": 6331,
      "284": 6332,
      "Ġsignificant": 6333,
      "atabases": 6334,
      "Links": 6335,
      "ĠÃ": 6336,
      "Ġsur": 6337,
      "ĠCase": 6338,
      "Ġrecomm": 6339,
      "Ġconnected": 6340,
      "Ġtrigger": 6341,
      "Cons": 6342,
      "ASQBp": 6343,
      "âĢ¦âĢ¦": 6344,
      "SQL": 6345,
      "YgB": 6346,
      "ament": 6347,
      "ĠSome": 6348,
      "ĠCall": 6349,
      "3920": 6350,
      "ainer": 6351,
      "AGgA": 6352,
      "Ġplan": 6353,
      "];": 6354,
      "tw": 6355,
      "store": 6356,
      "head": 6357,
      "ĠSign": 6358,
      "acon": 6359,
      "ocial": 6360,
      "Ġevidence": 6361,
      "AHM": 6362,
      "*)": 6363,
      "Form": 6364,
      "VL": 6365,
      "])": 6366,
      "Ġ45": 6367,
      "Ġtri": 6368,
      "311": 6369,
      "330": 6370,
      "Ġstri": 6371,
      "Ġusername": 6372,
      "Ġlot": 6373,
      "Ġhashes": 6374,
      "Vendor": 6375,
      "aab": 6376,
      "569": 6377,
      "Ġnecessary": 6378,
      "uman": 6379,
      "399": 6380,
      "Ġevalu": 6381,
      "Ġindex": 6382,
      "Ġmodels": 6383,
      "SQB": 6384,
      "gi": 6385,
      "012": 6386,
      "avig": 6387,
      "aft": 6388,
      "Ġarguments": 6389,
      "However": 6390,
      "cent": 6391,
      "Ġcampaign": 6392,
      "Ġbot": 6393,
      "ĠCO": 6394,
      "about": 6395,
      "ube": 6396,
      "Setting": 6397,
      "Ġchild": 6398,
      "Ġimpact": 6399,
      "creenshot": 6400,
      "$~": 6401,
      "664": 6402,
      ">/": 6403,
      "vi": 6404,
      "030": 6405,
      "Ġ(\"": 6406,
      "Conhost": 6407,
      "406": 6408,
      "cgB": 6409,
      "gy": 6410,
      "edb": 6411,
      "ington": 6412,
      "Ġmetadata": 6413,
      "actions": 6414,
      "gers": 6415,
      "Ġ07": 6416,
      "Ġconcept": 6417,
      "ements": 6418,
      "IGHT": 6419,
      "Ġpotentially": 6420,
      "Public": 6421,
      "scan": 6422,
      "Array": 6423,
      "(@": 6424,
      "Av": 6425,
      "Zw": 6426,
      "dm": 6427,
      "icens": 6428,
      "Ġachi": 6429,
      "ceptions": 6430,
      "Space": 6431,
      "276": 6432,
      "initial": 6433,
      "Ġtermin": 6434,
      "amps": 6435,
      "Ġmark": 6436,
      "Properties": 6437,
      "Exploit": 6438,
      "ANgB": 6439,
      "UIAutomation": 6440,
      "incipal": 6441,
      "488": 6442,
      "TS": 6443,
      "Ġembed": 6444,
      "567": 6445,
      "ĠDevice": 6446,
      "iver": 6447,
      "Ġthings": 6448,
      "erse": 6449,
      "ĠThat": 6450,
      "ProcessGuid": 6451,
      "Ġcontainer": 6452,
      "Ġeffect": 6453,
      "WU": 6454,
      "orary": 6455,
      "idth": 6456,
      "Ġpointer": 6457,
      "Exercise": 6458,
      "AHAA": 6459,
      "hosts": 6460,
      "imentis": 6461,
      "586": 6462,
      "RA": 6463,
      "cing": 6464,
      "etasploit": 6465,
      "hthe": 6466,
      "Ġusually": 6467,
      "Ġonce": 6468,
      "::::": 6469,
      "ĠSubKeys": 6470,
      "amazon": 6471,
      "Gu": 6472,
      "ZZ": 6473,
      "ĠTrust": 6474,
      "547": 6475,
      "ĠInt": 6476,
      "Threat": 6477,
      "Ġqueries": 6478,
      "Ġmanip": 6479,
      "trust": 6480,
      "isher": 6481,
      "Ġcd": 6482,
      "ectors": 6483,
      "545": 6484,
      "Ġnote": 6485,
      "These": 6486,
      "Ġlocated": 6487,
      "QQBBAEEAQQBBAEEAQQBBAEEAQQBBAEEAQQBBAEEAQQBBAEEAQQBBAEEAQQBBAEEA": 6488,
      "????????????????????????????????": 6489,
      "'ve": 6490,
      "422": 6491,
      "Ġide": 6492,
      "293": 6493,
      "ĠLogs": 6494,
      "Objects": 6495,
      "Ġflow": 6496,
      "5769": 6497,
      "RSTO": 6498,
      "directory": 6499,
      "Ġterminal": 6500,
      "Ġexit": 6501,
      "366": 6502,
      "Ġbackdoor": 6503,
      "CISA": 6504,
      "Gener": 6505,
      "_:": 6506,
      "yD": 6507,
      "262": 6508,
      "Ġredu": 6509,
      "598": 6510,
      "241": 6511,
      "USA": 6512,
      "SON": 6513,
      "641": 6514,
      "ĠYour": 6515,
      "alsimentis": 6516,
      "Ġaccept": 6517,
      "Activatable": 6518,
      "ĠSecure": 6519,
      "Ġaudit": 6520,
      "Ġbas": 6521,
      "046": 6522,
      "Response": 6523,
      "ĠNumberOf": 6524,
      "'m": 6525,
      "016": 6526,
      "513": 6527,
      "Auto": 6528,
      "Delete": 6529,
      "Icon": 6530,
      "KEY": 6531,
      "TF": 6532,
      "arning": 6533,
      "unnel": 6534,
      "277": 6535,
      "AGUA": 6536,
      "Ġjob": 6537,
      "îģĨ": 6538,
      "ĠFlags": 6539,
      "529": 6540,
      "Bro": 6541,
      "JP": 6542,
      "kk": 6543,
      "ĠSSH": 6544,
      "287": 6545,
      "Ġinternet": 6546,
      "utomated": 6547,
      "Ġimplemented": 6548,
      "ĠExploited": 6549,
      "ĠMemory": 6550,
      "Exp": 6551,
      "ADI": 6552,
      "ADY": 6553,
      "9616": 6554,
      "Ġtargets": 6555,
      "Ġdonate": 6556,
      "803": 6557,
      "faces": 6558,
      "ĠDriver": 6559,
      "447": 6560,
      "Ġstatus": 6561,
      "aken": 6562,
      "ĠEndOfFile": 6563,
      "184467380": 6564,
      "UIAutomationCore": 6565,
      "fH": 6566,
      "Ġforward": 6567,
      "949": 6568,
      "DN": 6569,
      "Severity": 6570,
      "provid": 6571,
      "msi": 6572,
      "what": 6573,
      "Ġpacked": 6574,
      "overnment": 6575,
      "Def": 6576,
      "ĠICMP": 6577,
      "ĠAPIs": 6578,
      "estricted": 6579,
      "2024": 6580,
      "itu": 6581,
      "Ġlayer": 6582,
      "ĠResearch": 6583,
      "Record": 6584,
      "JH": 6585,
      "ditions": 6586,
      "pm": 6587,
      "Ġarray": 6588,
      "âĸĪ": 6589,
      "ycle": 6590,
      "Cfunc": 6591,
      "aad": 6592,
      "pf": 6593,
      "Ġâ": 6594,
      "Ġmachines": 6595,
      "iving": 6596,
      "AMgB": 6597,
      "Accept": 6598,
      "606": 6599,
      "bes": 6600,
      "eu": 6601,
      "aper": 6602,
      "AFIA": 6603,
      "Logs": 6604,
      "Ġ35": 6605,
      "AEg": 6606,
      "ĠWMI": 6607,
      "---|": 6608,
      "Ġdiscussed": 6609,
      "ihood": 6610,
      "Ġchoose": 6611,
      "napshot": 6612,
      "401": 6613,
      "GUI": 6614,
      "QQA": 6615,
      "Sm": 6616,
      "Ġtemp": 6617,
      "ĠIsm": 6618,
      "ĠInc": 6619,
      "369": 6620,
      "AFgA": 6621,
      "Ġrather": 6622,
      "Ġdesign": 6623,
      "ifications": 6624,
      "ffffff": 6625,
      "CII": 6626,
      "Ġquestion": 6627,
      "ĠIsmael": 6628,
      "bcc": 6629,
      "ĠSRC": 6630,
      "Intel": 6631,
      "2604": 6632,
      "348": 6633,
      "ĠValenzuela": 6634,
      "AHk": 6635,
      "background": 6636,
      "Ġexists": 6637,
      "ikelihood": 6638,
      "319": 6639,
      "525": 6640,
      "EO": 6641,
      "Test": 6642,
      "dw": 6643,
      "Ġbro": 6644,
      "ĠĠĠĠĠĠĠĠĠĠĠĠĠĠĠĠĠ": 6645,
      "ele": 6646,
      "ĠOR": 6647,
      "stream": 6648,
      "1936": 6649,
      "othe": 6650,
      "Ġreve": 6651,
      "izes": 6652,
      "ĠBit": 6653,
      "ĠRequest": 6654,
      "ĠInitial": 6655,
      "Ġphysical": 6656,
      "SessionId": 6657,
      "1000": 6658,
      "646": 6659,
      "767": 6660,
      "HcD": 6661,
      "_=": 6662,
      "bash": 6663,
      "rdp": 6664,
      "Ġsys": 6665,
      "00007": 6666,
      "Opcode": 6667,
      "484": 6668,
      "379": 6669,
      "ĠBook": 6670,
      "Ġprovider": 6671,
      "ADk": 6672,
      "responding": 6673,
      "Ġprograms": 6674,
      "WebResources": 6675,
      "Em": 6676,
      "Font": 6677,
      "qq": 6678,
      "extr": 6679,
      "kbook": 6680,
      "ialog": 6681,
      "Ġupon": 6682,
      "Ġprotected": 6683,
      "Ġamount": 6684,
      "mfl": 6685,
      "oMX": 6686,
      "sib": 6687,
      "support": 6688,
      "},": 6689,
      "Ġtab": 6690,
      "ager": 6691,
      "Ġput": 6692,
      "aaa": 6693,
      "Ġperiod": 6694,
      "Downloads": 6695,
      "Ġissues": 6696,
      "ĠEmulation": 6697,
      "Br": 6698,
      "KNN": 6699,
      "pur": 6700,
      "00101": 6701,
      "Ġfac": 6702,
      "Ġne": 6703,
      "397": 6704,
      "SYSV": 6705,
      "SET": 6706,
      "connection": 6707,
      "\"),\"": 6708,
      "Ġreceived": 6709,
      "AZ": 6710,
      "DL": 6711,
      "oof": 6712,
      "into": 6713,
      "Ġinit": 6714,
      "\",\"\"),\"": 6715,
      "AFg": 6716,
      "Ġspecify": 6717,
      "slingshot": 6718,
      "ĠOnce": 6719,
      "enn": 6720,
      "Ġcolumn": 6721,
      "346": 6722,
      "Ġgive": 6723,
      "erations": 6724,
      "connect": 6725,
      "ĠCLA": 6726,
      "passwd": 6727,
      "poration": 6728,
      "oMXKNN": 6729,
      "oMXKNNC": 6730,
      "9060": 6731,
      "rl": 6732,
      "xf": 6733,
      "Ġcross": 6734,
      "449": 6735,
      "Ġreverse": 6736,
      "AEYA": 6737,
      "496": 6738,
      "Char": 6739,
      "addr": 6740,
      "build": 6741,
      "hh": 6742,
      "alleng": 6743,
      "Ġexport": 6744,
      "Ġincluded": 6745,
      "ĠDeletePending": 6746,
      "AllocationSize": 6747,
      "Ġelse": 6748,
      "ĠNumberOfLinks": 6749,
      "435": 6750,
      "679": 6751,
      "irai": 6752,
      "ĠThen": 6753,
      "ADA": 6754,
      "Active": 6755,
      "WORD": 6756,
      "csv": 6757,
      "ats": 6758,
      "Ġda": 6759,
      "ĠFree": 6760,
      "Ġcontinue": 6761,
      "FFFF": 6762,
      "ateral": 6763,
      "ussian": 6764,
      "INTER": 6765,
      "WJ": 6766,
      "bro": 6767,
      "fD": 6768,
      "787": 6769,
      "ewes": 6770,
      "Ġconsid": 6771,
      "Using": 6772,
      "Ġeasily": 6773,
      "________________________________________________________________": 6774,
      "KB": 6775,
      "KH": 6776,
      "Rev": 6777,
      "omal": 6778,
      "Ġbrow": 6779,
      "566": 6780,
      "ĠDOS": 6781,
      "579": 6782,
      "Ġreset": 6783,
      "ĠResult": 6784,
      "._": 6785,
      "Cy": 6786,
      "Xml": 6787,
      "ZE": 6788,
      "la": 6789,
      "ĠList": 6790,
      "499": 6791,
      "osh": 6792,
      "AHEA": 6793,
      "331": 6794,
      "302": 6795,
      "_*": 6796,
      "eh": 6797,
      "fba": 6798,
      "his": 6799,
      "kh": 6800,
      "Ġdate": 6801,
      "Ġinsp": 6802,
      "ilk": 6803,
      "ilit": 6804,
      "Ġexact": 6805,
      "Ġransomware": 6806,
      "poses": 6807,
      "Ġexecuting": 6808,
      "Am": 6809,
      "Sim": 6810,
      "fee": 6811,
      "ĠSMB": 6812,
      "ĠBack": 6813,
      "Ġotherwise": 6814,
      "register": 6815,
      "keyboard": 6816,
      "Ġdevelopment": 6817,
      "ĠAN": 6818,
      "ationsh": 6819,
      "ĠRober": 6820,
      "Ġmeas": 6821,
      "Ġoccurs": 6822,
      "SX": 6823,
      "finger": 6824,
      "mf": 6825,
      "ĠAfter": 6826,
      "aring": 6827,
      "Ġplease": 6828,
      "team": 6829,
      "ublisher": 6830,
      "ittle": 6831,
      "316": 6832,
      "677": 6833,
      "IH": 6834,
      "Ġutil": 6835,
      "SYS": 6836,
      "Ġgeneral": 6837,
      "ĠLOG": 6838,
      "inuous": 6839,
      "ecan": 6840,
      "Ġcalc": 6841,
      "047": 6842,
      "QueryStandard": 6843,
      "AGg": 6844,
      "ABC": 6845,
      "589": 6846,
      "correct": 6847,
      "Ġ128": 6848,
      "7444": 6849,
      "QueryStandardInformationFile": 6850,
      "414": 6851,
      "NC": 6852,
      "Ret": 6853,
      "iate": 6854,
      "inet": 6855,
      "jected": 6856,
      "616": 6857,
      "705": 6858,
      "SERVICE": 6859,
      "deploy": 6860,
      "non": 6861,
      "Â»": 6862,
      "2018": 6863,
      "urple": 6864,
      "resource": 6865,
      "oph": 6866,
      "ebe": 6867,
      "Ġrm": 6868,
      "Ġ'%": 6869,
      "Ġobtain": 6870,
      "Ġintrodu": 6871,
      "Ġtransfer": 6872,
      "Ġactivities": 6873,
      "BY": 6874,
      "Pe": 6875,
      "ĠError": 6876,
      "281": 6877,
      "ipeline": 6878,
      "configuration": 6879,
      "mean": 6880,
      "patibility": 6881,
      "Ġ%*": 6882,
      "untu": 6883,
      "XT": 6884,
      "dh": 6885,
      "Ġfour": 6886,
      "portun": 6887,
      "Ġregular": 6888,
      "earning": 6889,
      "wards": 6890,
      "XXXX": 6891,
      ">>>": 6892,
      "310": 6893,
      "=:": 6894,
      "DQ": 6895,
      "cryp": 6896,
      "Ġconsider": 6897,
      "undament": 6898,
      "ano": 6899,
      "report": 6900,
      "382": 6901,
      "Ġref": 6902,
      "ethat": 6903,
      "Ġwords": 6904,
      "Catalog": 6905,
      "emark": 6906,
      "ife": 6907,
      "ĠGetCurrent": 6908,
      "LogonUI": 6909,
      "521": 6910,
      "font": 6911,
      "fef": 6912,
      "mig": 6913,
      "Ġtakes": 6914,
      "Ġday": 6915,
      "Ġmedia": 6916,
      "Ġgr": 6917,
      "CUR": 6918,
      "apped": 6919,
      "Tasks": 6920,
      "ologies": 6921,
      "ajor": 6922,
      "COR": 6923,
      "xC": 6924,
      "ÂŃ": 6925,
      "ERM": 6926,
      "ĠEnumerate": 6927,
      "abling": 6928,
      "ĠResources": 6929,
      "etric": 6930,
      "Ġworld": 6931,
      "494844520000": 6932,
      "ĠCopyright": 6933,
      "Ġstripped": 6934,
      "Build": 6935,
      "XM": 6936,
      "ĠListing": 6937,
      "349": 6938,
      "024": 6939,
      "765": 6940,
      "Execution": 6941,
      "Ġentered": 6942,
      "Related": 6943,
      "LV": 6944,
      "community": 6945,
      "333": 6946,
      "458": 6947,
      "983": 6948,
      "ĠProduct": 6949,
      "Ġsetting": 6950,
      "sysmon": 6951,
      "Ġcollect": 6952,
      "debugCal": 6953,
      "Mz": 6954,
      "OD": 6955,
      "rag": 6956,
      "tained": 6957,
      "term": 6958,
      "ewy": 6959,
      "pressed": 6960,
      "Hub": 6961,
      "Ġ36": 6962,
      "ĠTLS": 6963,
      "ĠFilter": 6964,
      "cca": 6965,
      "ffe": 6966,
      "uster": 6967,
      "ĠExcel": 6968,
      "ASP": 6969,
      "following": 6970,
      "Cx": 6971,
      "NK": 6972,
      "oT": 6973,
      "Ġpatch": 6974,
      "ĠGener": 6975,
      "ĠThread": 6976,
      "Ġappear": 6977,
      "ĠCAPEC": 6978,
      "536": 6979,
      "Call": 6980,
      "Elastic": 6981,
      "Low": 6982,
      "Ol": 6983,
      "bj": 6984,
      "eq": 6985,
      "fp": 6986,
      "Ġmove": 6987,
      "quis": 6988,
      "Ġspecial": 6989,
      "8000": 6990,
      "aiss": 6991,
      "nb": 6992,
      "package": 6993,
      "wik": 6994,
      "email": 6995,
      "ĠCan": 6996,
      "eved": 6997,
      "SSH": 6998,
      "080": 6999,
      "ĠMAC": 7000,
      "ĠView": 7001,
      "Ġstarting": 7002,
      "Ġanalyze": 7003,
      "431": 7004,
      "GUID": 7005,
      "reen": 7006,
      "reight": 7007,
      "ides": 7008,
      ":\\$": 7009,
      "ĠKernel": 7010,
      "Ġeax": 7011,
      "AHg": 7012,
      "Ġstrateg": 7013,
      "Ġperformed": 7014,
      "outside": 7015,
      "fdf": 7016,
      "Ġwr": 7017,
      "AdQB": 7018,
      "Ġworking": 7019,
      "IyMjIyMjIyMjIyMj": 7020,
      "ĠGuide": 7021,
      "WN": 7022,
      "Ġ]": 7023,
      "Ġfil": 7024,
      "321": 7025,
      "039": 7026,
      "591": 7027,
      "Style": 7028,
      "ablet": 7029,
      "aissance": 7030,
      "Fi": 7031,
      "cAB": 7032,
      "Ġ37": 7033,
      "Ġhand": 7034,
      "bfc": 7035,
      "ĠBut": 7036,
      "âĶĤ": 7037,
      "While": 7038,
      "Ġself": 7039,
      "704": 7040,
      "[+]": 7041,
      "would": 7042,
      "Ġothers": 7043,
      "AMwB": 7044,
      "Ġtrack": 7045,
      "ulnerable": 7046,
      "aterial": 7047,
      "lu": 7048,
      "075": 7049,
      "\\$(": 7050,
      "BHUSA": 7051,
      "document": 7052,
      "Ġcover": 7053,
      "imp": 7054,
      "541": 7055,
      "ervis": 7056,
      "complet": 7057,
      "akness": 7058,
      "AHMA": 7059,
      "Certificate": 7060,
      "ĠCourseware": 7061,
      "899": 7062,
      "927": 7063,
      "ME": 7064,
      "bn": 7065,
      "erefore": 7066,
      "3829": 7067,
      "Ġexplicit": 7068,
      "othes": 7069,
      "Ġgoal": 7070,
      "ajax": 7071,
      "$%": 7072,
      "280": 7073,
      "356": 7074,
      "640": 7075,
      "umeration": 7076,
      "766": 7077,
      "ERR": 7078,
      "ĠBypass": 7079,
      "REIGHT": 7080,
      "Ġchmod": 7081,
      "Ġsequence": 7082,
      "haviors": 7083,
      "804": 7084,
      "authentication": 7085,
      "defin": 7086,
      "fE": 7087,
      "public": 7088,
      "table": 7089,
      "ĠTactics": 7090,
      "1132": 7091,
      "AGw": 7092,
      "IME": 7093,
      "Ġsets": 7094,
      "Ġcontaining": 7095,
      "INDOW": 7096,
      "Depth": 7097,
      "AWAVAUATVWUSH": 7098,
      "Malware": 7099,
      "sa": 7100,
      "Ġ41": 7101,
      "step": 7102,
      "ĠEach": 7103,
      "LOG": 7104,
      "278": 7105,
      "1833": 7106,
      "Ġmask": 7107,
      "00008": 7108,
      "ĠBlock": 7109,
      "Ġenc": 7110,
      "well": 7111,
      "AWgB": 7112,
      "controls": 7113,
      "admx": 7114,
      "Anal": 7115,
      "Ġfar": 7116,
      "Ġdro": 7117,
      "Ġhis": 7118,
      "efreight": 7119,
      "Ġarea": 7120,
      "ĠModel": 7121,
      "ĠRobert": 7122,
      "PO": 7123,
      "txy": 7124,
      "Ġthough": 7125,
      "Ġhal": 7126,
      "Ġcomb": 7127,
      "ĠWireshark": 7128,
      "lanefreight": 7129,
      "559": 7130,
      "655": 7131,
      "Max": 7132,
      "Mirai": 7133,
      "pw": 7134,
      "types": 7135,
      "Inproc": 7136,
      "Ġallowing": 7137,
      "Ġpurpose": 7138,
      "CON": 7139,
      "Generic": 7140,
      "ks": 7141,
      "nls": 7142,
      "yan": 7143,
      "icle": 7144,
      "Ġcare": 7145,
      "Inte": 7146,
      "ĠCurrent": 7147,
      "igher": 7148,
      "ĠFrom": 7149,
      "497": 7150,
      "Ġdescription": 7151,
      "detection": 7152,
      "txyewy": 7153,
      "(*": 7154,
      "Buffer": 7155,
      "Mac": 7156,
      "XE": 7157,
      "ybox": 7158,
      "asing": 7159,
      "Ġdouble": 7160,
      "htb": 7161,
      "ĠFI": 7162,
      "Ġvector": 7163,
      "960": 7164,
      "Ġeffective": 7165,
      "bQB": 7166,
      "cv": 7167,
      "econ": 7168,
      "1059": 7169,
      "Ġfinal": 7170,
      "322": 7171,
      "Ġpush": 7172,
      "889": 7173,
      "Ġforensic": 7174,
      "epend": 7175,
      "itionally": 7176,
      "EventID": 7177,
      "IPS": 7178,
      "Ġpeople": 7179,
      "emonstr": 7180,
      "Sj": 7181,
      "comput": 7182,
      "Ġproperty": 7183,
      "force": 7184,
      "Ġencoded": 7185,
      "778": 7186,
      "ZgB": 7187,
      "dH": 7188,
      "download": 7189,
      "ĠTicket": 7190,
      "Ġcompar": 7191,
      "Tool": 7192,
      "''": 7193,
      "945": 7194,
      "cx": 7195,
      "Ġ50": 7196,
      "erms": 7197,
      "Ġtechnology": 7198,
      "recor": 7199,
      "ĠMath": 7200,
      "498": 7201,
      "ADQA": 7202,
      "should": 7203,
      "Ġbutton": 7204,
      "strings": 7205,
      "1064": 7206,
      "@-": 7207,
      "hid": 7208,
      "Ġside": 7209,
      "exam": 7210,
      "ainers": 7211,
      "4672": 7212,
      "temp": 7213,
      "ALwAv": 7214,
      "filtration": 7215,
      "zero": 7216,
      "Ġ39": 7217,
      "067": 7218,
      "Ġbec": 7219,
      "esthe": 7220,
      "actor": 7221,
      "Ġchain": 7222,
      "Lock": 7223,
      "Ġactually": 7224,
      "encies": 7225,
      "QgBJ": 7226,
      "================": 7227,
      "LANEF": 7228,
      "534": 7229,
      "=%": 7230,
      "PQ": 7231,
      "0002": 7232,
      "Ġsolutions": 7233,
      "Ġseconds": 7234,
      "3389": 7235,
      "AQQB": 7236,
      "Mgmt": 7237,
      "Nq": 7238,
      "nmap": 7239,
      "sto": 7240,
      "076": 7241,
      "STAT": 7242,
      "Click": 7243,
      "Ġfollows": 7244,
      "module": 7245,
      "ransomware": 7246,
      "Ġï¬ģles": 7247,
      "531": 7248,
      "819": 7249,
      "Action": 7250,
      "LAB": 7251,
      "NR": 7252,
      "fm": 7253,
      "tal": 7254,
      "atur": 7255,
      "ĠSP": 7256,
      "ĠPenetration": 7257,
      "Ġinvestigation": 7258,
      "ĈĈĈĈ": 7259,
      "LANEFREIGHT": 7260,
      "585": 7261,
      "Ny": 7262,
      "UP": 7263,
      "hs": 7264,
      "644": 7265,
      "Ġpolicies": 7266,
      "Ġwhy": 7267,
      "961": 7268,
      "999": 7269,
      "mdm": 7270,
      "forensics": 7271,
      "Ġmitigations": 7272,
      ",âĢĿ": 7273,
      "Look": 7274,
      "mpt": 7275,
      "power": 7276,
      "wind": 7277,
      "Ġdetail": 7278,
      "AEEAR": 7279,
      "ustr": 7280,
      "bits": 7281,
      "ĠEndpoint": 7282,
      "Ġquickly": 7283,
      "604": 7284,
      "hl": 7285,
      "payload": 7286,
      "Ġ31": 7287,
      "064": 7288,
      "ĠLSB": 7289,
      "282": 7290,
      "ĠiOS": 7291,
      "OWN": 7292,
      "ĠClick": 7293,
      "OV": 7294,
      "Ġ60": 7295,
      "icode": 7296,
      "entral": 7297,
      "Ġredirect": 7298,
      "Ġhistory": 7299,
      "ĠReview": 7300,
      "Cleanup": 7301,
      "bcf": 7302,
      "alth": 7303,
      "1840": 7304,
      "ĠCr": 7305,
      "ĠUsers": 7306,
      "ĠRtl": 7307,
      "Ġprodu": 7308,
      "AFc": 7309,
      "ASwB": 7310,
      "views": 7311,
      "Ġregistered": 7312,
      "427": 7313,
      "538": 7314,
      "986": 7315,
      "Ġsamples": 7316,
      "cdef": 7317,
      "Ġenough": 7318,
      "sets": 7319,
      "gorithms": 7320,
      "Engine": 7321,
      "Ms": 7322,
      "RQ": 7323,
      "valid": 7324,
      "Ġî": 7325,
      "Ġscreenshot": 7326,
      "323": 7327,
      "550": 7328,
      "astic": 7329,
      "antage": 7330,
      "Ġmodified": 7331,
      "ðĿĳ": 7332,
      "419": 7333,
      "Go": 7334,
      "KERN": 7335,
      "Le": 7336,
      "Sel": 7337,
      "dwm": 7338,
      "micro": 7339,
      "ssh": 7340,
      "ĠScan": 7341,
      "acket": 7342,
      "proton": 7343,
      "Ġallowed": 7344,
      "Ġreceive": 7345,
      "extron": 7346,
      "$<": 7347,
      "'re": 7348,
      "478": 7349,
      "710": 7350,
      ">\"": 7351,
      "cut": 7352,
      "fcf": 7353,
      "iation": 7354,
      "ybrid": 7355,
      "011": 7356,
      "SeSecurityPrivilege": 7357,
      "Ġlonger": 7358,
      "Ġunderstanding": 7359,
      "&&": 7360,
      "Ans": 7361,
      "Co": 7362,
      "persistence": 7363,
      "ĠSo": 7364,
      "Ġdelete": 7365,
      "ĠTrue": 7366,
      "ĠUSB": 7367,
      "377": 7368,
      "ĠWake": 7369,
      "ĠChain": 7370,
      "catroot": 7371,
      "Ġflags": 7372,
      "ĠCorporation": 7373,
      "517": 7374,
      ";!": 7375,
      "FX": 7376,
      "MSFT": 7377,
      "Ġur": 7378,
      "Ġecho": 7379,
      "ĠSize": 7380,
      "647": 7381,
      "adb": 7382,
      "446": 7383,
      "plain": 7384,
      "ythe": 7385,
      "291": 7386,
      "4907": 7387,
      "AFo": 7388,
      "EventData": 7389,
      "ĠExt": 7390,
      "8748": 7391,
      "Protect": 7392,
      "protonmail": 7393,
      "NZ": 7394,
      "TI": 7395,
      "enced": 7396,
      "empt": 7397,
      "implement": 7398,
      "Ġnever": 7399,
      "773": 7400,
      "Ġabuse": 7401,
      "idential": 7402,
      "STRY": 7403,
      "Ġissue": 7404,
      "Ġleverage": 7405,
      "/\"": 7406,
      "817": 7407,
      "WI": 7408,
      "ïģ": 7409,
      "ĠMike": 7410,
      "Ġgather": 7411,
      "AGM": 7412,
      "AVwB": 7413,
      "Ġarbitrary": 7414,
      "Ġreturned": 7415,
      "Ġexamine": 7416,
      "INDOWS": 7417,
      "523": 7418,
      "Some": 7419,
      "jI": 7420,
      "uite": 7421,
      "00000001": 7422,
      "ĠCo": 7423,
      "5472": 7424,
      "557": 7425,
      "Ġvolume": 7426,
      "Ġunavailable": 7427,
      "attacker": 7428,
      "apture": 7429,
      "Ġlooks": 7430,
      "Encoding": 7431,
      "Sideloading": 7432,
      ".%": 7433,
      "418": 7434,
      "AAE": 7435,
      "Here": 7436,
      "Sid": 7437,
      "bcd": 7438,
      "session": 7439,
      "efb": 7440,
      "Keywords": 7441,
      "Exclusive": 7442,
      "ADQ": 7443,
      "Ġalong": 7444,
      "TaskHost": 7445,
      "Ġidentity": 7446,
      "âķĮ": 7447,
      "Ġelements": 7448,
      "Completion": 7449,
      "Timer": 7450,
      "aim": 7451,
      "pres": 7452,
      "079": 7453,
      "18362": 7454,
      "under": 7455,
      "Ġusage": 7456,
      "isthe": 7457,
      "++--": 7458,
      "CONT": 7459,
      "Ġvariables": 7460,
      "Extensions": 7461,
      "icensed": 7462,
      "EH": 7463,
      "TL": 7464,
      "bx": 7465,
      "gro": 7466,
      "lot": 7467,
      "Ġelevated": 7468,
      "Ġactual": 7469,
      "Ġenvironments": 7470,
      "learn": 7471,
      "ĠHashes": 7472,
      "backgroundTaskHost": 7473,
      "735": 7474,
      "Custom": 7475,
      "GE": 7476,
      "Nextron": 7477,
      "message": 7478,
      "Â¢": 7479,
      "ĠKill": 7480,
      "Ġconnid": 7481,
      "ÂłÂł": 7482,
      "psd": 7483,
      "Ġsupports": 7484,
      "Ġquestions": 7485,
      "Ġdescribed": 7486,
      ":~$": 7487,
      ")]": 7488,
      "don": 7489,
      "iance": 7490,
      "mk": 7491,
      "tree": 7492,
      "ĠCPU": 7493,
      "ĠLook": 7494,
      "clip": 7495,
      "Ġupdated": 7496,
      "Created": 7497,
      "ijack": 7498,
      "tzsync": 7499,
      "derstanding": 7500,
      "ĠSIEM": 7501,
      "554": 7502,
      "MSR": 7503,
      "Risk": 7504,
      "disk": 7505,
      "itHub": 7506,
      "ĠSince": 7507,
      "Ġpipe": 7508,
      "00009": 7509,
      "Ġnull": 7510,
      "ĠMis": 7511,
      "Ġyears": 7512,
      "udy": 7513,
      "AFkA": 7514,
      "SetValue": 7515,
      "Ġdoing": 7516,
      "Locker": 7517,
      "Internal": 7518,
      "latest": 7519,
      "TY": 7520,
      "pu": 7521,
      "qZ": 7522,
      "xD": 7523,
      "Ġ..": 7524,
      "Ġ66": 7525,
      "stant": 7526,
      "sthat": 7527,
      "Ġsave": 7528,
      "Ġdi": 7529,
      "441": 7530,
      "ĠMAL": 7531,
      "7659": 7532,
      "ĠOther": 7533,
      "ensible": 7534,
      "AHIA": 7535,
      "438": 7536,
      ":.": 7537,
      "WIN": 7538,
      "rp": 7539,
      "Ġ42": 7540,
      "0023": 7541,
      "Ġhaving": 7542,
      "275": 7543,
      "968": 7544,
      "anks": 7545,
      "gAw": 7546,
      "000000000000000": 7547,
      "Ġimplementation": 7548,
      "Ġappropriate": 7549,
      "Ġseqnum": 7550,
      "BO": 7551,
      "Ġ53": 7552,
      "ints": 7553,
      "Ġpages": 7554,
      "ĠMITRE": 7555,
      "967": 7556,
      "SeImpersonatePrivilege": 7557,
      "PPPP": 7558,
      "ĠDefense": 7559,
      "ARQBp": 7560,
      "Ġconfirm": 7561,
      "\"\\": 7562,
      "031": 7563,
      "Ver": 7564,
      "beb": 7565,
      "istance": 7566,
      "systems": 7567,
      "mediately": 7568,
      "ilkington": 7569,
      "âķĮâķĮ": 7570,
      "bee": 7571,
      "eo": 7572,
      "spp": 7573,
      "some": 7574,
      "inn": 7575,
      "Ġcrypt": 7576,
      "ĠCrypt": 7577,
      "ĠNt": 7578,
      "ĠMc": 7579,
      "EventRecord": 7580,
      "ĠDesktop": 7581,
      "Ġdece": 7582,
      "clusion": 7583,
      "Cannot": 7584,
      "ĠAndroid": 7585,
      "UG": 7586,
      "ours": 7587,
      "1486": 7588,
      "341": 7589,
      "ĠEric": 7590,
      "ventory": 7591,
      "974": 7592,
      "ĠGetSystem": 7593,
      "Ġactors": 7594,
      "SeDebugPrivilege": 7595,
      "Method": 7596,
      "length": 7597,
      "ingthe": 7598,
      "ĠSee": 7599,
      "Ġwon": 7600,
      "3290": 7601,
      "Ġmount": 7602,
      "andled": 7603,
      "Ġpassed": 7604,
      "Ġcompany": 7605,
      "guess": 7606,
      "tothe": 7607,
      "organization": 7608,
      "ECT": 7609,
      "]$": 7610,
      "Ġpo": 7611,
      "Inf": 7612,
      "SSS": 7613,
      "REGI": 7614,
      "ynt": 7615,
      "uchs": 7616,
      "Ġearlier": 7617,
      "INTERNET": 7618,
      "Publisher": 7619,
      "SVW": 7620,
      "ci": 7621,
      "cases": 7622,
      "uj": 7623,
      "inese": 7624,
      "ĠPl": 7625,
      "ĠMan": 7626,
      "ĠMov": 7627,
      "Ġlibraries": 7628,
      "027": 7629,
      "come": 7630,
      "689": 7631,
      "SeBackupPrivilege": 7632,
      "does": 7633,
      "python": 7634,
      "Ġ!=": 7635,
      "analyz": 7636,
      "servicingstack": 7637,
      "ĠBlue": 7638,
      "EventRecordID": 7639,
      "dac": 7640,
      "Ġclose": 7641,
      "Ġfix": 7642,
      "ĠMachine": 7643,
      "ĠHT": 7644,
      "850": 7645,
      "ĠGo": 7646,
      "Ġupload": 7647,
      "SeRestorePrivilege": 7648,
      "busybox": 7649,
      "Adversaries": 7650,
      "976": 7651,
      "IR": 7652,
      "KK": 7653,
      "URE": 7654,
      "ves": 7655,
      "xX": 7656,
      "zer": 7657,
      "ăă": 7658,
      "oug": 7659,
      "ival": 7660,
      "ĠToken": 7661,
      "ĠCert": 7662,
      "ĠMetasploit": 7663,
      "2004": 7664,
      "Activity": 7665,
      "WRITE": 7666,
      "0000000000000018": 7667,
      "3325": 7668,
      "801": 7669,
      "Distribution": 7670,
      "heet": 7671,
      "ddb": 7672,
      "ĠWH": 7673,
      "587": 7674,
      "INS": 7675,
      "they": 7676,
      "prnc": 7677,
      "ĠStorage": 7678,
      "Ġbusy": 7679,
      "NeN": 7680,
      "But": 7681,
      "Boot": 7682,
      "Hint": 7683,
      "KO": 7684,
      "VD": 7685,
      "ga": 7686,
      "066": 7687,
      "Ġsources": 7688,
      "ĠDigital": 7689,
      "Ġmajor": 7690,
      "Ġ\\\\": 7691,
      "343": 7692,
      "afb": 7693,
      "Ġchapter": 7694,
      "show": 7695,
      "âĢĿ,": 7696,
      "SeTakeOwnershipPrivilege": 7697,
      "Ġbackup": 7698,
      "olumns": 7699,
      "ĠOutput": 7700,
      "ĠSYSTEM": 7701,
      "833": 7702,
      "HQ": 7703,
      "Il": 7704,
      "Present": 7705,
      "Ġsay": 7706,
      "087": 7707,
      "gether": 7708,
      "SeLoadDriverPrivilege": 7709,
      "Ġappears": 7710,
      "istributed": 7711,
      "commands": 7712,
      "plicate": 7713,
      "Ġcurrently": 7714,
      "news": 7715,
      "languagepack": 7716,
      "KERNEL": 7717,
      "LA": 7718,
      "audit": 7719,
      "Ġoutside": 7720,
      "ĠPersistence": 7721,
      "ĠTO": 7722,
      "ĠLee": 7723,
      "Ġonline": 7724,
      "SeSystemEnvironmentPrivilege": 7725,
      "4768": 7726,
      "519": 7727,
      "}'/><": 7728,
      "ĠSelect": 7729,
      "Ġpast": 7730,
      "Ġdel": 7731,
      "Ġdeleted": 7732,
      "than": 7733,
      "Example": 7734,
      "270": 7735,
      "987": 7736,
      "AHQ": 7737,
      "Ġdomains": 7738,
      "Ġintegr": 7739,
      "EVEX": 7740,
      "Eye": 7741,
      "bce": 7742,
      "nN": 7743,
      "val": 7744,
      "068": 7745,
      "Ġtogether": 7746,
      "ĠTactic": 7747,
      "abcdef": 7748,
      "actical": 7749,
      "SRC": 7750,
      "Ġarchitecture": 7751,
      "who": 7752,
      "requests": 7753,
      "fffff": 7754,
      "Ġcapability": 7755,
      "args": 7756,
      "Ġtrying": 7757,
      "Execute": 7758,
      "ĠJavaScript": 7759,
      "edd": 7760,
      "Ġcop": 7761,
      "ĠLLM": 7762,
      "543": 7763,
      "ĠHacker": 7764,
      "ĠRyan": 7765,
      "AFQA": 7766,
      "FORM": 7767,
      "Atomic": 7768,
      "Worker": 7769,
      "'><": 7770,
      "526": 7771,
      "957": 7772,
      "FO": 7773,
      "ĠSO": 7774,
      "ĠDefault": 7775,
      "Ġlay": 7776,
      "prot": 7777,
      "Ġrequirements": 7778,
      "8000000000000000": 7779,
      "ki": 7780,
      "sites": 7781,
      "xc": 7782,
      "ench": 7783,
      "ĠAd": 7784,
      "arrow": 7785,
      "Ġweek": 7786,
      "Ġstand": 7787,
      "Ġtargeting": 7788,
      "></><": 7789,
      "srv": 7790,
      "PUB": 7791,
      "LastError": 7792,
      "(?": 7793,
      "could": 7794,
      "hind": 7795,
      "Ġeng": 7796,
      "ĠPilkington": 7797,
      "ĠTaz": 7798,
      "1113": 7799,
      "090": 7800,
      "irc": 7801,
      "Ġyet": 7802,
      "Ġ\"\"": 7803,
      "ABLE": 7804,
      "Ġconduct": 7805,
      "attacks": 7806,
      "registry": 7807,
      "ELSE": 7808,
      "Ġminutes": 7809,
      "rsrc": 7810,
      "vd": 7811,
      "onym": 7812,
      "reloc": 7813,
      "065": 7814,
      "Ġcost": 7815,
      "Ġdatabases": 7816,
      "ĠFuchs": 7817,
      "989": 7818,
      "ĠProgram": 7819,
      "Ġprec": 7820,
      "Ġplain": 7821,
      "6213290": 7822,
      "ĠEngineering": 7823,
      "âĸĪâĸĪ": 7824,
      "376": 7825,
      "Collection": 7826,
      "high": 7827,
      "ining": 7828,
      "urs": 7829,
      "01234": 7830,
      "ĠUsed": 7831,
      "670": 7832,
      "ijacking": 7833,
      "Ġwriting": 7834,
      "ĠMathias": 7835,
      ")#": 7836,
      "338": 7837,
      "5212": 7838,
      "Ic": 7839,
      "Par": 7840,
      "WORK": 7841,
      "ZW": 7842,
      "ZX": 7843,
      "yd": 7844,
      "352": 7845,
      "ĠMORE": 7846,
      "271": 7847,
      "AGI": 7848,
      "AFcA": 7849,
      "DEV": 7850,
      "ording": 7851,
      "thernet": 7852,
      "umerical": 7853,
      "ĠLabs": 7854,
      "ĠEvasion": 7855,
      "Ġproperly": 7856,
      "emplate": 7857,
      "LQ": 7858,
      "bgB": 7859,
      "Ġdynamic": 7860,
      "Ġdocuments": 7861,
      "1480": 7862,
      "platform": 7863,
      "2428": 7864,
      "computer": 7865,
      "ĠHP": 7866,
      "ĠĠĠĠĠĠĠĠĠĠĠĠĠĠĠĠĠĠĠĠ": 7867,
      "Ġcomponent": 7868,
      "Ġsteal": 7869,
      "Setup": 7870,
      "Ġregisters": 7871,
      "xyz": 7872,
      "Ġmechanism": 7873,
      "Ii": 7874,
      "Jx": 7875,
      "rx": 7876,
      "Ġpress": 7877,
      "Ġmobile": 7878,
      "ĠTrojan": 7879,
      "ĠController": 7880,
      "forc": 7881,
      "Ġremove": 7882,
      "Ġdesired": 7883,
      "Ġverify": 7884,
      "Ġthreats": 7885,
      "Ġexpected": 7886,
      "FreeCourses": 7887,
      "INFO": 7888,
      "LW": 7889,
      "ï»": 7890,
      "ĨĴ": 7891,
      "iter": 7892,
      "Ġclo": 7893,
      "Ġfam": 7894,
      "rives": 7895,
      "Ġ528": 7896,
      "00010": 7897,
      "Ġassembly": 7898,
      "ĠArchive": 7899,
      "Ġattempted": 7900,
      "agnostic": 7901,
      "Ġreveal": 7902,
      "564": 7903,
      "748": 7904,
      "BX": 7905,
      "Ther": 7906,
      "UD": 7907,
      "abc": 7908,
      "1111": 7909,
      "pper": 7910,
      "corp": 7911,
      "ookies": 7912,
      "Ġcreates": 7913,
      "Ġreturns": 7914,
      "including": 7915,
      "CyberFreeCourses": 7916,
      "737": 7917,
      "Full": 7918,
      "POST": 7919,
      "Ġq": 7920,
      "Ġ78": 7921,
      "andthe": 7922,
      "Ġwait": 7923,
      "1877": 7924,
      "Ġmill": 7925,
      "Ġhyp": 7926,
      "EAR": 7927,
      "Ġchannel": 7928,
      "Ġlocations": 7929,
      "Ġdefense": 7930,
      "ptimization": 7931,
      "Ġdataset": 7932,
      "EG": 7933,
      "cer": 7934,
      "eac": 7935,
      "media": 7936,
      "Ġ90": 7937,
      "atively": 7938,
      "iled": 7939,
      "5436": 7940,
      "1707": 7941,
      "Ġlittle": 7942,
      "warez": 7943,
      "466": 7944,
      "Ġaltern": 7945,
      "possible": 7946,
      "ĠJSON": 7947,
      "nowledge": 7948,
      "ĠASCII": 7949,
      "747": 7950,
      "BS": 7951,
      "Cb": 7952,
      "VX": 7953,
      "bability": 7954,
      "structure": 7955,
      "ĠPrivilege": 7956,
      "Ġrelevant": 7957,
      "efe": 7958,
      "xsd": 7959,
      "ĠExit": 7960,
      "codepage": 7961,
      "ertificates": 7962,
      "400274": 7963,
      "Ġengineering": 7964,
      "REGISTRY": 7965,
      "NaN": 7966,
      "cyber": 7967,
      "jq": 7968,
      "64596": 7969,
      "ĠRDP": 7970,
      "ENCE": 7971,
      "8608": 7972,
      "ĠCompany": 7973,
      "018": 7974,
      "515": 7975,
      "Socket": 7976,
      "kd": 7977,
      "linux": 7978,
      "xe": 7979,
      "}.": 7980,
      "ĠPanel": 7981,
      "ĠEsql": 7982,
      "8534": 7983,
      "468": 7984,
      "intell": 7985,
      "chedule": 7986,
      "bda": 7987,
      "ĠDetails": 7988,
      "ĠSeDebugPrivilege": 7989,
      "Ġempty": 7990,
      "Ġlevels": 7991,
      "Ġretrieve": 7992,
      "415": 7993,
      "910": 7994,
      "CAEkA": 7995,
      "RZ": 7996,
      "fbf": 7997,
      "arp": 7998,
      "Ġbug": 7999
    },
    "merges": [
      [
        "i",
        "n"
      ],
      [
        "o",
        "n"
      ],
      [
        "e",
        "r"
      ],
      [
        "e",
        "s"
      ],
      [
        "a",
        "t"
      ],
      [
        "0",
        "0"
      ],
      [
        "Ġ",
        "Ġ"
      ],
      [
        "Ġ",
        "t"
      ],
      [
        "o",
        "r"
      ],
      [
        "e",
        "n"
      ],
      [
        "2",
        "0"
      ],
      [
        "a",
        "n"
      ],
      [
        "r",
        "o"
      ],
      [
        "s",
        "t"
      ],
      [
        "i",
        "on"
      ],
      [
        "h",
        "e"
      ],
      [
        "r",
        "e"
      ],
      [
        "a",
        "l"
      ],
      [
        "i",
        "c"
      ],
      [
        "i",
        "t"
      ],
      [
        "o",
        "w"
      ],
      [
        "e",
        "d"
      ],
      [
        "#",
        "#"
      ],
      [
        "e",
        "t"
      ],
      [
        "Ġ",
        "a"
      ],
      [
        "0",
        "6"
      ],
      [
        "e",
        "c"
      ],
      [
        "20",
        "1"
      ],
      [
        "ĠĠ",
        "ĠĠ"
      ],
      [
        "l",
        "e"
      ],
      [
        "i",
        "s"
      ],
      [
        "Ġt",
        "he"
      ],
      [
        "o",
        "u"
      ],
      [
        "Ġ",
        "A"
      ],
      [
        "Ġ",
        "c"
      ],
      [
        "o",
        "f"
      ],
      [
        "in",
        "d"
      ],
      [
        "Ġ",
        "s"
      ],
      [
        "in",
        "g"
      ],
      [
        "a",
        "m"
      ],
      [
        "a",
        "r"
      ],
      [
        "at",
        "ion"
      ],
      [
        "en",
        "t"
      ],
      [
        "Ġ",
        "S"
      ],
      [
        "a",
        "g"
      ],
      [
        "ow",
        "s"
      ],
      [
        "1",
        "0"
      ],
      [
        "ind",
        "ows"
      ],
      [
        "l",
        "l"
      ],
      [
        "1",
        "9"
      ],
      [
        "i",
        "d"
      ],
      [
        "Ġ",
        "f"
      ],
      [
        "an",
        "d"
      ],
      [
        "Ġ",
        "w"
      ],
      [
        "201",
        "7"
      ],
      [
        "3",
        "2"
      ],
      [
        "e",
        "x"
      ],
      [
        "0",
        "5"
      ],
      [
        "6",
        "4"
      ],
      [
        "W",
        "indows"
      ],
      [
        "o",
        "m"
      ],
      [
        "a",
        "c"
      ],
      [
        "a",
        "s"
      ],
      [
        "es",
        "s"
      ],
      [
        "e",
        "m"
      ],
      [
        "l",
        "o"
      ],
      [
        "Ġ",
        "p"
      ],
      [
        "i",
        "m"
      ],
      [
        "\"",
        ":"
      ],
      [
        "1",
        "6"
      ],
      [
        ",",
        "\""
      ],
      [
        "3",
        "8"
      ],
      [
        "a",
        "d"
      ],
      [
        "Ġ",
        "d"
      ],
      [
        "Ġt",
        "o"
      ],
      [
        "2",
        "1"
      ],
      [
        "ag",
        "e"
      ],
      [
        "u",
        "s"
      ],
      [
        "Ġ",
        "b"
      ],
      [
        "5",
        "6"
      ],
      [
        "3",
        "1"
      ],
      [
        "Ġ",
        "in"
      ],
      [
        "I",
        "n"
      ],
      [
        "ec",
        "t"
      ],
      [
        ".",
        "."
      ],
      [
        "0",
        "7"
      ],
      [
        "of",
        "t"
      ],
      [
        "1",
        "8"
      ],
      [
        "u",
        "t"
      ],
      [
        "Ġ",
        "D"
      ],
      [
        "Ġ",
        "m"
      ],
      [
        "Ġ",
        "P"
      ],
      [
        "00",
        "00"
      ],
      [
        "es",
        "t"
      ],
      [
        "i",
        "v"
      ],
      [
        "c",
        "e"
      ],
      [
        "S",
        "y"
      ],
      [
        "u",
        "r"
      ],
      [
        "0",
        "1"
      ],
      [
        "r",
        "u"
      ],
      [
        "Ġ",
        "T"
      ],
      [
        "c",
        "ess"
      ],
      [
        "e",
        "l"
      ],
      [
        "ĠĠĠĠ",
        "ĠĠĠĠ"
      ],
      [
        "o",
        "l"
      ],
      [
        "0",
        "3"
      ],
      [
        "Ġt",
        "h"
      ],
      [
        "Ġ",
        "C"
      ],
      [
        "c",
        "h"
      ],
      [
        "i",
        "g"
      ],
      [
        "am",
        "e"
      ],
      [
        "C",
        "E"
      ],
      [
        "st",
        "em"
      ],
      [
        "<",
        "|"
      ],
      [
        "ro",
        "s"
      ],
      [
        "|",
        ">"
      ],
      [
        "Ġ",
        "N"
      ],
      [
        "2",
        "5"
      ],
      [
        "i",
        "l"
      ],
      [
        "ou",
        "r"
      ],
      [
        "ic",
        "ros"
      ],
      [
        "icros",
        "oft"
      ],
      [
        "Ġ",
        "and"
      ],
      [
        "1",
        "4"
      ],
      [
        "o",
        "d"
      ],
      [
        "Ġ",
        "n"
      ],
      [
        "y",
        "p"
      ],
      [
        "2",
        "6"
      ],
      [
        ":",
        "\\"
      ],
      [
        "er",
        "s"
      ],
      [
        "e",
        "v"
      ],
      [
        "Ġ",
        "."
      ],
      [
        "4",
        "4"
      ],
      [
        "Ġ",
        "of"
      ],
      [
        "ex",
        "e"
      ],
      [
        "o",
        "t"
      ],
      [
        "h",
        "t"
      ],
      [
        "at",
        "e"
      ],
      [
        "R",
        "e"
      ],
      [
        "2",
        "2"
      ],
      [
        "u",
        "m"
      ],
      [
        "or",
        "m"
      ],
      [
        "â",
        "Ģ"
      ],
      [
        "a",
        "b"
      ],
      [
        "i",
        "f"
      ],
      [
        "u",
        "n"
      ],
      [
        "al",
        "l"
      ],
      [
        "i",
        "le"
      ],
      [
        "Ġ",
        "("
      ],
      [
        "t",
        "p"
      ],
      [
        "1",
        "1"
      ],
      [
        "s",
        "e"
      ],
      [
        "Ġ",
        "I"
      ],
      [
        "\":",
        "\""
      ],
      [
        "\"",
        ",\""
      ],
      [
        "p",
        "l"
      ],
      [
        "ĠA",
        "M"
      ],
      [
        "Ġ",
        "is"
      ],
      [
        "0",
        "9"
      ],
      [
        "p",
        "t"
      ],
      [
        "c",
        "t"
      ],
      [
        "##",
        "#"
      ],
      [
        "1",
        "3"
      ],
      [
        "-",
        "-"
      ],
      [
        "Sy",
        "stem"
      ],
      [
        "M",
        "icrosoft"
      ],
      [
        "_",
        "_"
      ],
      [
        "ac",
        "k"
      ],
      [
        "yp",
        "e"
      ],
      [
        "Ġ",
        "L"
      ],
      [
        "it",
        "y"
      ],
      [
        "5",
        "4"
      ],
      [
        "Ġ",
        "re"
      ],
      [
        "r",
        "es"
      ],
      [
        "er",
        "v"
      ],
      [
        "1",
        "7"
      ],
      [
        "d",
        "d"
      ],
      [
        "ic",
        "e"
      ],
      [
        "or",
        "t"
      ],
      [
        "2",
        "3"
      ],
      [
        "Ġ",
        "\\"
      ],
      [
        "u",
        "p"
      ],
      [
        "u",
        "l"
      ],
      [
        "3",
        "5"
      ],
      [
        "8",
        "8"
      ],
      [
        "o",
        "st"
      ],
      [
        "e",
        "y"
      ],
      [
        "Ġ",
        "h"
      ],
      [
        "S",
        "S"
      ],
      [
        "w",
        "or"
      ],
      [
        "n",
        "et"
      ],
      [
        "0",
        "8"
      ],
      [
        "O",
        "p"
      ],
      [
        "P",
        "ro"
      ],
      [
        "ht",
        "tp"
      ],
      [
        "1",
        "2"
      ],
      [
        "on",
        "t"
      ],
      [
        "Ġ",
        "M"
      ],
      [
        "Ġ",
        "l"
      ],
      [
        "m",
        "on"
      ],
      [
        "5",
        "9"
      ],
      [
        "3",
        "4"
      ],
      [
        "Ġ",
        "F"
      ],
      [
        "Ġ\\",
        "|"
      ],
      [
        "0",
        "4"
      ],
      [
        "Ġ",
        "us"
      ],
      [
        "19",
        "2"
      ],
      [
        "our",
        "ce"
      ],
      [
        "0",
        "2"
      ],
      [
        "im",
        "age"
      ],
      [
        "Ġ",
        "E"
      ],
      [
        "3",
        "9"
      ],
      [
        "A",
        "E"
      ],
      [
        "q",
        "u"
      ],
      [
        "lo",
        "g"
      ],
      [
        "16",
        "8"
      ],
      [
        "c",
        "p"
      ],
      [
        "i",
        "st"
      ],
      [
        "S",
        "T"
      ],
      [
        "a",
        "in"
      ],
      [
        "2",
        "4"
      ],
      [
        "S",
        "U"
      ],
      [
        "d",
        "ll"
      ],
      [
        "Ġ",
        "21"
      ],
      [
        "er",
        "y"
      ],
      [
        "a",
        "re"
      ],
      [
        "2",
        "00"
      ],
      [
        "o",
        "g"
      ],
      [
        "CE",
        "SS"
      ],
      [
        "at",
        "a"
      ],
      [
        "a",
        "y"
      ],
      [
        "8",
        "0"
      ],
      [
        "f",
        "orm"
      ],
      [
        "C",
        "CESS"
      ],
      [
        "i",
        "re"
      ],
      [
        "r",
        "i"
      ],
      [
        "o",
        "c"
      ],
      [
        "SU",
        "CCESS"
      ],
      [
        "O",
        "R"
      ],
      [
        "iv",
        "e"
      ],
      [
        "Ġ",
        "on"
      ],
      [
        "4",
        "8"
      ],
      [
        "it",
        "h"
      ],
      [
        "t",
        "h"
      ],
      [
        "c",
        "om"
      ],
      [
        "t",
        "er"
      ],
      [
        "N",
        "T"
      ],
      [
        "T",
        "ype"
      ],
      [
        "e",
        "f"
      ],
      [
        "Ġ",
        "Ċ"
      ],
      [
        "Re",
        "g"
      ],
      [
        "K",
        "ey"
      ],
      [
        "c",
        "cess"
      ],
      [
        "20",
        "20"
      ],
      [
        "ect",
        "ion"
      ],
      [
        "wor",
        "k"
      ],
      [
        "5",
        "5"
      ],
      [
        "`",
        "`"
      ],
      [
        "Q",
        "B"
      ],
      [
        "Ġ",
        "H"
      ],
      [
        "ro",
        "cess"
      ],
      [
        "Ġ",
        "U"
      ],
      [
        "ou",
        "n"
      ],
      [
        "a",
        "p"
      ],
      [
        "b",
        "f"
      ],
      [
        "7",
        "6"
      ],
      [
        "e",
        "e"
      ],
      [
        "Ġf",
        "or"
      ],
      [
        "Ġb",
        "e"
      ],
      [
        "Q",
        "u"
      ],
      [
        "Ġth",
        "at"
      ],
      [
        "Ġ",
        "In"
      ],
      [
        "I",
        "T"
      ],
      [
        "Ġ",
        "v"
      ],
      [
        "u",
        "re"
      ],
      [
        "t",
        "cp"
      ],
      [
        "H",
        "K"
      ],
      [
        "y",
        "t"
      ],
      [
        "E",
        "R"
      ],
      [
        "ĠS",
        "ource"
      ],
      [
        "=",
        "="
      ],
      [
        "Ġ",
        "R"
      ],
      [
        "]",
        "("
      ],
      [
        "201",
        "2"
      ],
      [
        "Ġ",
        "or"
      ],
      [
        "k",
        "b"
      ],
      [
        "c",
        "c"
      ],
      [
        "ow",
        "n"
      ],
      [
        "on",
        "n"
      ],
      [
        "ec",
        "ur"
      ],
      [
        "Qu",
        "ery"
      ],
      [
        "Ġ",
        "-"
      ],
      [
        "od",
        "e"
      ],
      [
        "in",
        "ation"
      ],
      [
        "Ġ",
        "ex"
      ],
      [
        "O",
        "N"
      ],
      [
        "7",
        "8"
      ],
      [
        "ecur",
        "ity"
      ],
      [
        "form",
        "ation"
      ],
      [
        "Ġ",
        "an"
      ],
      [
        "est",
        "ination"
      ],
      [
        "f",
        "f"
      ],
      [
        "E",
        "A"
      ],
      [
        "Ġ",
        "g"
      ],
      [
        "S",
        "Y"
      ],
      [
        "3",
        "6"
      ],
      [
        "Ġ",
        "0"
      ],
      [
        "o",
        "p"
      ],
      [
        "i",
        "r"
      ],
      [
        "25",
        "5"
      ],
      [
        "p",
        "ro"
      ],
      [
        "at",
        "ed"
      ],
      [
        "E",
        "M"
      ],
      [
        "Ġa",
        "s"
      ],
      [
        "1",
        "5"
      ],
      [
        "et",
        "work"
      ],
      [
        "on",
        "e"
      ],
      [
        "ĠĠĠĠĠĠĠĠ",
        "ĠĠĠĠĠĠĠĠ"
      ],
      [
        "Ġw",
        "h"
      ],
      [
        "ev",
        "ice"
      ],
      [
        "U",
        "T"
      ],
      [
        "E",
        "x"
      ],
      [
        "w",
        "are"
      ],
      [
        "i",
        "z"
      ],
      [
        "yt",
        "es"
      ],
      [
        "r",
        "iv"
      ],
      [
        "or",
        "y"
      ],
      [
        "Ġ",
        "y"
      ],
      [
        "3",
        "3"
      ],
      [
        "18",
        "5"
      ],
      [
        "oun",
        "t"
      ],
      [
        "u",
        "d"
      ],
      [
        "W",
        "e"
      ],
      [
        "8",
        "5"
      ],
      [
        "Ġc",
        "om"
      ],
      [
        "ĠD",
        "estination"
      ],
      [
        "2",
        "9"
      ],
      [
        "Ġ",
        "\""
      ],
      [
        "/",
        "/"
      ],
      [
        "im",
        "e"
      ],
      [
        "um",
        "e"
      ],
      [
        "Ġw",
        "ith"
      ],
      [
        "is",
        "k"
      ],
      [
        "Ġ",
        "st"
      ],
      [
        "ST",
        "EM"
      ],
      [
        "l",
        "y"
      ],
      [
        "38",
        "4"
      ],
      [
        "as",
        "s"
      ],
      [
        "SY",
        "STEM"
      ],
      [
        "..",
        ".."
      ],
      [
        "2",
        "7"
      ],
      [
        "C",
        "R"
      ],
      [
        "N",
        "ame"
      ],
      [
        "IT",
        "Y"
      ],
      [
        "W",
        "in"
      ],
      [
        "ro",
        "up"
      ],
      [
        "H",
        "OR"
      ],
      [
        "V",
        "ol"
      ],
      [
        "3",
        "7"
      ],
      [
        "i",
        "ll"
      ],
      [
        "UT",
        "HOR"
      ],
      [
        "UTHOR",
        "ITY"
      ],
      [
        "Ġ",
        "G"
      ],
      [
        "ĠA",
        "UTHORITY"
      ],
      [
        "D",
        "evice"
      ],
      [
        "5",
        "7"
      ],
      [
        "Op",
        "en"
      ],
      [
        "b",
        "er"
      ],
      [
        "ro",
        "m"
      ],
      [
        "3",
        "64"
      ],
      [
        "Ġ",
        "at"
      ],
      [
        "ont",
        "ro"
      ],
      [
        "2",
        "8"
      ],
      [
        "a",
        "v"
      ],
      [
        "4",
        "9"
      ],
      [
        "Ġ",
        "O"
      ],
      [
        "S",
        "F"
      ],
      [
        "F",
        "ile"
      ],
      [
        "res",
        "p"
      ],
      [
        "Vol",
        "ume"
      ],
      [
        "lo",
        "c"
      ],
      [
        "id",
        "Type"
      ],
      [
        "4",
        "6"
      ],
      [
        "y",
        "stem"
      ],
      [
        "38",
        "56"
      ],
      [
        "H",
        "ar"
      ],
      [
        "ul",
        "t"
      ],
      [
        "i",
        "p"
      ],
      [
        "Ġc",
        "an"
      ],
      [
        "A",
        "T"
      ],
      [
        "dd",
        "isk"
      ],
      [
        "Har",
        "ddisk"
      ],
      [
        "P",
        "ort"
      ],
      [
        "Harddisk",
        "Volume"
      ],
      [
        "ab",
        "le"
      ],
      [
        "n",
        "own"
      ],
      [
        "ontro",
        "l"
      ],
      [
        "o",
        "s"
      ],
      [
        "I",
        "p"
      ],
      [
        "L",
        "M"
      ],
      [
        "u",
        "e"
      ],
      [
        "##",
        "###"
      ],
      [
        "Ġth",
        "is"
      ],
      [
        "âĢ",
        "¢"
      ],
      [
        "Ġ",
        "log"
      ],
      [
        "5",
        "3"
      ],
      [
        "t",
        "r"
      ],
      [
        "en",
        "s"
      ],
      [
        "e",
        "w"
      ],
      [
        "cc",
        "ount"
      ],
      [
        "v",
        "ent"
      ],
      [
        "E",
        "N"
      ],
      [
        "al",
        "se"
      ],
      [
        "Ġ",
        "it"
      ],
      [
        "ru",
        "e"
      ],
      [
        "Ġ",
        "B"
      ],
      [
        "ion",
        "s"
      ],
      [
        "Sy",
        "s"
      ],
      [
        "ur",
        "r"
      ],
      [
        "A",
        "R"
      ],
      [
        "A",
        "N"
      ],
      [
        "er",
        "ation"
      ],
      [
        "Ġp",
        "ro"
      ],
      [
        "u",
        "b"
      ],
      [
        "j",
        "ect"
      ],
      [
        "Ġ",
        "20"
      ],
      [
        "m",
        "icrosoft"
      ],
      [
        "or",
        "e"
      ],
      [
        "s",
        "er"
      ],
      [
        "Ġw",
        "e"
      ],
      [
        "!",
        "["
      ],
      [
        "8",
        "6"
      ],
      [
        "4",
        "0"
      ],
      [
        "urr",
        "ent"
      ],
      [
        "S",
        "idType"
      ],
      [
        "4",
        "7"
      ],
      [
        "g",
        "e"
      ],
      [
        "Ġa",
        "re"
      ],
      [
        "Ġ",
        "["
      ],
      [
        "w",
        "indows"
      ],
      [
        "Ġ",
        "2"
      ],
      [
        "ic",
        "ation"
      ],
      [
        "b",
        "ytes"
      ],
      [
        "G",
        "roup"
      ],
      [
        "A",
        "G"
      ],
      [
        "2",
        "20"
      ],
      [
        "ĠT",
        "he"
      ],
      [
        "t",
        "o"
      ],
      [
        "4",
        "5"
      ],
      [
        "o",
        "v"
      ],
      [
        "##",
        "##"
      ],
      [
        "m",
        "in"
      ],
      [
        "Ġ",
        "W"
      ],
      [
        "ĠI",
        "D"
      ],
      [
        "E",
        "X"
      ],
      [
        "A",
        "r"
      ],
      [
        "D",
        "es"
      ],
      [
        "d",
        "s"
      ],
      [
        ":",
        "//"
      ],
      [
        "0000",
        "0000"
      ],
      [
        "ĠT",
        "h"
      ],
      [
        "t",
        "s"
      ],
      [
        "ĠP",
        "rocess"
      ],
      [
        "L",
        "S"
      ],
      [
        "t",
        "ack"
      ],
      [
        "st",
        "all"
      ],
      [
        "I",
        "D"
      ],
      [
        "ag",
        "s"
      ],
      [
        "K",
        "nown"
      ],
      [
        "i",
        "es"
      ],
      [
        "am",
        "d"
      ],
      [
        "in",
        "e"
      ],
      [
        "n",
        "ame"
      ],
      [
        "n",
        "c"
      ],
      [
        "a",
        "il"
      ],
      [
        "A",
        "B"
      ],
      [
        "as",
        "k"
      ],
      [
        "Ġ",
        "1"
      ],
      [
        "or",
        "ig"
      ],
      [
        "ĠN",
        "ame"
      ],
      [
        "Ġ",
        "Re"
      ],
      [
        "i",
        "b"
      ],
      [
        "m",
        "ent"
      ],
      [
        "HK",
        "LM"
      ],
      [
        "T",
        "O"
      ],
      [
        "Sys",
        "mon"
      ],
      [
        "Ġd",
        "et"
      ],
      [
        "10",
        "8"
      ],
      [
        "ĠN",
        "T"
      ],
      [
        "5",
        "8"
      ],
      [
        "orm",
        "al"
      ],
      [
        "an",
        "if"
      ],
      [
        "anif",
        "est"
      ],
      [
        "``",
        "`"
      ],
      [
        "Ġy",
        "ou"
      ],
      [
        "ru",
        "st"
      ],
      [
        "h",
        "er"
      ],
      [
        "ch",
        "ive"
      ],
      [
        "V",
        "I"
      ],
      [
        "en",
        "d"
      ],
      [
        "A",
        "D"
      ],
      [
        "9",
        "8"
      ],
      [
        "We",
        "ll"
      ],
      [
        "Ġn",
        "ot"
      ],
      [
        "ON",
        "EN"
      ],
      [
        "g",
        "r"
      ],
      [
        "Well",
        "Known"
      ],
      [
        "ru",
        "n"
      ],
      [
        "WellKnown",
        "Group"
      ],
      [
        "9",
        "6"
      ],
      [
        "SidType",
        "WellKnownGroup"
      ],
      [
        "Pro",
        "c"
      ],
      [
        "pl",
        "or"
      ],
      [
        "Ġ",
        "V"
      ],
      [
        "and",
        "le"
      ],
      [
        "c",
        "ri"
      ],
      [
        "a",
        "st"
      ],
      [
        "ĠA",
        "ccess"
      ],
      [
        "EX",
        "E"
      ],
      [
        "Ar",
        "chive"
      ],
      [
        "en",
        "g"
      ],
      [
        "ac",
        "t"
      ],
      [
        "n",
        "one"
      ],
      [
        "I",
        "N"
      ],
      [
        "Op",
        "eration"
      ],
      [
        "4",
        "1"
      ],
      [
        "plor",
        "er"
      ],
      [
        "ing",
        "s"
      ],
      [
        "ĠL",
        "og"
      ],
      [
        "ire",
        "d"
      ],
      [
        "e",
        "b"
      ],
      [
        "A",
        "F"
      ],
      [
        ":",
        ":"
      ],
      [
        "AE",
        "EA"
      ],
      [
        "A",
        "M"
      ],
      [
        "w",
        "in"
      ],
      [
        "S",
        "E"
      ],
      [
        "p",
        "le"
      ],
      [
        "c",
        "es"
      ],
      [
        "4",
        "2"
      ],
      [
        "c",
        "l"
      ],
      [
        "w",
        "B"
      ],
      [
        "p",
        "ort"
      ],
      [
        "erv",
        "er"
      ],
      [
        "http",
        "s"
      ],
      [
        "C",
        "ontrol"
      ],
      [
        "ect",
        "ed"
      ],
      [
        "n",
        "ormal"
      ],
      [
        "al",
        "ue"
      ],
      [
        "ire",
        "ct"
      ],
      [
        "5",
        "0"
      ],
      [
        "id",
        "e"
      ],
      [
        "D",
        "E"
      ],
      [
        "__",
        "__"
      ],
      [
        "Ġf",
        "rom"
      ],
      [
        "Q",
        "QB"
      ],
      [
        "In",
        "formation"
      ],
      [
        "t",
        "he"
      ],
      [
        "Ġ",
        "|"
      ],
      [
        "il",
        "es"
      ],
      [
        "p",
        "ut"
      ],
      [
        "ar",
        "t"
      ],
      [
        "rust",
        "ed"
      ],
      [
        "200",
        "9"
      ],
      [
        "a",
        "k"
      ],
      [
        "n",
        "e"
      ],
      [
        "s",
        "v"
      ],
      [
        "VI",
        "CE"
      ],
      [
        "9",
        "0"
      ],
      [
        "S",
        "et"
      ],
      [
        "5",
        "2"
      ],
      [
        "c",
        "id"
      ],
      [
        "ER",
        "VICE"
      ],
      [
        "erv",
        "ice"
      ],
      [
        "T",
        "ime"
      ],
      [
        "ow",
        "er"
      ],
      [
        "cri",
        "pt"
      ],
      [
        "In",
        "stall"
      ],
      [
        "ru",
        "le"
      ],
      [
        "4",
        "3"
      ],
      [
        "ĠP",
        "age"
      ],
      [
        "S",
        "ecurity"
      ],
      [
        "8",
        "3"
      ],
      [
        "Ex",
        "plorer"
      ],
      [
        "Ġ",
        "k"
      ],
      [
        "Ġb",
        "y"
      ],
      [
        "S",
        "x"
      ],
      [
        "D",
        "C"
      ],
      [
        "T",
        "rusted"
      ],
      [
        "L",
        "og"
      ],
      [
        "ĠS",
        "ERVICE"
      ],
      [
        "ee",
        "k"
      ],
      [
        "Ġ",
        "K"
      ],
      [
        "A",
        "d"
      ],
      [
        "ig",
        "n"
      ],
      [
        "O",
        "T"
      ],
      [
        "Install",
        "er"
      ],
      [
        "38",
        "0"
      ],
      [
        "Ġc",
        "onn"
      ],
      [
        "ut",
        "h"
      ],
      [
        "us",
        "er"
      ],
      [
        "Operation",
        "al"
      ],
      [
        "an",
        "s"
      ],
      [
        "S",
        "t"
      ],
      [
        "i",
        "al"
      ],
      [
        "t",
        "rue"
      ],
      [
        "H",
        "ost"
      ],
      [
        "Reg",
        "Query"
      ],
      [
        "S",
        "R"
      ],
      [
        "Trusted",
        "Installer"
      ],
      [
        ")",
        "("
      ],
      [
        "T",
        "ags"
      ],
      [
        "32",
        "9"
      ],
      [
        "ĠĠ",
        "Ġ"
      ],
      [
        "D",
        "ata"
      ],
      [
        "22",
        "7"
      ],
      [
        "39",
        "48"
      ],
      [
        "Ġ",
        "ev"
      ],
      [
        "Proc",
        "mon"
      ],
      [
        "er",
        "e"
      ],
      [
        "Ġ",
        "Windows"
      ],
      [
        "in",
        "t"
      ],
      [
        "64",
        "9"
      ],
      [
        "om",
        "ain"
      ],
      [
        "ig",
        "ht"
      ],
      [
        "l",
        "d"
      ],
      [
        "ct",
        "ion"
      ],
      [
        "o",
        "k"
      ],
      [
        "m",
        "s"
      ],
      [
        "Ġ",
        "192"
      ],
      [
        "18",
        "3"
      ],
      [
        "Ġ",
        "3"
      ],
      [
        "4",
        "64"
      ],
      [
        "ic",
        "es"
      ],
      [
        "y",
        "s"
      ],
      [
        "7",
        "7"
      ],
      [
        "Ġ",
        "5"
      ],
      [
        "9",
        "56"
      ],
      [
        "Win",
        "Sx"
      ],
      [
        "g",
        "et"
      ],
      [
        "WinSx",
        "S"
      ],
      [
        "16",
        "384"
      ],
      [
        "CR",
        "ONEN"
      ],
      [
        "U",
        "S"
      ],
      [
        "er",
        "t"
      ],
      [
        "Ġ",
        "r"
      ],
      [
        "oft",
        "ware"
      ],
      [
        "E",
        "T"
      ],
      [
        "c",
        "r"
      ],
      [
        "ĠH",
        "andle"
      ],
      [
        "eng",
        "th"
      ],
      [
        "m",
        "and"
      ],
      [
        "g",
        "B"
      ],
      [
        "z",
        "eek"
      ],
      [
        "Ġw",
        "as"
      ],
      [
        "ic",
        "h"
      ],
      [
        "ou",
        "t"
      ],
      [
        "C",
        "urrent"
      ],
      [
        "..",
        "."
      ],
      [
        "ar",
        "ch"
      ],
      [
        "00",
        "88"
      ],
      [
        "re",
        "ate"
      ],
      [
        "26",
        "31"
      ],
      [
        "14",
        "78"
      ],
      [
        "qu",
        "est"
      ],
      [
        "34",
        "185"
      ],
      [
        "ĠHandle",
        "Tags"
      ],
      [
        "0088",
        "85"
      ],
      [
        "Ġ",
        "al"
      ],
      [
        "183",
        "10"
      ],
      [
        "380",
        "44"
      ],
      [
        "22",
        "649"
      ],
      [
        "185",
        "329"
      ],
      [
        "227",
        "1478"
      ],
      [
        "956",
        "008885"
      ],
      [
        "p",
        "p"
      ],
      [
        "d",
        "f"
      ],
      [
        "Des",
        "ired"
      ],
      [
        "54",
        "32"
      ],
      [
        "34185",
        "22649"
      ],
      [
        "185329",
        "2631"
      ],
      [
        "18310",
        "38044"
      ],
      [
        "2271478",
        "464"
      ],
      [
        "c",
        "he"
      ],
      [
        "Ġ",
        "un"
      ],
      [
        "I",
        "s"
      ],
      [
        "T",
        "he"
      ],
      [
        "x",
        "s"
      ],
      [
        "5",
        "1"
      ],
      [
        "r",
        "ess"
      ],
      [
        "e",
        "p"
      ],
      [
        "9",
        "200"
      ],
      [
        "R",
        "E"
      ],
      [
        "Ġw",
        "ill"
      ],
      [
        "9",
        "9"
      ],
      [
        "b",
        "ut"
      ],
      [
        "\",\"",
        "."
      ],
      [
        "N",
        "etwork"
      ],
      [
        "ĠRe",
        "ad"
      ],
      [
        "i",
        "el"
      ],
      [
        "Ġ",
        "e"
      ],
      [
        "A",
        "C"
      ],
      [
        "Ġ",
        "23"
      ],
      [
        "ac",
        "h"
      ],
      [
        "w",
        "w"
      ],
      [
        "Ġconn",
        "ection"
      ],
      [
        "3",
        "0"
      ],
      [
        "âĢ",
        "Ļ"
      ],
      [
        "u",
        "id"
      ],
      [
        "av",
        "e"
      ],
      [
        "an",
        "t"
      ],
      [
        "a",
        "f"
      ],
      [
        "o",
        "b"
      ],
      [
        "win",
        "s"
      ],
      [
        "iz",
        "e"
      ],
      [
        "Ġp",
        "rocess"
      ],
      [
        "ch",
        "ost"
      ],
      [
        "ec",
        "ut"
      ],
      [
        "6",
        "8"
      ],
      [
        "he",
        "ll"
      ],
      [
        "ar",
        "y"
      ],
      [
        "d",
        "er"
      ],
      [
        "u",
        "g"
      ],
      [
        "Ġ",
        "4"
      ],
      [
        "all",
        "y"
      ],
      [
        "sv",
        "chost"
      ],
      [
        "as",
        "e"
      ],
      [
        "riv",
        "ile"
      ],
      [
        "ist",
        "r"
      ],
      [
        "wins",
        "xs"
[...]
