{
  "version": "1.0",
  "truncation": null,
  "padding": null,
  "added_tokens": [
    {
      "id": 0,
      "content": "<|kb|>",
      "single_word": false,
      "lstrip": false,
      "rstrip": false,
      "normalized": false,
      "special": true
    },
    {
      "id": 1,
      "content": "<|rule|>",
      "single_word": false,
      "lstrip": false,
      "rstrip": false,
      "normalized": false,
      "special": true
    },
    {
      "id": 2,
      "content": "<|ttp|>",
      "single_word": false,
      "lstrip": false,
      "rstrip": false,
      "normalized": false,
      "special": true
    },
    {
      "id": 3,
      "content": "<|ref|>",
      "single_word": false,
      "lstrip": false,
      "rstrip": false,
      "normalized": false,
      "special": true
    },
    {
      "id": 4,
      "content": "<|spam|>",
      "single_word": false,
      "lstrip": false,
      "rstrip": false,
      "normalized": false,
      "special": true
    },
    {
      "id": 5,
      "content": "<|ham|>",
      "single_word": false,
      "lstrip": false,
      "rstrip": false,
      "normalized": false,
      "special": true
    },
    {
      "id": 6,
      "content": "<|net|>",
      "single_word": false,
      "lstrip": false,
      "rstrip": false,
      "normalized": false,
      "special": true
    },
    {
      "id": 7,
      "content": "<|pad|>",
      "single_word": false,
      "lstrip": false,
      "rstrip": false,
      "normalized": false,
      "special": true
    },
    {
      "id": 8,
      "content": "<|unk|>",
      "single_word": false,
      "lstrip": false,
      "rstrip": false,
      "normalized": false,
      "special": true
    }
  ],
  "normalizer": null,
  "pre_tokenizer": {
    "type": "ByteLevel",
    "add_prefix_space": false,
    "trim_offsets": true,
    "use_regex": true
  },
  "post_processor": null,
  "decoder": {
    "type": "ByteLevel",
    "add_prefix_space": true,
    "trim_offsets": true,
    "use_regex": true
  },
  "model": {
    "type": "BPE",
    "dropout": null,
    "unk_token": "<|unk|>",
    "continuing_subword_prefix": null,
    "end_of_word_suffix": null,
    "fuse_unk": false,
    "byte_fallback": false,
    "ignore_merges": false,
    "vocab": {
      "<|kb|>": 0,
      "<|rule|>": 1,
      "<|ttp|>": 2,
      "<|ref|>": 3,
      "<|spam|>": 4,
      "<|ham|>": 5,
      "<|net|>": 6,
      "<|pad|>": 7,
      "<|unk|>": 8,
      "!": 9,
      "\"": 10,
      "#": 11,
      "$": 12,
      "%": 13,
      "&": 14,
      "'": 15,
      "(": 16,
      ")": 17,
      "*": 18,
      "+": 19,
      ",": 20,
      "-": 21,
      ".": 22,
      "/": 23,
      "0": 24,
      "1": 25,
      "2": 26,
      "3": 27,
      "4": 28,
      "5": 29,
      "6": 30,
      "7": 31,
      "8": 32,
      "9": 33,
      ":": 34,
      ";": 35,
      "<": 36,
      "=": 37,
      ">": 38,
      "?": 39,
      "@": 40,
      "A": 41,
      "B": 42,
      "C": 43,
      "D": 44,
      "E": 45,
      "F": 46,
      "G": 47,
      "H": 48,
      "I": 49,
      "J": 50,
      "K": 51,
      "L": 52,
      "M": 53,
      "N": 54,
      "O": 55,
      "P": 56,
      "Q": 57,
      "R": 58,
      "S": 59,
      "T": 60,
      "U": 61,
      "V": 62,
      "W": 63,
      "X": 64,
      "Y": 65,
      "Z": 66,
      "[": 67,
      "\\": 68,
      "]": 69,
      "^": 70,
      "_": 71,
      "`": 72,
      "a": 73,
      "b": 74,
      "c": 75,
      "d": 76,
      "e": 77,
      "f": 78,
      "g": 79,
      "h": 80,
      "i": 81,
      "j": 82,
      "k": 83,
      "l": 84,
      "m": 85,
      "n": 86,
      "o": 87,
      "p": 88,
      "q": 89,
      "r": 90,
      "s": 91,
      "t": 92,
      "u": 93,
      "v": 94,
      "w": 95,
      "x": 96,
      "y": 97,
      "z": 98,
      "{": 99,
      "|": 100,
      "}": 101,
      "~": 102,
      "¡": 103,
      "¢": 104,
      "£": 105,
      "¤": 106,
      "¥": 107,
      "¦": 108,
      "§": 109,
      "¨": 110,
      "©": 111,
      "ª": 112,
      "«": 113,
      "¬": 114,
      "®": 115,
      "¯": 116,
      "°": 117,
      "±": 118,
      "²": 119,
      "³": 120,
      "´": 121,
      "µ": 122,
      "¶": 123,
      "·": 124,
      "¸": 125,
      "¹": 126,
      "º": 127,
      "»": 128,
      "¼": 129,
      "½": 130,
      "¾": 131,
      "¿": 132,
      "Â": 133,
      "Ã": 134,
      "Ä": 135,
      "Å": 136,
      "Æ": 137,
      "Ç": 138,
      "È": 139,
      "É": 140,
      "Ê": 141,
      "Ë": 142,
      "Ì": 143,
      "Í": 144,
      "Î": 145,
      "Ï": 146,
      "Ð": 147,
      "Ñ": 148,
      "Ò": 149,
      "Ó": 150,
      "Ô": 151,
      "Õ": 152,
      "×": 153,
      "Ø": 154,
      "Ù": 155,
      "Ú": 156,
      "Ü": 157,
      "Ý": 158,
      "Þ": 159,
      "ß": 160,
      "à": 161,
      "á": 162,
      "â": 163,
      "ã": 164,
      "ä": 165,
      "å": 166,
      "æ": 167,
      "ç": 168,
      "è": 169,
      "é": 170,
      "ê": 171,
      "ë": 172,
      "ì": 173,
      "í": 174,
      "î": 175,
      "ï": 176,
      "ð": 177,
      "ó": 178,
      "Ā": 179,
      "Ă": 180,
      "ă": 181,
      "Ą": 182,
      "ą": 183,
      "Ć": 184,
      "ć": 185,
      "Ĉ": 186,
      "ĉ": 187,
      "Ċ": 188,
      "ċ": 189,
      "Č": 190,
      "č": 191,
      "Ď": 192,
      "ď": 193,
      "Đ": 194,
      "đ": 195,
      "Ē": 196,
      "ē": 197,
      "Ĕ": 198,
      "ĕ": 199,
      "Ė": 200,
      "ė": 201,
      "Ę": 202,
      "ę": 203,
      "Ě": 204,
      "ě": 205,
      "Ĝ": 206,
      "ĝ": 207,
      "Ğ": 208,
      "ğ": 209,
      "Ġ": 210,
      "Ģ": 211,
      "ģ": 212,
      "Ĥ": 213,
      "ĥ": 214,
      "Ħ": 215,
      "ħ": 216,
      "Ĩ": 217,
      "ĩ": 218,
      "Ī": 219,
      "ī": 220,
      "Ĭ": 221,
      "ĭ": 222,
      "Į": 223,
      "į": 224,
      "İ": 225,
      "ı": 226,
      "Ĳ": 227,
      "ĳ": 228,
      "Ĵ": 229,
      "ĵ": 230,
      "Ķ": 231,
      "ķ": 232,
      "ĸ": 233,
      "Ĺ": 234,
      "ĺ": 235,
      "Ļ": 236,
      "ļ": 237,
      "Ľ": 238,
      "ľ": 239,
      "Ŀ": 240,
      "ŀ": 241,
      "Ł": 242,
      "ł": 243,
      "Ń": 244,
      "čĊ": 245,
      "in": 246,
      "er": 247,
      "on": 248,
      "th": 249,
      "es": 250,
      "at": 251,
      "or": 252,
      "Ġa": 253,
      "en": 254,
      "Ġth": 255,
      "00": 256,
      "re": 257,
      "ion": 258,
      "ro": 259,
      "st": 260,
      "al": 261,
      "ed": 262,
      "an": 263,
      "ic": 264,
      "20": 265,
      "ĠĠ": 266,
      "Ġthe": 267,
      "##": 268,
      "it": 269,
      "le": 270,
      "is": 271,
      "Ġt": 272,
      "Ġc": 273,
      "ing": 274,
      "Ġs": 275,
      "ge": 276,
      "ec": 277,
      "ow": 278,
      "ma": 279,
      "ent": 280,
      "ou": 281,
      "of": 282,
      "ar": 283,
      "..": 284,
      "Ġw": 285,
      "Ġp": 286,
      "id": 287,
      "ation": 288,
      "201": 289,
      "me": 290,
      "Ġf": 291,
      "06": 292,
      "as": 293,
      "il": 294,
      "Ġin": 295,
      "ess": 296,
      "ac": 297,
      "Ġto": 298,
      "et": 299,
      "el": 300,
      "Ġan": 301,
      "Ġb": 302,
      "Ġd": 303,
      "ĠS": 304,
      "ĠA": 305,
      "ind": 306,
      "ex": 307,
      "mage": 308,
      "lo": 309,
      "ows": 310,
      "us": 311,
      "om": 312,
      "iv": 313,
      "âĢ": 314,
      "image": 315,
      "indows": 316,
      "tion": 317,
      "em": 318,
      "un": 319,
      "ĠĠĠĠ": 320,
      "ch": 321,
      "10": 322,
      "ad": 323,
      "ur": 324,
      "Ġand": 325,
      "Ġof": 326,
      "2017": 327,
      "cess": 328,
      "ĠT": 329,
      "ĠC": 330,
      "ĠP": 331,
      "ers": 332,
      "ol": 333,
      "ĠI": 334,
      "###": 335,
      "05": 336,
      "21": 337,
      "Windows": 338,
      "am": 339,
      "od": 340,
      "Ġm": 341,
      "ig": 342,
      "pl": 343,
      "ab": 344,
      "19": 345,
      "32": 346,
      "Ġn": 347,
      "ce": 348,
      "64": 349,
      "....": 350,
      "ev": 351,
      "ul": 352,
      "56": 353,
      "Ġh": 354,
      "ut": 355,
      "and": 356,
      "Ġis": 357,
      "ate": 358,
      "for": 359,
      "ity": 360,
      "38": 361,
      "if": 362,
      "Ġre": 363,
      "18": 364,
      "Ġ(": 365,
      "01": 366,
      "07": 367,
      "ĠD": 368,
      "yst": 369,
      "est": 370,
      "ly": 371,
      "ot": 372,
      "0000": 373,
      "ame": 374,
      "oft": 375,
      "yp": 376,
      "ystem": 377,
      "rocess": 378,
      "ter": 379,
      "16": 380,
      "--": 381,
      "Ġ.": 382,
      "14": 383,
      ":\\": 384,
      "ile": 385,
      "ith": 386,
      "In": 387,
      "ĠL": 388,
      "age": 389,
      "ack": 390,
      "](": 391,
      "im": 392,
      "|>": 393,
      "<|": 394,
      "our": 395,
      "![": 396,
      "ros": 397,
      "he": 398,
      "ect": 399,
      "Ġus": 400,
      "erv": 401,
      "ct": 402,
      "31": 403,
      "ĠF": 404,
      "ĠM": 405,
      "Ġl": 406,
      "icros": 407,
      "ist": 408,
      "icrosoft": 409,
      "11": 410,
      "ĠN": 411,
      "qu": 412,
      "``": 413,
      "22": 414,
      "Ġon": 415,
      "form": 416,
      "up": 417,
      "og": 418,
      "ll": 419,
      "04": 420,
      "Ġfor": 421,
      "ap": 422,
      "ice": 423,
      "op": 424,
      "the": 425,
      "ru": 426,
      "Ġthat": 427,
      "cid": 428,
      "ard": 429,
      "res": 430,
      "03": 431,
      "exe": 432,
      "ri": 433,
      "17": 434,
      "ĠR": 435,
      "Ġbe": 436,
      "__": 437,
      "um": 438,
      "12": 439,
      "Ġv": 440,
      "ĠE": 441,
      "se": 442,
      "ont": 443,
      "Ġ\"": 444,
      "mon": 445,
      "kb": 446,
      "26": 447,
      "log": 448,
      "to": 449,
      "all": 450,
      "oun": 451,
      ")(": 452,
      "\":": 453,
      "ive": 454,
      "ure": 455,
      "wor": 456,
      "ction": 457,
      "55": 458,
      "tt": 459,
      "ata": 460,
      "omp": 461,
      "Ġex": 462,
      "Ġas": 463,
      "gr": 464,
      "ĠĠĠĠĠĠĠĠ": 465,
      "ype": 466,
      "ecur": 467,
      "Ġ21": 468,
      "Ġy": 469,
      "ir": 470,
      "Ġwh": 471,
      "23": 472,
      "Ġor": 473,
      ",\"": 474,
      "ecurity": 475,
      "are": 476,
      "........": 477,
      "ys": 478,
      "ef": 479,
      "13": 480,
      "Ġwith": 481,
      "Ġst": 482,
      "Ġ-": 483,
      "ory": 484,
      "ts": 485,
      "ke": 486,
      "88": 487,
      "CE": 488,
      "TE": 489,
      "ire": 490,
      "formation": 491,
      "24": 492,
      "35": 493,
      "cc": 494,
      "ag": 495,
      "able": 496,
      "Pro": 497,
      "riv": 498,
      "OR": 499,
      "ep": 500,
      "ell": 501,
      "ment": 502,
      "Ġ0": 503,
      "os": 504,
      "Microsoft": 505,
      "ĠIn": 506,
      "ain": 507,
      "Ġpro": 508,
      "NT": 509,
      "#####": 510,
      "âĢ¢": 511,
      "loc": 512,
      "08": 513,
      "34": 514,
      "iz": 515,
      "54": 516,
      "ccess": 517,
      "Ġit": 518,
      "av": 519,
      "ode": 520,
      "Ġ\\": 521,
      "âĢĻ": 522,
      "iles": 523,
      "ĠO": 524,
      "ost": 525,
      "Ġcan": 526,
      "ine": 527,
      "ated": 528,
      "09": 529,
      "unk": 530,
      "own": 531,
      "200": 532,
      "Ġg": 533,
      "ass": 534,
      "ER": 535,
      "ay": 536,
      "ob": 537,
      "ort": 538,
      "ĠU": 539,
      "ill": 540,
      "rom": 541,
      "84": 542,
      "Ġare": 543,
      "per": 544,
      "Ġat": 545,
      "System": 546,
      "ov": 547,
      "plunk": 548,
      "15": 549,
      "Ġma": 550,
      "ĠW": 551,
      "ication": 552,
      "ee": 553,
      "ud": 554,
      "//": 555,
      "ĠB": 556,
      "com": 557,
      "Ġ\\|": 558,
      "76": 559,
      "ON": 560,
      "dd": 561,
      "work": 562,
      "Ġr": 563,
      "Ġwe": 564,
      "pro": 565,
      "ime": 566,
      "ew": 567,
      "IT": 568,
      "ount": 569,
      "ther": 570,
      "ttp": 571,
      "85": 572,
      "ĠH": 573,
      "02": 574,
      "ple": 575,
      "Ġthis": 576,
      "ff": 577,
      "ection": 578,
      "SY": 579,
      "ub": 580,
      "LS": 581,
      "86": 582,
      "Type": 583,
      "```": 584,
      "44": 585,
      "out": 586,
      "ies": 587,
      "gram": 588,
      "ask": 589,
      "end": 590,
      "net": 591,
      "59": 592,
      "STE": 593,
      "one": 594,
      "yt": 595,
      "isk": 596,
      "Ġyou": 597,
      "ject": 598,
      "STEM": 599,
      "TH": 600,
      "39": 601,
      "Ġlog": 602,
      "ial": 603,
      "ber": 604,
      "vent": 605,
      "ĠThe": 606,
      "SYSTEM": 607,
      "his": 608,
      "tr": 609,
      "main": 610,
      "Ġcon": 611,
      "oc": 612,
      "80": 613,
      "ery": 614,
      "ore": 615,
      "ere": 616,
      "alu": 617,
      "igh": 618,
      "ail": 619,
      "ens": 620,
      "evice": 621,
      "CR": 622,
      "olu": 623,
      "ITY": 624,
      "ĠK": 625,
      "25": 626,
      "eg": 627,
      "UTH": 628,
      "=\\": 629,
      "ware": 630,
      "29": 631,
      "36": 632,
      "UTHOR": 633,
      "ĠAUTHOR": 634,
      "ance": 635,
      "ĠAUTHORITY": 636,
      "bf": 637,
      "ey": 638,
      "ĠG": 639,
      "ĠAM": 640,
      "SS": 641,
      "41": 642,
      "ld": 643,
      "Ġe": 644,
      "27": 645,
      "Ġ20": 646,
      "ip": 647,
      "act": 648,
      "ccount": 649,
      "57": 650,
      "ult": 651,
      "Process": 652,
      "ĠLog": 653,
      "\":\"": 654,
      "ytes": 655,
      "Ġby": 656,
      "EN": 657,
      "IN": 658,
      "\",\"": 659,
      "int": 660,
      "roup": 661,
      "ĠID": 662,
      "ide": 663,
      "cri": 664,
      "ich": 665,
      "28": 666,
      "min": 667,
      "Win": 668,
      "dll": 669,
      "----": 670,
      "The": 671,
      "ser": 672,
      "omm": 673,
      "art": 674,
      "Ġcomp": 675,
      "Ġinst": 676,
      "win": 677,
      "rivile": 678,
      "ĠProcess": 679,
      "cl": 680,
      "ĠV": 681,
      "Ġserv": 682,
      "ource": 683,
      "ach": 684,
      "ign": 685,
      "reate": 686,
      "olume": 687,
      "etwork": 688,
      "Device": 689,
      "nown": 690,
      "185": 691,
      "33": 692,
      "48": 693,
      "Ġ1": 694,
      "uid": 695,
      "Ġal": 696,
      "Ġfrom": 697,
      "windows": 698,
      "Ġsh": 699,
      "2012": 700,
      "ans": 701,
      "ontro": 702,
      "Ġnot": 703,
      "ib": 704,
      "Ġev": 705,
      "ould": 706,
      "disk": 707,
      "Program": 708,
      "eb": 709,
      "Ġprocess": 710,
      "ant": 711,
      "Hard": 712,
      "Name": 713,
      "Volume": 714,
      "Ġch": 715,
      "ces": 716,
      "37": 717,
      "crip": 718,
      "2019": 719,
      "AE": 720,
      "Harddisk": 721,
      "ĠFiles": 722,
      "HarddiskVolume": 723,
      "ONEN": 724,
      "idType": 725,
      "Ġ=": 726,
      "ave": 727,
      "For": 728,
      "tack": 729,
      "Information": 730,
      "con": 731,
      "................": 732,
      "http": 733,
      "Log": 734,
      "ition": 735,
      "52": 736,
      "irect": 737,
      "local": 738,
      "ds": 739,
      "ust": 740,
      "ra": 741,
      "Ex": 742,
      "rch": 743,
      "49": 744,
      "://": 745,
      "bin": 746,
      "ok": 747,
      "364": 748,
      "ome": 749,
      "ical": 750,
      "ug": 751,
      "Ġwill": 752,
      "Ġme": 753,
      "46": 754,
      "Ġle": 755,
      "odel": 756,
      "uth": 757,
      "port": 758,
      "____": 759,
      "Ġdata": 760,
      "ontrol": 761,
      "ase": 762,
      "unction": 763,
      ").": 764,
      "tc": 765,
      "3856": 766,
      "ener": 767,
      "Ġres": 768,
      "=\"": 769,
      "ress": 770,
      "ence": 771,
      "Security": 772,
      "Ġsystem": 773,
      "Un": 774,
      "Ġ2": 775,
      "ommand": 776,
      "SU": 777,
      "Ġop": 778,
      "Ġun": 779,
      "CB": 780,
      "ï¬": 781,
      "AN": 782,
      "SidType": 783,
      "alue": 784,
      "ext": 785,
      "ild": 786,
      "ous": 787,
      "Group": 788,
      "CRONEN": 789,
      "ward": 790,
      "fer": 791,
      "ear": 792,
      "Ġap": 793,
      "192": 794,
      "Ġsu": 795,
      "Ġen": 796,
      "CESS": 797,
      "Ġ|": 798,
      "eLS": 799,
      "microsoft": 800,
      "omain": 801,
      "ĠâĢ": 802,
      "ead": 803,
      "urn": 804,
      "ations": 805,
      "EA": 806,
      "53": 807,
      "îģ": 808,
      "ĠLogon": 809,
      "Ġ4": 810,
      "ual": 811,
      "Âł": 812,
      "ast": 813,
      "Ġwas": 814,
      "ices": 815,
      "ERV": 816,
      "pec": 817,
      "Id": 818,
      "rivilege": 819,
      "ĠThis": 820,
      "CCESS": 821,
      "168": 822,
      "2009": 823,
      "Ġ{": 824,
      "58": 825,
      "Ġall": 826,
      "ID": 827,
      "Ġwhich": 828,
      "du": 829,
      "DC": 830,
      "ĠčĊ": 831,
      "cr": 832,
      "SUCCESS": 833,
      "1638": 834,
      "ary": 835,
      "li": 836,
      "ech": 837,
      "rust": 838,
      "310": 839,
      "Page": 840,
      "plication": 841,
      "get": 842,
      "Ġtr": 843,
      "fmon": 844,
      "Ġo": 845,
      "Ġrequ": 846,
      "Qu": 847,
      "ight": 848,
      "Ġ3": 849,
      "ms": 850,
      "99": 851,
      "ents": 852,
      "urr": 853,
      "::": 854,
      "ched": 855,
      "der": 856,
      "Key": 857,
      "Splunk": 858,
      "put": 859,
      "erver": 860,
      "Reg": 861,
      "abil": 862,
      "Known": 863,
      "ĠName": 864,
      "over": 865,
      "ession": 866,
      "50": 867,
      "77": 868,
      "ivers": 869,
      "Ġper": 870,
      "wh": 871,
      "000": 872,
      "),": 873,
      "Ġim": 874,
      "ĠWindows": 875,
      "Sys": 876,
      "amd": 877,
      "ates": 878,
      "Ġ[": 879,
      "QB": 880,
      "ĠĠĠ": 881,
      "Ġadd": 882,
      "==": 883,
      "system": 884,
      "Privilege": 885,
      "rchive": 886,
      "splunk": 887,
      "ors": 888,
      "load": 889,
      "CP": 890,
      "Ġattack": 891,
      "42": 892,
      "md": 893,
      "ele": 894,
      "Ġuse": 895,
      "Ġhave": 896,
      "ï¬ģ": 897,
      "be": 898,
      "47": 899,
      "40": 900,
      "urrent": 901,
      "âĢĿ": 902,
      "Well": 903,
      "eed": 904,
      "ational": 905,
      "sh": 906,
      "Univers": 907,
      "so": 908,
      "ert": 909,
      "that": 910,
      "ning": 911,
      "Inst": 912,
      "Forward": 913,
      "WellKnown": 914,
      "SidTypeWellKnown": 915,
      "SidTypeWellKnownGroup": 916,
      "istr": 917,
      "Ġlogon": 918,
      "Archive": 919,
      "ample": 920,
      "Event": 921,
      "low": 922,
      "xs": 923,
      "Universal": 924,
      "Forwarder": 925,
      "SplunkUniversal": 926,
      "SplunkUniversalForwarder": 927,
      "Ġcont": 928,
      "oad": 929,
      "EX": 930,
      "dic": 931,
      "RE": 932,
      "rit": 933,
      "St": 934,
      "ĠĠĠĠĠĠĠĠĠĠĠĠĠĠĠĠ": 935,
      "AT": 936,
      "HK": 937,
      "Ġinstance": 938,
      "30": 939,
      "ace": 940,
      "dc": 941,
      "Ġ23": 942,
      "iel": 943,
      "147": 944,
      "vid": 945,
      "man": 946,
      "Ġ,": 947,
      "we": 948,
      "Ġdet": 949,
      "wins": 950,
      "irectory": 951,
      "ca": 952,
      "pen": 953,
      "Query": 954,
      "key": 955,
      "winsxs": 956,
      "IL": 957,
      "Ġfile": 958,
      "Ġused": 959,
      "ĠPro": 960,
      "arent": 961,
      "ailable": 962,
      "ĠPage": 963,
      "SR": 964,
      "rusted": 965,
      "ari": 966,
      "aller": 967,
      "none": 968,
      "ings": 969,
      "81": 970,
      "Ġyour": 971,
      "tcp": 972,
      "87": 973,
      "ating": 974,
      "mp": 975,
      "ICE": 976,
      "te": 977,
      "Ġaccess": 978,
      "Ġ7": 979,
      "ĠEx": 980,
      "00000000": 981,
      "ersion": 982,
      "pr": 983,
      "eng": 984,
      "Ġsecurity": 985,
      "ted": 986,
      "Ġ/": 987,
      "ash": 988,
      "AC": 989,
      "96": 990,
      "2010": 991,
      "LM": 992,
      "ely": 993,
      "ower": 994,
      "Ġk": 995,
      "File": 996,
      "Sysmon": 997,
      "ERVICE": 998,
      "Ad": 999,
      "ources": 1000,
      "Ġob": 1001,
      "Th": 1002,
      "ize": 1003,
      "Oper": 1004,
      "udit": 1005,
      "ork": 1006,
      "pp": 1007,
      "Ġab": 1008,
      "vailable": 1009,
      "ner": 1010,
      "0700": 1011,
      "âĪ": 1012,
      "AB": 1013,
      "Ġusing": 1014,
      "Des": 1015,
      "Ġ5": 1016,
      "tions": 1017,
      "pon": 1018,
      "with": 1019,
      "Ġtask": 1020,
      "Ġuser": 1021,
      "olic": 1022,
      "DE": 1023,
      "any": 1024,
      "SE": 1025,
      "Ġ:": 1026,
      "ese": 1027,
      "ĠSERVICE": 1028,
      "af": 1029,
      "els": 1030,
      "child": 1031,
      "329": 1032,
      "255": 1033,
      "ak": 1034,
      "ute": 1035,
      "ĠSource": 1036,
      "Trusted": 1037,
      "ges": 1038,
      "oftware": 1039,
      "649": 1040,
      "US": 1041,
      "Ġ03": 1042,
      "Installer": 1043,
      "isc": 1044,
      "ols": 1045,
      "evel": 1046,
      "En": 1047,
      "227": 1048,
      "Ġmay": 1049,
      "TrustedInstaller": 1050,
      "iqu": 1051,
      "ĠUser": 1052,
      "...": 1053,
      "45": 1054,
      "ST": 1055,
      "po": 1056,
      "use": 1057,
      "yn": 1058,
      "mal": 1059,
      "Ġdo": 1060,
      "bo": 1061,
      "Â©": 1062,
      "EXE": 1063,
      "AD": 1064,
      "2020": 1065,
      "98": 1066,
      "umber": 1067,
      "044": 1068,
      "956": 1069,
      "72": 1070,
      "rib": 1071,
      "can": 1072,
      "Ġif": 1073,
      "ull": 1074,
      "ick": 1075,
      "ify": 1076,
      "hell": 1077,
      "Ġinter": 1078,
      "Ġservice": 1079,
      "ĉĉ": 1080,
      "Ġgener": 1081,
      "ization": 1082,
      "ĠNT": 1083,
      "chedul": 1084,
      "echn": 1085,
      "Ġcl": 1086,
      "Task": 1087,
      "Ġ6": 1088,
      "df": 1089,
      "Se": 1090,
      "Ġinformation": 1091,
      "Ġwhen": 1092,
      "ific": 1093,
      "Operational": 1094,
      "0088": 1095,
      "ever": 1096,
      "Ġfunction": 1097,
      "ifest": 1098,
      "74": 1099,
      "user": 1100,
      "ĠParent": 1101,
      "plor": 1102,
      "AM": 1103,
      "name": 1104,
      "2631": 1105,
      "8464": 1106,
      "Guid": 1107,
      "18310": 1108,
      "38044": 1109,
      "18522": 1110,
      "3418522": 1111,
      "9560088": 1112,
      "1831038044": 1113,
      "3418522649": 1114,
      "956008885": 1115,
      "185329": 1116,
      "1478464": 1117,
      "2271478464": 1118,
      "1853292631": 1119,
      "nal": 1120,
      "Data": 1121,
      "LL": 1122,
      "âĢĵ": 1123,
      "uthent": 1124,
      "ident": 1125,
      "SRV": 1126,
      "Ġpre": 1127,
      "emory": 1128,
      "()": 1129,
      "AG": 1130,
      "Ġ'": 1131,
      "ule": 1132,
      "rue": 1133,
      "43": 1134,
      "Ġaccount": 1135,
      "clud": 1136,
      "Account": 1137,
      "plo": 1138,
      "fo": 1139,
      "Ġ\"\\": 1140,
      "ĠTh": 1141,
      "abl": 1142,
      "51": 1143,
      "Ġcre": 1144,
      "Time": 1145,
      "ags": 1146,
      "cor": 1147,
      "igure": 1148,
      "79": 1149,
      "Ġindic": 1150,
      "ious": 1151,
      "Ġcode": 1152,
      "https": 1153,
      "ss": 1154,
      "ĠâĢ¢": 1155,
      "AF": 1156,
      "2016": 1157,
      "Ch": 1158,
      "ength": 1159,
      "uter": 1160,
      "ĠLoad": 1161,
      "cmd": 1162,
      "ĠEvent": 1163,
      "ability": 1164,
      "cription": 1165,
      "SF": 1166,
      "--------": 1167,
      "Ġnew": 1168,
      "plorer": 1169,
      "cheduler": 1170,
      "ervice": 1171,
      "CPU": 1172,
      "Ġkey": 1173,
      "Ġrequest": 1174,
      "ful": 1175,
      "andle": 1176,
      "At": 1177,
      "Man": 1178,
      "Ġup": 1179,
      "Ġass": 1180,
      "HA": 1181,
      "Ġevent": 1182,
      "ired": 1183,
      "Ġout": 1184,
      "rule": 1185,
      "Ġcom": 1186,
      "ia": 1187,
      "ible": 1188,
      "ote": 1189,
      "Ġwindows": 1190,
      "89": 1191,
      "Ġbut": 1192,
      "ruct": 1193,
      "Us": 1194,
      "ath": 1195,
      "Ġhttp": 1196,
      "Ġnetwork": 1197,
      "ential": 1198,
      "ics": 1199,
      "Ġsuch": 1200,
      "iss": 1201,
      "reat": 1202,
      "Ġ19": 1203,
      "ased": 1204,
      "read": 1205,
      "ormal": 1206,
      "Ġ10": 1207,
      "earch": 1208,
      "Ġmore": 1209,
      "ET": 1210,
      "ise": 1211,
      "Ġhas": 1212,
      "0010": 1213,
      "pt": 1214,
      "de": 1215,
      "Ġonly": 1216,
      "olicy": 1217,
      "Ġsome": 1218,
      "68": 1219,
      "Ġfol": 1220,
      "OT": 1221,
      "ulner": 1222,
      "ĠâĢľ": 1223,
      "Ġexec": 1224,
      "\",": 1225,
      "Ġmodel": 1226,
      "AA": 1227,
      "toc": 1228,
      "Per": 1229,
      "ww": 1230,
      "ps": 1231,
      "Ġspec": 1232,
      "Create": 1233,
      "ution": 1234,
      "ĠAccess": 1235,
      "ang": 1236,
      "ities": 1237,
      "ern": 1238,
      "ifi": 1239,
      "Ġobject": 1240,
      "ĠScheduler": 1241,
      "ministr": 1242,
      "Ġlo": 1243,
      "Ġset": 1244,
      "Ġqu": 1245,
      "ĠSt": 1246,
      "files": 1247,
      "ĠCreate": 1248,
      "Ġi": 1249,
      "Ġcall": 1250,
      "lock": 1251,
      "itor": 1252,
      "ected": 1253,
      "iew": 1254,
      "ue": 1255,
      "Ġother": 1256,
      "thod": 1257,
      "ĠComp": 1258,
      "VM": 1259,
      "ANS": 1260,
      "This": 1261,
      "\"\\": 1262,
      "An": 1263,
      "obytes": 1264,
      "ministrat": 1265,
      "ĠKil": 1266,
      "Ġrun": 1267,
      "Ġneed": 1268,
      "ĠKilobytes": 1269,
      "Ġad": 1270,
      "Ġalso": 1271,
      "comp": 1272,
      "ced": 1273,
      "Ġfiel": 1274,
      "Ġoper": 1275,
      "75": 1276,
      "16384": 1277,
      "66": 1278,
      "orig": 1279,
      "word": 1280,
      "Ġinto": 1281,
      "uthentication": 1282,
      "ures": 1283,
      "ake": 1284,
      "by": 1285,
      "Ġĉĉ": 1286,
      "estin": 1287,
      "ĠType": 1288,
      "erson": 1289,
      "Ġany": 1290,
      "90": 1291,
      "Ġtime": 1292,
      "________": 1293,
      "Ġcol": 1294,
      "arget": 1295,
      "Ġli": 1296,
      "ploit": 1297,
      "Ġone": 1298,
      "ĠDomain": 1299,
      "xS": 1300,
      "ED": 1301,
      "ĠEn": 1302,
      "Available": 1303,
      "Ġpl": 1304,
      "CH": 1305,
      "ĠCh": 1306,
      "ĠSecurity": 1307,
      "Con": 1308,
      "cript": 1309,
      "Ġaction": 1310,
      "Ġ06": 1311,
      "Ġcommand": 1312,
      "ault": 1313,
      "irst": 1314,
      "................................": 1315,
      "apter": 1316,
      "WinS": 1317,
      "iffer": 1318,
      "aun": 1319,
      "Ġ17": 1320,
      "'s": 1321,
      "EventLog": 1322,
      "ĠJ": 1323,
      "resp": 1324,
      "WinSxS": 1325,
      "Ġsession": 1326,
      "Directory": 1327,
      "ump": 1328,
      "ink": 1329,
      "duct": 1330,
      "CA": 1331,
      "aph": 1332,
      "ysis": 1333,
      "_::": 1334,
      "atch": 1335,
      "Set": 1336,
      "Code": 1337,
      "pos": 1338,
      "inter": 1339,
      "Proc": 1340,
      "alse": 1341,
      "ĠKey": 1342,
      "uuid": 1343,
      "Ġj": 1344,
      "7600": 1345,
      "Ġro": 1346,
      "Audit": 1347,
      "Ġaddress": 1348,
      "estination": 1349,
      "WinEventLog": 1350,
      "Ġexample": 1351,
      "ord": 1352,
      "vir": 1353,
      "Control": 1354,
      "16385": 1355,
      "ry": 1356,
      "set": 1357,
      "ĠIt": 1358,
      "file": 1359,
      "ubject": 1360,
      "Perfmon": 1361,
      "Ġhow": 1362,
      "ound": 1363,
      "Ġapplication": 1364,
      "ateg": 1365,
      "pre": 1366,
      "essage": 1367,
      "fig": 1368,
      "ange": 1369,
      "ook": 1370,
      "ugh": 1371,
      "Ġ8": 1372,
      "raw": 1373,
      "ĠY": 1374,
      "ong": 1375,
      "gan": 1376,
      "TO": 1377,
      "Ġdef": 1378,
      "Ġconn": 1379,
      "ged": 1380,
      "its": 1381,
      "ree": 1382,
      "aa": 1383,
      "eck": 1384,
      "67": 1385,
      "Ġar": 1386,
      "âĪĴ": 1387,
      "AR": 1388,
      "lection": 1389,
      "Ġman": 1390,
      "sv": 1391,
      "cd": 1392,
      "Ġact": 1393,
      "Ġcomple": 1394,
      "Ġour": 1395,
      "ml": 1396,
      "onitor": 1397,
      "arame": 1398,
      "User": 1399,
      "ui": 1400,
      "Ġshould": 1401,
      "69": 1402,
      "eek": 1403,
      "HKLM": 1404,
      "Ġident": 1405,
      "//_::": 1406,
      "Logon": 1407,
      "Ġthey": 1408,
      "Line": 1409,
      "ĠFor": 1410,
      "ally": 1411,
      "220": 1412,
      "ryp": 1413,
      "ite": 1414,
      "rough": 1415,
      "=--": 1416,
      "str": 1417,
      "su": 1418,
      "data": 1419,
      "mory": 1420,
      "Ġinclud": 1421,
      "ervices": 1422,
      "ĠData": 1423,
      "this": 1424,
      "ments": 1425,
      "AEEA": 1426,
      "echniqu": 1427,
      "bd": 1428,
      "ĠFile": 1429,
      "ays": 1430,
      "enc": 1431,
      "Ġthese": 1432,
      "Ġits": 1433,
      "9200": 1434,
      "ve": 1435,
      "ermin": 1436,
      "QQB": 1437,
      "river": 1438,
      "igned": 1439,
      "aining": 1440,
      "Ġvalue": 1441,
      "Ġdes": 1442,
      "viron": 1443,
      "TR": 1444,
      "EF": 1445,
      "256": 1446,
      "Ġreg": 1447,
      "PI": 1448,
      "vers": 1449,
      "Ġ12": 1450,
      "other": 1451,
      "SK": 1452,
      "rite": 1453,
      "Wh": 1454,
      "Ġmost": 1455,
      "inf": 1456,
      "OW": 1457,
      "ting": 1458,
      "ish": 1459,
      "normal": 1460,
      "Ġwork": 1461,
      "Tags": 1462,
      "ne": 1463,
      "true": 1464,
      "SI": 1465,
      "oth": 1466,
      "cryp": 1467,
      "tim": 1468,
      "ccessful": 1469,
      "ause": 1470,
      "oud": 1471,
      "Info": 1472,
      "resources": 1473,
      "aw": 1474,
      ".,": 1475,
      "Users": 1476,
      "cre": 1477,
      "server": 1478,
      "lowing": 1479,
      "108": 1480,
      "Ġso": 1481,
      "Ġlaun": 1482,
      "berg": 1483,
      "Ġmod": 1484,
      "Bl": 1485,
      "not": 1486,
      "ommandLine": 1487,
      "83": 1488,
      "lab": 1489,
      "Res": 1490,
      "To": 1491,
      "ĠNetwork": 1492,
      "onen": 1493,
      "ĠDet": 1494,
      "vider": 1495,
      "Ġpass": 1496,
      ");": 1497,
      "ages": 1498,
      "Open": 1499,
      "cont": 1500,
      "inu": 1501,
      "agement": 1502,
      "ager": 1503,
      "517": 1504,
      "Explorer": 1505,
      "from": 1506,
      "Version": 1507,
      "wo": 1508,
      "Ġent": 1509,
      "onenberg": 1510,
      "ically": 1511,
      "Ġname": 1512,
      "ĠSystem": 1513,
      "sp": 1514,
      "Ġsim": 1515,
      "OU": 1516,
      "eat": 1517,
      "isting": 1518,
      "TT": 1519,
      "code": 1520,
      "869": 1521,
      "100": 1522,
      "ðĿ": 1523,
      "cronenberg": 1524,
      "manifest": 1525,
      "Ġtheir": 1526,
      "Ġmal": 1527,
      "etwe": 1528,
      "emb": 1529,
      "ten": 1530,
      "ĠRead": 1531,
      "process": 1532,
      "Ġ02": 1533,
      "econ": 1534,
      "ions": 1535,
      "add": 1536,
      "turn": 1537,
      "lass": 1538,
      "}\"": 1539,
      "ĠWh": 1540,
      "Ġwhere": 1541,
      "ernel": 1542,
      "por": 1543,
      "ĠDestination": 1544,
      "ĠMemory": 1545,
      "ulti": 1546,
      "splunkd": 1547,
      "Ġhttps": 1548,
      "etween": 1549,
      "Ġanal": 1550,
      "Ġpo": 1551,
      "Ġ00": 1552,
      "ters": 1553,
      "ĠImage": 1554,
      "bb": 1555,
      "Ġcor": 1556,
      "row": 1557,
      "Ġsuccessful": 1558,
      "Ġeach": 1559,
      "ĠBytes": 1560,
      "Ġpart": 1561,
      "Ġag": 1562,
      "97": 1563,
      "ifferent": 1564,
      "Power": 1565,
      "wB": 1566,
      "Ġtest": 1567,
      "3948": 1568,
      "ubl": 1569,
      "Procmon": 1570,
      "plement": 1571,
      "LO": 1572,
      "ft": 1573,
      "Ġover": 1574,
      "Ġfiles": 1575,
      "SO": 1576,
      "zure": 1577,
      "resent": 1578,
      "Ġpos": 1579,
      "LA": 1580,
      "DESK": 1581,
      "ized": 1582,
      "ient": 1583,
      "Ġlike": 1584,
      "uthor": 1585,
      "Current": 1586,
      "âĢĶ": 1587,
      "Ġsame": 1588,
      "err": 1589,
      "App": 1590,
      "tocol": 1591,
      "Ġ\"{": 1592,
      "ns": 1593,
      "ank": 1594,
      "IP": 1595,
      "51784": 1596,
      "**": 1597,
      "ĠCon": 1598,
      "rawfiles": 1599,
      "Ġabout": 1600,
      "mui": 1601,
      "Figure": 1602,
      "now": 1603,
      "ruction": 1604,
      "Ġgo": 1605,
      "utom": 1606,
      "ification": 1607,
      "evelop": 1608,
      "îĢ": 1609,
      "âĢľ": 1610,
      "ified": 1611,
      "EC": 1612,
      "ĠTime": 1613,
      "Ġoff": 1614,
      "ax": 1615,
      "Def": 1616,
      "bytes": 1617,
      "Al": 1618,
      "Ġthen": 1619,
      "line": 1620,
      "Ġ9": 1621,
      "Ġgenerated": 1622,
      "vironment": 1623,
      "ĠSe": 1624,
      "82": 1625,
      "Ġcontrol": 1626,
      "edi": 1627,
      "und": 1628,
      "138": 1629,
      "ĠInformation": 1630,
      "ases": 1631,
      "60": 1632,
      "ative": 1633,
      "SRVVM": 1634,
      "Ġstr": 1635,
      "red": 1636,
      "ply": 1637,
      "otal": 1638,
      "time": 1639,
      "RegQuery": 1640,
      "alues": 1641,
      "ains": 1642,
      "Network": 1643,
      "zeek": 1644,
      "uss": 1645,
      "thes": 1646,
      "ular": 1647,
      "ructure": 1648,
      "ponse": 1649,
      "Full": 1650,
      "words": 1651,
      "fore": 1652,
      "FF": 1653,
      "ĠAtt": 1654,
      "Ġsee": 1655,
      "Ġlist": 1656,
      "ĠOpen": 1657,
      "Ġbu": 1658,
      "Ġ@": 1659,
      "ĠIf": 1660,
      "ph": 1661,
      "Loc": 1662,
      "0001": 1663,
      "ets": 1664,
      "pplication": 1665,
      "ecause": 1666,
      "model": 1667,
      "WIN": 1668,
      "ix": 1669,
      "tegr": 1670,
      "Ġint": 1671,
      "Port": 1672,
      "Ġno": 1673,
      "ĠWe": 1674,
      "ver": 1675,
      "ble": 1676,
      "rans": 1677,
      "Ġrem": 1678,
      "inal": 1679,
      "71": 1680,
      "ION": 1681,
      "cf": 1682,
      "Administrat": 1683,
      "5432": 1684,
      "Ġ15": 1685,
      "Ġtyp": 1686,
      "Ġperform": 1687,
      "Ġsp": 1688,
      "ackage": 1689,
      "utes": 1690,
      "ND": 1691,
      "ounter": 1692,
      "ĠHandle": 1693,
      "uration": 1694,
      "=\"_": 1695,
      "Ġwhat": 1696,
      "Ġ14": 1697,
      "db": 1698,
      "Ġsuccessfully": 1699,
      "Desired": 1700,
      "92": 1701,
      "ILD": 1702,
      "Ġserver": 1703,
      "-\\": 1704,
      "chost": 1705,
      "requ": 1706,
      "function": 1707,
      "vel": 1708,
      "Ġ13": 1709,
      "\",\".": 1710,
      "Ġcommon": 1711,
      "mail": 1712,
      "ELS": 1713,
      "65": 1714,
      "Ġmemory": 1715,
      "Shell": 1716,
      "ĠHandleTags": 1717,
      "bject": 1718,
      "ĠParentProcess": 1719,
      "ences": 1720,
      "Ġatt": 1721,
      "reg": 1722,
      "lear": 1723,
      "gB": 1724,
      "=\"_\"\\": 1725,
      "Ġdec": 1726,
      "====": 1727,
      "icious": 1728,
      "raph": 1729,
      "CHILD": 1730,
      "gh": 1731,
      "rame": 1732,
      "Ġ+": 1733,
      "information": 1734,
      "None": 1735,
      "da": 1736,
      "Ġsystems": 1737,
      "Software": 1738,
      "Ġsup": 1739,
      "equ": 1740,
      "âĹ": 1741,
      "Ġdis": 1742,
      "ose": 1743,
      "ĠOp": 1744,
      "conn": 1745,
      "app": 1746,
      "Ġlocal": 1747,
      "Ġsign": 1748,
      "ility": 1749,
      "ĠRule": 1750,
      "gor": 1751,
      "svchost": 1752,
      "Ġorgan": 1753,
      "70": 1754,
      "alid": 1755,
      "rivileges": 1756,
      "ampl": 1757,
      "ĠInst": 1758,
      "Ip": 1759,
      "tun": 1760,
      "als": 1761,
      "ocum": 1762,
      "gorith": 1763,
      "owers": 1764,
      "sible": 1765,
      "ăă": 1766,
      "ĠValue": 1767,
      "7601": 1768,
      "ĠSubject": 1769,
      "ache": 1770,
      "orage": 1771,
      "mm": 1772,
      "Ġthere": 1773,
      "Ġx": 1774,
      "elp": 1775,
      "Ġfollowing": 1776,
      "ebug": 1777,
      "rel": 1778,
      "IM": 1779,
      "ĠSu": 1780,
      "Ġ01": 1781,
      "ĠDes": 1782,
      "Ġlook": 1783,
      "FA": 1784,
      "andl": 1785,
      "ĠTo": 1786,
      "lient": 1787,
      "sec": 1788,
      "def": 1789,
      "Server": 1790,
      "Policy": 1791,
      "Ġdisc": 1792,
      "stand": 1793,
      "SHA": 1794,
      "run": 1795,
      "Ġlogged": 1796,
      "oot": 1797,
      "Ġvari": 1798,
      "comm": 1799,
      "atus": 1800,
      "sid": 1801,
      "Ġconnection": 1802,
      "itional": 1803,
      "Ġfields": 1804,
      "ync": 1805,
      "AS": 1806,
      "Ġthrough": 1807,
      "Ġ<": 1808,
      "Ġtype": 1809,
      "95": 1810,
      "ba": 1811,
      "istrib": 1812,
      "Ġfirst": 1813,
      "dep": 1814,
      "Ġwould": 1815,
      "):": 1816,
      "Total": 1817,
      "mat": 1818,
      "EL": 1819,
      "TED": 1820,
      "Ġstart": 1821,
      "Ġbetween": 1822,
      "544": 1823,
      "ilter": 1824,
      "ĠâĢĵ": 1825,
      "Ġinv": 1826,
      "miss": 1827,
      "tcTime": 1828,
      "io": 1829,
      "ĠRec": 1830,
      "ĠProcessId": 1831,
      "tual": 1832,
      "cal": 1833,
      "Ġsub": 1834,
      "fter": 1835,
      "Ġcould": 1836,
      "which": 1837,
      "ames": 1838,
      "We": 1839,
      "Ġweb": 1840,
      "1384": 1841,
      "If": 1842,
      "Ġ192": 1843,
      "PS": 1844,
      "Ġ16": 1845,
      "Ġtarget": 1846,
      "78": 1847,
      "rypt": 1848,
      "vm": 1849,
      "event": 1850,
      "Ġtwo": 1851,
      "Description": 1852,
      "host": 1853,
      "',": 1854,
      "lide": 1855,
      "Ġthem": 1856,
      "ables": 1857,
      "ĠProcessGuid": 1858,
      "Processor": 1859,
      "ogle": 1860,
      "ĠAn": 1861,
      "BER": 1862,
      "elf": 1863,
      "Ġdifferent": 1864,
      "||": 1865,
      "Black": 1866,
      "ough": 1867,
      "Ġ11": 1868,
      "ited": 1869,
      "CU": 1870,
      "BU": 1871,
      "ĠAd": 1872,
      "Ġcollection": 1873,
      "OCR": 1874,
      "security": 1875,
      "Ġvulner": 1876,
      "Host": 1877,
      "abilities": 1878,
      "FC": 1879,
      "point": 1880,
      "NET": 1881,
      "ĠIP": 1882,
      "Ġunder": 1883,
      "ofthe": 1884,
      "date": 1885,
      "Ġ$": 1886,
      "0020": 1887,
      "ĠUtcTime": 1888,
      "Ġprogram": 1889,
      "Ġdat": 1890,
      "bc": 1891,
      "ĠMicrosoft": 1892,
      "ĠProcessCreate": 1893,
      "ategory": 1894,
      "DF": 1895,
      "oogle": 1896,
      "owershell": 1897,
      "Ġdoes": 1898,
      "Events": 1899,
      "Ġindicate": 1900,
      "attack": 1901,
      "Ġtrans": 1902,
      "vide": 1903,
      "ively": 1904,
      "=\"%": 1905,
      "ator": 1906,
      "Ġthan": 1907,
      "ĠAdd": 1908,
      "Inter": 1909,
      "lect": 1910,
      "istry": 1911,
      "\\{": 1912,
      "uring": 1913,
      "ĠAl": 1914,
      "Ġcreated": 1915,
      "ove": 1916,
      "AL": 1917,
      "Hat": 1918,
      "ines": 1919,
      "NOT": 1920,
      "back": 1921,
      "Ġpr": 1922,
      "Ġservices": 1923,
      "ults": 1924,
      "used": 1925,
      "Ġnumber": 1926,
      "lose": 1927,
      "Ġ&": 1928,
      "js": 1929,
      "3105": 1930,
      "Ġcomputer": 1931,
      "eam": 1932,
      "Ġindicates": 1933,
      "tegrity": 1934,
      "Ġ*": 1935,
      "ĠRes": 1936,
      "83105": 1937,
      "âĸ": 1938,
      "ĠSuccess": 1939,
      "Ġhigh": 1940,
      "BlackHat": 1941,
      "ae": 1942,
      ")\\": 1943,
      "ĠUn": 1944,
      "QQBB": 1945,
      "UAT": 1946,
      "SERV": 1947,
      "Ġhost": 1948,
      "Ġprovid": 1949,
      "Service": 1950,
      "ger": 1951,
      "off": 1952,
      "ually": 1953,
      "BERG": 1954,
      "inux": 1955,
      "CBA": 1956,
      "Local": 1957,
      "Ġmethod": 1958,
      "Ġoutput": 1959,
      "BlackHatEvents": 1960,
      "bit": 1961,
      "ðĿĳ": 1962,
      "TRANS": 1963,
      "Ġclass": 1964,
      "Sh": 1965,
      "inst": 1966,
      "ik": 1967,
      "Level": 1968,
      "LATED": 1969,
      "SERVER": 1970,
      "RO": 1971,
      "based": 1972,
      "arameters": 1973,
      "ives": 1974,
      "ayer": 1975,
      "ĠInter": 1976,
      "irtual": 1977,
      "TRANSLATED": 1978,
      "chine": 1979,
      "cep": 1980,
      "AP": 1981,
      "Ġcounter": 1982,
      "ĠAccount": 1983,
      "org": 1984,
      "rivate": 1985,
      "erminal": 1986,
      "eff": 1987,
      "Class": 1988,
      "using": 1989,
      "CC": 1990,
      "Ġ--": 1991,
      "ules": 1992,
      "OS": 1993,
      "73": 1994,
      "ater": 1995,
      "Memory": 1996,
      "mar": 1997,
      "logs": 1998,
      "94": 1999,
      "print": 2000,
      "location": 2001,
      "._": 2002,
      "Ġmany": 2003,
      "703": 2004,
      "face": 2005,
      "pecial": 2006,
      "sider": 2007,
      "vious": 2008,
      "Ġget": 2009,
      "loy": 2010,
      "ĠĠĠĠĠĠĠĠĠĠĠĠ": 2011,
      "ublic": 2012,
      "129": 2013,
      "ield": 2014,
      "Ġ2019": 2015,
      "www": 2016,
      "powershell": 2017,
      "Ġfind": 2018,
      "Ġimport": 2019,
      "Image": 2020,
      "93": 2021,
      "Ġbeen": 2022,
      "ccur": 2023,
      "Manifest": 2024,
      "Cont": 2025,
      "itial": 2026,
      "Ġback": 2027,
      ">>": 2028,
      "QL": 2029,
      "Ġ?": 2030,
      "{\"": 2031,
      "Ġcap": 2032,
      "Session": 2033,
      "echniques": 2034,
      "_\\": 2035,
      "ins": 2036,
      "ĠX": 2037,
      "DW": 2038,
      "ement": 2039,
      "OpenKey": 2040,
      "ffic": 2041,
      "angu": 2042,
      "Driver": 2043,
      "FT": 2044,
      "ashes": 2045,
      "AppData": 2046,
      "Manifests": 2047,
      "Ġdomain": 2048,
      "pert": 2049,
      "arge": 2050,
      "TOP": 2051,
      "RegOpenKey": 2052,
      "Str": 2053,
      "ique": 2054,
      "Ġavailable": 2055,
      "network": 2056,
      "Ġspecific": 2057,
      "ograph": 2058,
      "then": 2059,
      "Number": 2060,
      "amples": 2061,
      "uch": 2062,
      "Ġtools": 2063,
      "\\\\": 2064,
      "TIN": 2065,
      "Ġ2023": 2066,
      "tings": 2067,
      "ĠTask": 2068,
      "you": 2069,
      "91": 2070,
      "Ġ2022": 2071,
      "ivity": 2072,
      "ailed": 2073,
      "Ġread": 2074,
      "ĠYou": 2075,
      "top": 2076,
      "old": 2077,
      "mb": 2078,
      "ĠAPI": 2079,
      "hav": 2080,
      "py": 2081,
      "----------------": 2082,
      "SEC": 2083,
      "63": 2084,
      "perfmon": 2085,
      "IS": 2086,
      "nep": 2087,
      "Back": 2088,
      "ea": 2089,
      "Ġmust": 2090,
      "Ġdep": 2091,
      "serv": 2092,
      "Ġï¬ģ": 2093,
      "DESKTOP": 2094,
      "tune": 2095,
      "âĹı": 2096,
      "itions": 2097,
      "itute": 2098,
      "ributes": 2099,
      "ared": 2100,
      "514": 2101,
      "Category": 2102,
      "cb": 2103,
      "Ġsearch": 2104,
      "Ġ%": 2105,
      "arch": 2106,
      "ownload": 2107,
      "owever": 2108,
      "aries": 2109,
      "\".": 2110,
      "Ġperfmon": 2111,
      "AME": 2112,
      "ained": 2113,
      "gg": 2114,
      "//_::._": 2115,
      "Ġcompleted": 2116,
      "Ġmonitor": 2117,
      "ĠMan": 2118,
      "AH": 2119,
      "ian": 2120,
      "ayload": 2121,
      "As": 2122,
      "EE": 2123,
      "Ġcheck": 2124,
      "61": 2125,
      "Ġinstruction": 2126,
      "Administrators": 2127,
      "ertific": 2128,
      "Ali": 2129,
      "ights": 2130,
      "sys": 2131,
      "rr": 2132,
      "exec": 2133,
      "figuration": 2134,
      "ultiple": 2135,
      "iated": 2136,
      "Ġac": 2137,
      "ĠAll": 2138,
      "________________": 2139,
      "Ġsc": 2140,
      "ustom": 2141,
      "On": 2142,
      "ature": 2143,
      "erber": 2144,
      "olog": 2145,
      "Ġpack": 2146,
      "ĠSh": 2147,
      "BB": 2148,
      "Comp": 2149,
      "ILTIN": 2150,
      "ĠĠĠĠĠĠĠĠĠĠĠĠĠĠĠĠĠĠĠĠĠĠĠĠĠĠĠĠĠĠĠĠ": 2151,
      "Ġ22": 2152,
      "ĠMessage": 2153,
      "ging": 2154,
      "Add": 2155,
      "Ref": 2156,
      "VE": 2157,
      "Ġlear": 2158,
      "Ġend": 2159,
      "call": 2160,
      "204": 2161,
      "Ġ18": 2162,
      "Ġwithin": 2163,
      "ĠWin": 2164,
      "ĠDescription": 2165,
      "ramework": 2166,
      "ĠCommandLine": 2167,
      "Is": 2168,
      "ĠComputer": 2169,
      "BUILTIN": 2170,
      "Ġexecut": 2171,
      "umer": 2172,
      "Ġimp": 2173,
      "Ġfield": 2174,
      "fc": 2175,
      "esting": 2176,
      "elect": 2177,
      "gine": 2178,
      "do": 2179,
      "7030000": 2180,
      "ilar": 2181,
      "Ġ>": 2182,
      "ĠÂ©": 2183,
      "ingle": 2184,
      "Ġauthentication": 2185,
      "))": 2186,
      "FOR": 2187,
      "ock": 2188,
      "neptune": 2189,
      "ĠMD": 2190,
      "fe": 2191,
      "Ġrel": 2192,
      "anal": 2193,
      "dex": 2194,
      "ways": 2195,
      "iven": 2196,
      "ĠDef": 2197,
      "\",\".\":": 2198,
      "fd": 2199,
      "Ġprovide": 2200,
      "Ġlaunch": 2201,
      "Ġattacker": 2202,
      "erc": 2203,
      "Ġext": 2204,
      "Ġcreate": 2205,
      "ocument": 2206,
      "ControlSet": 2207,
      "them": 2208,
      "\",\".\":,\"": 2209,
      "ense": 2210,
      "error": 2211,
      "RegQueryKey": 2212,
      "Ġmake": 2213,
      "ision": 2214,
      "NS": 2215,
      "ĠSANS": 2216,
      "Ġload": 2217,
      "ross": 2218,
      "gorithm": 2219,
      "play": 2220,
      "Ġtool": 2221,
      "vo": 2222,
      "cept": 2223,
      "ĠControl": 2224,
      "opy": 2225,
      "Ġmight": 2226,
      "Ġnow": 2227,
      "\":\"...": 2228,
      "Object": 2229,
      "ken": 2230,
      "AU": 2231,
      "Ġimplement": 2232,
      "olution": 2233,
      "\":\"...\",\".\":,\"": 2234,
      "LR": 2235,
      "CurrentControlSet": 2236,
      "Ġallow": 2237,
      "Read": 2238,
      "atic": 2239,
      "BH": 2240,
      "ĠProduct": 2241,
      "ince": 2242,
      "rary": 2243,
      "001": 2244,
      "ĠDetection": 2245,
      "ĠLength": 2246,
      "ĠApplication": 2247,
      "Ġopen": 2248,
      "mperson": 2249,
      "Close": 2250,
      "It": 2251,
      "Get": 2252,
      "evices": 2253,
      "acking": 2254,
      "ering": 2255,
      "WA": 2256,
      "ĠRecord": 2257,
      "}\\": 2258,
      "cat": 2259,
      "ĠIntegrity": 2260,
      "Ġanalysis": 2261,
      "hip": 2262,
      "Ġappro": 2263,
      "Ġusers": 2264,
      "=.": 2265,
      "Value": 2266,
      "erberos": 2267,
      "CD": 2268,
      "emp": 2269,
      "ails": 2270,
      "FD": 2271,
      "ference": 2272,
      "Ġexploit": 2273,
      "ĠRuleName": 2274,
      "Alias": 2275,
      "ersist": 2276,
      "mit": 2277,
      "RL": 2278,
      "ĠPM": 2279,
      "Î¸": 2280,
      "Ġstep": 2281,
      "ĠWork": 2282,
      "box": 2283,
      "Ġbecause": 2284,
      "Ġunique": 2285,
      "Ġsection": 2286,
      "tection": 2287,
      "Ġversion": 2288,
      "ĠEventCode": 2289,
      "ires": 2290,
      "ĠSlide": 2291,
      "Chapter": 2292,
      "ĠFileVersion": 2293,
      "text": 2294,
      "fa": 2295,
      "ecure": 2296,
      "ĠServer": 2297,
      "acy": 2298,
      "ints": 2299,
      "anced": 2300,
      "anguage": 2301,
      "cap": 2302,
      "Ġencryp": 2303,
      "2015": 2304,
      "Ġfalse": 2305,
      "Ġdevelop": 2306,
      "UID": 2307,
      "62": 2308,
      "ored": 2309,
      "Ġsoftware": 2310,
      "Ġph": 2311,
      "RP": 2312,
      "SidTypeAlias": 2313,
      "thec": 2314,
      "istribution": 2315,
      "ĠCompany": 2316,
      "Ġgroup": 2317,
      "NAME": 2318,
      "andard": 2319,
      "view": 2320,
      "ĠComputerName": 2321,
      "ommun": 2322,
      "par": 2323,
      "ĠKeywords": 2324,
      "ily": 2325,
      "LE": 2326,
      "Ġtypes": 2327,
      "Ġîģ": 2328,
      "Ġmalware": 2329,
      "ĠEventType": 2330,
      "xy": 2331,
      "ryptograph": 2332,
      "ĠOpCode": 2333,
      "Ġdevice": 2334,
      "ĠLogName": 2335,
      "ĠInstitute": 2336,
      "//_::._-\\": 2337,
      "ĠSourceName": 2338,
      "ĠTaskCategory": 2339,
      "ĠRecordNumber": 2340,
      "Ġvia": 2341,
      "Att": 2342,
      ":_": 2343,
      "Ġfeat": 2344,
      "Ġinput": 2345,
      "Ġoften": 2346,
      "ĠInc": 2347,
      "Ġremote": 2348,
      "ending": 2349,
      "action": 2350,
      "ĠCl": 2351,
      "thon": 2352,
      "Ġwell": 2353,
      "Ġpassword": 2354,
      "Ġoperation": 2355,
      "Ġknow": 2356,
      "Ġway": 2357,
      "plic": 2358,
      "Ġlab": 2359,
      "cod": 2360,
      "ior": 2361,
      "No": 2362,
      "Ġown": 2363,
      "pect": 2364,
      "Ġreturn": 2365,
      "will": 2366,
      "ann": 2367,
      "round": 2368,
      "MD": 2369,
      "ĠTerminal": 2370,
      "lob": 2371,
      "thing": 2372,
      "Ġmachine": 2373,
      "Ġke": 2374,
      "âĢ¦": 2375,
      "TTP": 2376,
      "present": 2377,
      "pri": 2378,
      "itive": 2379,
      "=__": 2380,
      "ency": 2381,
      "Ġjust": 2382,
      "ĠNew": 2383,
      "day": 2384,
      "Ġgr": 2385,
      "QQBBAEEA": 2386,
      "econd": 2387,
      "less": 2388,
      "nalysis": 2389,
      "access": 2390,
      "Ġcase": 2391,
      "ĠCurrent": 2392,
      "vari": 2393,
      "cp": 2394,
      "':": 2395,
      "MP": 2396,
      "Ġlaunched": 2397,
      "estig": 2398,
      "ĠNOT": 2399,
      "FB": 2400,
      "Sync": 2401,
      "Ġprivileges": 2402,
      "ï¿": 2403,
      "embly": 2404,
      "ark": 2405,
      "ï¿½": 2406,
      "Ġconf": 2407,
      "Ġlength": 2408,
      "ĠServices": 2409,
      "thed": 2410,
      "erm": 2411,
      "Ġorig": 2412,
      "ĠCR": 2413,
      "ported": 2414,
      "Ġ2021": 2415,
      "ĠGet": 2416,
      "bu": 2417,
      "example": 2418,
      "QA": 2419,
      "WARE": 2420,
      "olv": 2421,
      "ql": 2422,
      "ï¿½ï¿½": 2423,
      "DP": 2424,
      "Ġagain": 2425,
      "Ġorganization": 2426,
      "atter": 2427,
      "Ġaudit": 2428,
      "121": 2429,
      "abase": 2430,
      "Ġdetected": 2431,
      "Ġacc": 2432,
      "des": 2433,
      "Ġdirect": 2434,
      "cident": 2435,
      "Ġwant": 2436,
      "Ġbeing": 2437,
      "Auditing": 2438,
      "Rep": 2439,
      "itect": 2440,
      "CommandLine": 2441,
      "âĶ": 2442,
      "Ġrec": 2443,
      "Ġrunning": 2444,
      "BA": 2445,
      "les": 2446,
      "ht": 2447,
      "dential": 2448,
      "yber": 2449,
      "map": 2450,
      "ithub": 2451,
      "Ġrisk": 2452,
      "gener": 2453,
      "Ġvalues": 2454,
      "eal": 2455,
      "Off": 2456,
      "where": 2457,
      "ĠPower": 2458,
      "dat": 2459,
      "17514": 2460,
      "OUND": 2461,
      "ood": 2462,
      "mages": 2463,
      "ture": 2464,
      "ES": 2465,
      "Manager": 2466,
      "Backup": 2467,
      "OL": 2468,
      "Ġcalled": 2469,
      "rivers": 2470,
      "HKCU": 2471,
      "fb": 2472,
      ".(": 2473,
      "ie": 2474,
      "Ġfl": 2475,
      "],": 2476,
      "ING": 2477,
      "echnique": 2478,
      "Load": 2479,
      "reak": 2480,
      "Ġsource": 2481,
      "station": 2482,
      "ends": 2483,
      "BC": 2484,
      "Ġwor": 2485,
      "Section": 2486,
      "MS": 2487,
      "iï¬ģ": 2488,
      "Ġ#": 2489,
      "Ġpage": 2490,
      "ied": 2491,
      "otential": 2492,
      "atform": 2493,
      "ector": 2494,
      "ffer": 2495,
      "Ġinstall": 2496,
      "507": 2497,
      "return": 2498,
      "Ġlevel": 2499,
      "andom": 2500,
      "but": 2501,
      "RI": 2502,
      "ĠHashes": 2503,
      "Ġblock": 2504,
      "Ġbased": 2505,
      "ral": 2506,
      "ric": 2507,
      "CRONENBERG": 2508,
      "Azure": 2509,
      "ality": 2510,
      "SessionId": 2511,
      "rodu": 2512,
      "Ġwin": 2513,
      "Ġhelp": 2514,
      "ister": 2515,
      "oldf": 2516,
      "Ġmalicious": 2517,
      "vanced": 2518,
      "xx": 2519,
      "ounts": 2520,
      "Ġwere": 2521,
      "WS": 2522,
      "ined": 2523,
      "ĠExplorer": 2524,
      "MA": 2525,
      "-..": 2526,
      "++": 2527,
      "sc": 2528,
      "DX": 2529,
      "pass": 2530,
      "etc": 2531,
      "Ġthreat": 2532,
      "structure": 2533,
      "Ġapp": 2534,
      "oldfield": 2535,
      "004": 2536,
      "Ġrequire": 2537,
      "ĠAttack": 2538,
      "led": 2539,
      "det": 2540,
      "github": 2541,
      "ody": 2542,
      "ĠCurrentDirectory": 2543,
      "xim": 2544,
      "abled": 2545,
      "Refer": 2546,
      "part": 2547,
      "current": 2548,
      "Ġpoint": 2549,
      ",,": 2550,
      "ĠCode": 2551,
      "inc": 2552,
      "mod": 2553,
      "zer": 2554,
      "ues": 2555,
      "ck": 2556,
      "att": 2557,
      "Ġattacks": 2558,
      "ention": 2559,
      "ctive": 2560,
      "Ġcorrel": 2561,
      "ĠDele": 2562,
      "ĠLogonId": 2563,
      "method": 2564,
      "king": 2565,
      "ĠVM": 2566,
      "type": 2567,
      "WK": 2568,
      "sw": 2569,
      "ĠLogonGuid": 2570,
      "ĠIntegrityLevel": 2571,
      "ĠOper": 2572,
      "ason": 2573,
      "tract": 2574,
      "Ġeas": 2575,
      "domain": 2576,
      "ĠTerminalSessionId": 2577,
      "Ġevery": 2578,
      "ĠFOUND": 2579,
      "//_::_\\": 2580,
      "-..\\": 2581,
      "Ġinclude": 2582,
      "CK": 2583,
      "Ġ2020": 2584,
      "her": 2585,
      "asic": 2586,
      "âĸł": 2587,
      "ontroll": 2588,
      "CLS": 2589,
      "false": 2590,
      "Ġboth": 2591,
      "itory": 2592,
      "arameter": 2593,
      "class": 2594,
      "Det": 2595,
      "Ġresult": 2596,
      "Ġidentify": 2597,
      "ĠZ": 2598,
      "rome": 2599,
      "fl": 2600,
      "RU": 2601,
      "(\"": 2602,
      "Ġscript": 2603,
      "ĠUs": 2604,
      "only": 2605,
      "arg": 2606,
      "You": 2607,
      "IA": 2608,
      "USA": 2609,
      "Ġver": 2610,
      "ï»": 2611,
      "CLSID": 2612,
      "ggoldfield": 2613,
      "Ġem": 2614,
      "FTWARE": 2615,
      "aset": 2616,
      "Ġeven": 2617,
      "Size": 2618,
      "informational": 2619,
      "Ġbefore": 2620,
      "trans": 2621,
      "ĠParentImage": 2622,
      "'t": 2623,
      "mary": 2624,
      "jection": 2625,
      "Ġafter": 2626,
      "Ġbytes": 2627,
      "Default": 2628,
      "raffic": 2629,
      "Ġ_": 2630,
      "Ġ05": 2631,
      "rop": 2632,
      "ports": 2633,
      "ĠĠĠĠĠ": 2634,
      "Ġhard": 2635,
      "Ġenvironment": 2636,
      "Ġeff": 2637,
      "ĠAs": 2638,
      "anges": 2639,
      "998": 2640,
      "Ġmin": 2641,
      "Ġline": 2642,
      "ĠParentProcessGuid": 2643,
      "CED": 2644,
      "tmp": 2645,
      "ĠParentProcessId": 2646,
      "Ġlogs": 2647,
      "Ġes": 2648,
      "amp": 2649,
      "ding": 2650,
      "Ġapplications": 2651,
      "private": 2652,
      "EB": 2653,
      "ron": 2654,
      "Provider": 2655,
      "Ġse": 2656,
      "have": 2657,
      "ĠDirectory": 2658,
      "ension": 2659,
      "ĠCRONEN": 2660,
      "ĠParentCommandLine": 2661,
      "ately": 2662,
      "ots": 2663,
      "ĠLinux": 2664,
      "ypass": 2665,
      "overy": 2666,
      "Ġuses": 2667,
      "appro": 2668,
      "Ġallows": 2669,
      "PU": 2670,
      "ĠService": 2671,
      "Ġprevious": 2672,
      "Ġexecution": 2673,
      "Ġsize": 2674,
      "=--/": 2675,
      "ML": 2676,
      "GH": 2677,
      "Ġpri": 2678,
      "Ġtake": 2679,
      "ryptographic": 2680,
      "Access": 2681,
      "thet": 2682,
      "ĠĠĠĠĠĠĠ": 2683,
      "ython": 2684,
      "eli": 2685,
      "len": 2686,
      "ecf": 2687,
      "SOFTWARE": 2688,
      "Source": 2689,
      "Ġport": 2690,
      "Ġmultiple": 2691,
      "ands": 2692,
      "Ġshown": 2693,
      "Ġoccur": 2694,
      "inary": 2695,
      "WOW": 2696,
      "Ġcurrent": 2697,
      "Listing": 2698,
      "medi": 2699,
      "BHUSA": 2700,
      "=_": 2701,
      "Ġrequested": 2702,
      "(:_": 2703,
      "Ġalways": 2704,
      "Ġfound": 2705,
      "Ġdefault": 2706,
      "Ġpossible": 2707,
      "ton": 2708,
      "Ġ;": 2709,
      "Ġpar": 2710,
      "list": 2711,
      "rect": 2712,
      "dition": 2713,
      "</": 2714,
      "ulnerability": 2715,
      "................................................................": 2716,
      "ORD": 2717,
      "Ġdetection": 2718,
      "Hostname": 2719,
      "ii": 2720,
      "Classes": 2721,
      "CO": 2722,
      "->": 2723,
      "DLL": 2724,
      "edia": 2725,
      "iff": 2726,
      "442": 2727,
      "Up": 2728,
      "2023": 2729,
      "Ġcommun": 2730,
      "Ġimportant": 2731,
      "astic": 2732,
      "Ġcontain": 2733,
      "00107": 2734,
      "Ġbl": 2735,
      "Ġimage": 2736,
      "\")": 2737,
      "*]": 2738,
      "dec": 2739,
      "input": 2740,
      "tx": 2741,
      "Ġind": 2742,
      "istic": 2743,
      "Ġchar": 2744,
      "service": 2745,
      "idd": 2746,
      "Ipv": 2747,
      "ffff": 2748,
      "Ġvery": 2749,
      "object": 2750,
      "Ġpartic": 2751,
      "ĠGUID": 2752,
      "ĠDis": 2753,
      "Web": 2754,
      "151": 2755,
      "ership": 2756,
      "LQ": 2757,
      "rchitect": 2758,
      "yz": 2759,
      "ĠTrans": 2760,
      "br": 2761,
      "blem": 2762,
      "Ġtraining": 2763,
      "Ġvalid": 2764,
      "Ġkernel": 2765,
      "ertificate": 2766,
      "PortName": 2767,
      "fol": 2768,
      "îģĨ": 2769,
      "IsIpv": 2770,
      "Handle": 2771,
      "ret": 2772,
      "Ġcases": 2773,
      "ATION": 2774,
      "echnolog": 2775,
      "âĢĲ": 2776,
      "ĠPowerShell": 2777,
      "bat": 2778,
      "ĠOff": 2779,
      "Special": 2780,
      "Ġcloud": 2781,
      "rowser": 2782,
      "ĠAnalysis": 2783,
      "ray": 2784,
      "Ġresults": 2785,
      "Ġnext": 2786,
      "bers": 2787,
      "Ġassigned": 2788,
      "eleg": 2789,
      "inthe": 2790,
      "Ġclient": 2791,
      "Ġrespon": 2792,
      "Ġcontains": 2793,
      "vant": 2794,
      "ier": 2795,
      "Ġwithout": 2796,
      "epar": 2797,
      "indow": 2798,
      "ULL": 2799,
      "Ġtext": 2800,
      "istory": 2801,
      "%\\": 2802,
      "eful": 2803,
      "Ġunderstand": 2804,
      "mov": 2805,
      "ĠSid": 2806,
      "Ġstate": 2807,
      "Ġleft": 2808,
      "ather": 2809,
      "nt": 2810,
      "PC": 2811,
      "217": 2812,
      "Ġmodels": 2813,
      "state": 2814,
      "TION": 2815,
      "Ġcredential": 2816,
      "Ġ24": 2817,
      "wn": 2818,
      "hether": 2819,
      "pk": 2820,
      "ibrary": 2821,
      "includ": 2822,
      "9800": 2823,
      "Ġlong": 2824,
      "ensive": 2825,
      "Ġprocesses": 2826,
      "ellig": 2827,
      "Ġdiscuss": 2828,
      "acc": 2829,
      "prise": 2830,
      "yte": 2831,
      "respon": 2832,
      "8427": 2833,
      "Ġdon": 2834,
      "MI": 2835,
      "When": 2836,
      "ush": 2837,
      "tect": 2838,
      "CF": 2839,
      "ised": 2840,
      "ĠSidType": 2841,
      "Store": 2842,
      "usion": 2843,
      "ĠAuthentication": 2844,
      "UATSERVER": 2845,
      "oint": 2846,
      "cripts": 2847,
      "âĶĢ": 2848,
      "0100": 2849,
      "Ġfunctions": 2850,
      "ĠProcessor": 2851,
      "anc": 2852,
      "ĠRE": 2853,
      "ĠPackage": 2854,
      "Ġteam": 2855,
      "Ġwrit": 2856,
      "Ġanother": 2857,
      "327": 2858,
      "rt": 2859,
      "9800998": 2860,
      "Ġexp": 2861,
      "Ġthose": 2862,
      "Ġ==": 2863,
      "sk": 2864,
      "such": 2865,
      "ural": 2866,
      "ĠSplunk": 2867,
      "Ġshell": 2868,
      "version": 2869,
      "CEE": 2870,
      "ream": 2871,
      "MAN": 2872,
      "ole": 2873,
      "Ġautom": 2874,
      "ĠAI": 2875,
      "ended": 2876,
      "INDX": 2877,
      "SysWOW": 2878,
      "ls": 2879,
      "Ġselect": 2880,
      "Ġsingle": 2881,
      "HKCR": 2882,
      "adml": 2883,
      "Internet": 2884,
      "ĠOn": 2885,
      "iness": 2886,
      "Ġens": 2887,
      "Ġdevices": 2888,
      "115": 2889,
      "see": 2890,
      "Conn": 2891,
      "ĠProtocol": 2892,
      "AGE": 2893,
      "Ġadvers": 2894,
      "All": 2895,
      "Ġmanagement": 2896,
      "aces": 2897,
      "Ġstring": 2898,
      "__\"\\": 2899,
      "=\"%__\"\\": 2900,
      "SP": 2901,
      "Cache": 2902,
      "kely": 2903,
      "achine": 2904,
      "[*]": 2905,
      "everal": 2906,
      "Ġexecute": 2907,
      "exp": 2908,
      "pose": 2909,
      "empt": 2910,
      "238": 2911,
      "path": 2912,
      "SA": 2913,
      "ifier": 2914,
      "Defin": 2915,
      "izations": 2916,
      "ktop": 2917,
      "Index": 2918,
      "Ġformat": 2919,
      "163": 2920,
      "Ġresponse": 2921,
      "Imperson": 2922,
      "address": 2923,
      "Ġhead": 2924,
      "ĠThreat": 2925,
      "status": 2926,
      "Ġ`": 2927,
      "ĠAzure": 2928,
      "Int": 2929,
      "CAL": 2930,
      "GroupPolicy": 2931,
      "DD": 2932,
      "Ġemail": 2933,
      "Bu": 2934,
      "Ġtraffic": 2935,
      "Ġquery": 2936,
      "Ġincluding": 2937,
      "Ġsupport": 2938,
      "ĠInt": 2939,
      "Mod": 2940,
      "oper": 2941,
      "Ġwhile": 2942,
      "].": 2943,
      "ynam": 2944,
      "Domain": 2945,
      "Ġtoken": 2946,
      "Strings": 2947,
      "Ġlink": 2948,
      "IST": 2949,
      "GET": 2950,
      "util": 2951,
      "ysical": 2952,
      "Ġcustom": 2953,
      "imit": 2954,
      "aged": 2955,
      "ertain": 2956,
      "Ġmeans": 2957,
      "---": 2958,
      "Debug": 2959,
      "Tr": 2960,
      "active": 2961,
      "Ġvirtual": 2962,
      "itch": 2963,
      "Ġtim": 2964,
      "Ġtrue": 2965,
      "gA": 2966,
      "agent": 2967,
      "OK": 2968,
      "ĠUse": 2969,
      "CreateFile": 2970,
      "RegQueryValue": 2971,
      "Ġorder": 2972,
      "estore": 2973,
      "ository": 2974,
      "ries": 2975,
      "EAD": 2976,
      "elligence": 2977,
      "ration": 2978,
      "level": 2979,
      "Ġchange": 2980,
      "tocols": 2981,
      "Ġrecor": 2982,
      "Ġarg": 2983,
      "oz": 2984,
      "Or": 2985,
      "ensor": 2986,
      "Ġpath": 2987,
      "Trans": 2988,
      "Ġbuild": 2989,
      "811": 2990,
      "ĠReg": 2991,
      "Google": 2992,
      "idx": 2993,
      "vert": 2994,
      "web": 2995,
      ")=": 2996,
      "Ġhere": 2997,
      "ses": 2998,
      "116": 2999,
      "BD": 3000,
      "ivid": 3001,
      "Ġimperson": 3002,
      "rup": 3003,
      "assembly": 3004,
      "ox": 3005,
      "Ġpayload": 3006,
      "olicies": 3007,
      "rive": 3008,
      "urther": 3009,
      "Ġhash": 3010,
      "application": 3011,
      "Ġevents": 3012,
      "Author": 3013,
      "output": 3014,
      "106": 3015,
      "ĠWhen": 3016,
      "MM": 3017,
      "lease": 3018,
      "PD": 3019,
      "wA": 3020,
      "usiness": 3021,
      "nn": 3022,
      "Ġmessage": 3023,
      "Ġ->": 3024,
      "cle": 3025,
      "ĠAddress": 3026,
      "ĠHowever": 3027,
      "Application": 3028,
      "Ġcons": 3029,
      "Ġmodule": 3030,
      "References": 3031,
      "itig": 3032,
      "Re": 3033,
      "eep": 3034,
      "ĠNot": 3035,
      "Repository": 3036,
      "Ġdirectory": 3037,
      "Ġstructure": 3038,
      "ĠAp": 3039,
      "ĠHTTP": 3040,
      "value": 3041,
      "573": 3042,
      "Ġsimilar": 3043,
      "TER": 3044,
      "earning": 3045,
      "Ġinf": 3046,
      "Ġret": 3047,
      "illa": 3048,
      "uses": 3049,
      "Cl": 3050,
      "Ġ54": 3051,
      "ĠThese": 3052,
      "rundll": 3053,
      "ulation": 3054,
      "Ġ80": 3055,
      "Ġtak": 3056,
      "âĶĢâĶĢ": 3057,
      "Red": 3058,
      "ital": 3059,
      "ociated": 3060,
      "has": 3061,
      "Length": 3062,
      "irm": 3063,
      "Ġ32": 3064,
      "Ġknown": 3065,
      "oin": 3066,
      "856": 3067,
      "sm": 3068,
      "Ġsent": 3069,
      "how": 3070,
      "wall": 3071,
      "IC": 3072,
      "di": 3073,
      "ived": 3074,
      "ĠChapter": 3075,
      "way": 3076,
      "ently": 3077,
      "Ġvulnerability": 3078,
      "elow": 3079,
      "request": 3080,
      "Ġduring": 3081,
      "ĠCloud": 3082,
      "Ġtechniques": 3083,
      "ng": 3084,
      "ourse": 3085,
      "Ġstack": 3086,
      "There": 3087,
      "ensic": 3088,
      "ĠAttributes": 3089,
      "Ġauditing": 3090,
      "etter": 3091,
      "Ġlet": 3092,
      "uthentic": 3093,
      "ref": 3094,
      "AI": 3095,
      "echan": 3096,
      "Ġreal": 3097,
      "PN": 3098,
      "385": 3099,
      "0000000000": 3100,
      "107": 3101,
      "aws": 3102,
      "ender": 3103,
      "acts": 3104,
      "Table": 3105,
      "elegation": 3106,
      "ĠCont": 3107,
      "CloseKey": 3108,
      "Ġerror": 3109,
      "los": 3110,
      "Ġconsider": 3111,
      "ï¬ģn": 3112,
      "Tools": 3113,
      "EY": 3114,
      "core": 3115,
      "wow": 3116,
      "Ġoption": 3117,
      "Ġstill": 3118,
      "RegCloseKey": 3119,
      "Ġdest": 3120,
      "128": 3121,
      "ĠGener": 3122,
      "Dis": 3123,
      "Ġagainst": 3124,
      "[]": 3125,
      "sup": 3126,
      "Run": 3127,
      "HE": 3128,
      "Ġmuch": 3129,
      "104": 3130,
      "Environment": 3131,
      "config": 3132,
      "icket": 3133,
      "Ġable": 3134,
      "What": 3135,
      "index": 3136,
      "eve": 3137,
      "Ġresources": 3138,
      "127": 3139,
      "ĠĠĠĠĠĠ": 3140,
      "ĠExec": 3141,
      "missions": 3142,
      "no": 3143,
      "rc": 3144,
      "thel": 3145,
      "test": 3146,
      "Ġcontent": 3147,
      "105": 3148,
      "onents": 3149,
      "uting": 3150,
      "air": 3151,
      "DB": 3152,
      "DriverStore": 3153,
      "ăăăă": 3154,
      "ibility": 3155,
      "known": 3156,
      "ects": 3157,
      "Ġpotential": 3158,
      "ersistence": 3159,
      "usp": 3160,
      "ermine": 3161,
      "LOCAL": 3162,
      "ories": 3163,
      "body": 3164,
      "amed": 3165,
      "Ġtable": 3166,
      "ished": 3167,
      "Ġenter": 3168,
      "Ġprovides": 3169,
      "struct": 3170,
      "FCED": 3171,
      "Ġrece": 3172,
      "=--\\": 3173,
      "=---\\": 3174,
      "=--/\\": 3175,
      "ecess": 3176,
      "aps": 3177,
      "pack": 3178,
      "Ġcredentials": 3179,
      "MAC": 3180,
      "Ġdatabase": 3181,
      "Write": 3182,
      "Ġdocument": 3183,
      "erved": 3184,
      "ither": 3185,
      "ĠOS": 3186,
      "CurrentVersion": 3187,
      "Ġscan": 3188,
      "Pl": 3189,
      "MB": 3190,
      "bed": 3191,
      "Ġshows": 3192,
      "Ġstandard": 3193,
      "Kerberos": 3194,
      "PT": 3195,
      "Pr": 3196,
      "Ġhe": 3197,
      "Definitions": 3198,
      "iver": 3199,
      "essages": 3200,
      "havior": 3201,
      "more": 3202,
      "spec": 3203,
      "000000": 3204,
      ".\\": 3205,
      "api": 3206,
      "kA": 3207,
      "Ġlast": 3208,
      "Ġtry": 3209,
      "ade": 3210,
      "bl": 3211,
      "ta": 3212,
      "Ġpolicy": 3213,
      "Ġfilter": 3214,
      "Ġapproach": 3215,
      "ready": 3216,
      "ites": 3217,
      "2500": 3218,
      "ozilla": 3219,
      "HEL": 3220,
      "50727": 3221,
      "admin": 3222,
      "Ġinitial": 3223,
      "(:_)\\": 3224,
      "Exec": 3225,
      "Ġlearning": 3226,
      "=__(:_)\\": 3227,
      "Rec": 3228,
      "PolicyDefinitions": 3229,
      "root": 3230,
      "when": 3231,
      "che": 3232,
      "acker": 3233,
      "Ġactivity": 3234,
      "Bank": 3235,
      "rec": 3236,
      "Ġtop": 3237,
      "PowerShell": 3238,
      "ictim": 3239,
      "Ġpublic": 3240,
      "Ġmov": 3241,
      "izing": 3242,
      "UI": 3243,
      "UN": 3244,
      "rix": 3245,
      "flow": 3246,
      "Ġsubject": 3247,
      "ĠSet": 3248,
      "fil": 3249,
      "Ġmode": 3250,
      "ĠId": 3251,
      "Ġroot": 3252,
      "new": 3253,
      "kes": 3254,
      "Ġele": 3255,
      "rchitecture": 3256,
      "Ġed": 3257,
      "til": 3258,
      "rastructure": 3259,
      "FileRepository": 3260,
      "roy": 3261,
      "each": 3262,
      "Logfile": 3263,
      "ĠSoftware": 3264,
      "dis": 3265,
      "PA": 3266,
      "emote": 3267,
      "Ġthread": 3268,
      "0000000000000000": 3269,
      "Enable": 3270,
      "ternal": 3271,
      "ception": 3272,
      "uesday": 3273,
      "plore": 3274,
      "Ġwrite": 3275,
      "udp": 3276,
      "HELP": 3277,
      "sim": 3278,
      "Ġcontrols": 3279,
      "learning": 3280,
      "side": 3281,
      "there": 3282,
      "html": 3283,
      "--::": 3284,
      "EM": 3285,
      "ij": 3286,
      "OC": 3287,
      "Ġadditional": 3288,
      "echanis": 3289,
      "alware": 3290,
      "head": 3291,
      "void": 3292,
      "ĠFigure": 3293,
      "Command": 3294,
      "elight": 3295,
      "perty": 3296,
      "Ġnon": 3297,
      "ded": 3298,
      "ilt": 3299,
      "HELPDESK": 3300,
      "Ġrest": 3301,
      "lib": 3302,
      "lex": 3303,
      ".\",\"": 3304,
      "ecan": 3305,
      "HQ": 3306,
      "irewall": 3307,
      "\":\"--::": 3308,
      "\":\"--::.\",\"": 3309,
      "Ġwho": 3310,
      "\"\"": 3311,
      "nsm": 3312,
      "ĠMonitor": 3313,
      "atest": 3314,
      "114": 3315,
      "pkts": 3316,
      "tuesday": 3317,
      "march": 3318,
      "{\"\":\"--::.\",\"": 3319,
      "Take": 3320,
      "ym": 3321,
      "ďă": 3322,
      "tra": 3323,
      "Ġfoc": 3324,
      "eline": 3325,
      "control": 3326,
      "sequ": 3327,
      "like": 3328,
      "pe": 3329,
      "ĠWhat": 3330,
      "corelight": 3331,
      "gent": 3332,
      "{\"\":\"--::.\",\"\":\"": 3333,
      "Ġbook": 3334,
      "self": 3335,
      "ĠDLL": 3336,
      "Ġ)": 3337,
      "Package": 3338,
      "atible": 3339,
      "your": 3340,
      "Ġprevent": 3341,
      "itation": 3342,
      "Ġcommonly": 3343,
      "imate": 3344,
      "ïº": 3345,
      "success": 3346,
      "GG": 3347,
      "odes": 3348,
      "ĈĈ": 3349,
      "ants": 3350,
      "ird": 3351,
      "ience": 3352,
      "Ġpur": 3353,
      "task": 3354,
      "Ġloc": 3355,
      "QQBBAEEAQQBBAEEA": 3356,
      "zz": 3357,
      "ercise": 3358,
      "Ġclick": 3359,
      "Ġcommands": 3360,
      "Ac": 3361,
      "aging": 3362,
      "mem": 3363,
      "HU": 3364,
      "ĠPl": 3365,
      "Ġ44": 3366,
      "disc": 3367,
      "Ġbr": 3368,
      "ĠIDs": 3369,
      "ifying": 3370,
      "sub": 3371,
      "prod": 3372,
      "Ġthree": 3373,
      "ServerManager": 3374,
      "idence": 3375,
      "andles": 3376,
      "Ġcomprom": 3377,
      "Ġinstructions": 3378,
      "ĠWeb": 3379,
      "site": 3380,
      "though": 3381,
      "Ġadministrat": 3382,
      "Â®": 3383,
      "unknown": 3384,
      "XX": 3385,
      "ĠLast": 3386,
      "317": 3387,
      "One": 3388,
      "Ġpresent": 3389,
      "into": 3390,
      "îģĬ": 3391,
      "go": 3392,
      "gin": 3393,
      "Ġfew": 3394,
      "owed": 3395,
      "Settings": 3396,
      "Ġlater": 3397,
      "Work": 3398,
      "INE": 3399,
      "Ġgood": 3400,
      "ĠPort": 3401,
      "ĠActive": 3402,
      "prob": 3403,
      "ists": 3404,
      "may": 3405,
      "Content": 3406,
      "Ġposit": 3407,
      "Dump": 3408,
      "Ġstored": 3409,
      "adf": 3410,
      "381": 3411,
      "ness": 3412,
      "Ġauthor": 3413,
      "pace": 3414,
      "Ġeffect": 3415,
      "Ġlayer": 3416,
      "Ġright": 3417,
      "most": 3418,
      "îĢ»": 3419,
      "Ġrequired": 3420,
      "Detection": 3421,
      "let": 3422,
      "ait": 3423,
      "Ġsimple": 3424,
      "Ġsignature": 3425,
      "memory": 3426,
      "Services": 3427,
      "002": 3428,
      "ances": 3429,
      "Admin": 3430,
      ".\":\"...\",\".\":,\"": 3431,
      "\",\".\":\"...\",\".\":,\"": 3432,
      "{\"\":\"--::.\",\"\":\"\",\".\":\"...\",\".\":,\"": 3433,
      ".\":\"...\",\".\":,\"\"": 3434,
      "{\"\":\"--::.\",\"\":\"\",\".\":\"...\",\".\":,\".\":\"...\",\".\":,\"\"": 3435,
      "1254": 3436,
      "eventlog": 3437,
      "Ret": 3438,
      "uto": 3439,
      "ĠIN": 3440,
      "808": 3441,
      "Mozilla": 3442,
      "Ġlarge": 3443,
      "Ġcontext": 3444,
      "ledge": 3445,
      "txt": 3446,
      "ems": 3447,
      "Ġconfiguration": 3448,
      "sl": 3449,
      "imum": 3450,
      "Ġfeatures": 3451,
      "Ġview": 3452,
      "SecurityPrivilege": 3453,
      "logon": 3454,
      "IO": 3455,
      "acter": 3456,
      "ĠEv": 3457,
      "cs": 3458,
      "idden": 3459,
      "Ġdetect": 3460,
      "Ġrebo": 3461,
      "Ġreview": 3462,
      "Mode": 3463,
      "prov": 3464,
      "608": 3465,
      "emon": 3466,
      "oken": 3467,
      "Ġ201": 3468,
      "position": 3469,
      "xml": 3470,
      "Autom": 3471,
      "ears": 3472,
      "Let": 3473,
      "Other": 3474,
      "637": 3475,
      "endor": 3476,
      "Ġengine": 3477,
      "omware": 3478,
      "ah": 3479,
      "co": 3480,
      "cent": 3481,
      "board": 3482,
      "change": 3483,
      "FS": 3484,
      "Ġuseful": 3485,
      "ailure": 3486,
      "Ġlikely": 3487,
      "duction": 3488,
      "Ġupd": 3489,
      "2022": 3490,
      "Status": 3491,
      "Own": 3492,
      "overed": 3493,
      "Ġtesting": 3494,
      "just": 3495,
      "ĠDNS": 3496,
      "Ġsecure": 3497,
      "kernel": 3498,
      "Ġvis": 3499,
      "Ġregister": 3500,
      "SH": 3501,
      "Ġsecond": 3502,
      "search": 3503,
      "embed": 3504,
      "Ġ64": 3505,
      "Requ": 3506,
      "Citation": 3507,
      "var": 3508,
      "udent": 3509,
      "Ġoperating": 3510,
      "Thread": 3511,
      "Ġleg": 3512,
      "Ġrefer": 3513,
      "Ġargum": 3514,
      "uted": 3515,
      "Ġprotocols": 3516,
      "Path": 3517,
      "Result": 3518,
      "FAST": 3519,
      "contains": 3520,
      "ĠObject": 3521,
      "try": 3522,
      "ham": 3523,
      "Address": 3524,
      "Ġrights": 3525,
      "Ġoptions": 3526,
      "import": 3527,
      "ĠLogs": 3528,
      "||||": 3529,
      "========": 3530,
      "Ġsm": 3531,
      "echnology": 3532,
      "Ġ__": 3533,
      "Ġwhether": 3534,
      "Ġaccessed": 3535,
      "Administrator": 3536,
      "Ġpract": 3537,
      "rem": 3538,
      "ensitive": 3539,
      "Files": 3540,
      "ĠThere": 3541,
      "ĠLab": 3542,
      "sn": 3543,
      "120": 3544,
      "ĠDC": 3545,
      "ĠApp": 3546,
      "ividual": 3547,
      "Chrome": 3548,
      "Not": 3549,
      "string": 3550,
      "Ġchanges": 3551,
      "Ġques": 3552,
      "729": 3553,
      "Ġfull": 3554,
      "ators": 3555,
      "direct": 3556,
      "Ġbinary": 3557,
      "Ġinvestig": 3558,
      "igital": 3559,
      "Ġdown": 3560,
      "sto": 3561,
      "ises": 3562,
      "eries": 3563,
      "Machine": 3564,
      "alc": 3565,
      "edium": 3566,
      "Ġkind": 3567,
      "API": 3568,
      "UA": 3569,
      "tern": 3570,
      "Ġchapter": 3571,
      "they": 3572,
      "Ġmatch": 3573,
      "ommon": 3574,
      "chron": 3575,
      "ĠExploit": 3576,
      "Ġgu": 3577,
      "cons": 3578,
      "Ġdownload": 3579,
      "Ġaccounts": 3580,
      "ĠIm": 3581,
      "Ġdriver": 3582,
      "rivacy": 3583,
      "Ġtcp": 3584,
      "Ġproduct": 3585,
      "Delegation": 3586,
      "Ġdestroy": 3587,
      "Ġ04": 3588,
      "Restore": 3589,
      "group": 3590,
      "fact": 3591,
      "-.": 3592,
      "Start": 3593,
      "book": 3594,
      "utral": 3595,
      "Ġobjects": 3596,
      "Ap": 3597,
      "right": 3598,
      "assword": 3599,
      ".)": 3600,
      "ker": 3601,
      "ĠPr": 3602,
      "Impersonate": 3603,
      "ĠInternet": 3604,
      "ĠOffice": 3605,
      "cA": 3606,
      "col": 3607,
      "Ġpromp": 3608,
      "OP": 3609,
      "Ġseveral": 3610,
      "some": 3611,
      "sql": 3612,
      "corp": 3613,
      "Ġlearn": 3614,
      "Ġbit": 3615,
      "asion": 3616,
      "Nt": 3617,
      "iï¬ģc": 3618,
      "ensics": 3619,
      "selection": 3620,
      "Connect": 3621,
      "start": 3622,
      "Ġaddresses": 3623,
      "igger": 3624,
      "Cre": 3625,
      "ynchron": 3626,
      "zero": 3627,
      "Monitor": 3628,
      "With": 3629,
      "Ġfact": 3630,
      "Ġencryption": 3631,
      "tered": 3632,
      "ĠTeam": 3633,
      "ĠMod": 3634,
      "lobal": 3635,
      "inally": 3636,
      "Now": 3637,
      "through": 3638,
      "Ġincre": 3639,
      "ĠOptions": 3640,
      "Ġ27": 3641,
      "compatible": 3642,
      "Ev": 3643,
      "sign": 3644,
      "DebugPrivilege": 3645,
      "Ġ26": 3646,
      "ĠâĢĶ": 3647,
      "ImpersonatePrivilege": 3648,
      "size": 3649,
      "âĨ": 3650,
      "ava": 3651,
      "ope": 3652,
      "TP": 3653,
      "Ġbest": 3654,
      "Ġvulnerabilities": 3655,
      "Ġform": 3656,
      "prn": 3657,
      "author": 3658,
      "LoadDriver": 3659,
      "Ġ~": 3660,
      "dr": 3661,
      "Ġprotocol": 3662,
      "ĠGoogle": 3663,
      "ILE": 3664,
      "88217": 3665,
      "DK": 3666,
      "lastic": 3667,
      "NoHandle": 3668,
      "303": 3669,
      "List": 3670,
      "Ass": 3671,
      "eLSBank": 3672,
      "ĠStorage": 3673,
      "ensions": 3674,
      "dir": 3675,
      "doc": 3676,
      "Ownership": 3677,
      "ynamic": 3678,
      "LoadDriverPrivilege": 3679,
      "1016": 3680,
      "BackupPrivilege": 3681,
      "Ġdeploy": 3682,
      "adata": 3683,
      "command": 3684,
      "SystemEnvironment": 3685,
      "Note": 3686,
      "rep": 3687,
      "Im": 3688,
      "Ġspace": 3689,
      "061": 3690,
      "neutral": 3691,
      "SystemEnvironmentPrivilege": 3692,
      "NN": 3693,
      "ople": 3694,
      "TakeOwnership": 3695,
      "Ġcho": 3696,
      ">>>": 3697,
      "TakeOwnershipPrivilege": 3698,
      "DA": 3699,
      "hish": 3700,
      "ShAD": 3701,
      "ĠCor": 3702,
      "hide": 3703,
      "RestorePrivilege": 3704,
      "Ġperson": 3705,
      "igma": 3706,
      "Ġmain": 3707,
      "Of": 3708,
      "ENT": 3709,
      "Update": 3710,
      "Ġblank": 3711,
      "PE": 3712,
      "times": 3713,
      "Lab": 3714,
      "Ġpacket": 3715,
      "than": 3716,
      "ĠCLR": 3717,
      "WKH": 3718,
      "Ġprovider": 3719,
      "Ġcorrelated": 3720,
      "Ġdetails": 3721,
      "mitre": 3722,
      "DO": 3723,
      "ritical": 3724,
      "ĠWorkstation": 3725,
      "How": 3726,
      "Ġcr": 3727,
      "ĠSV": 3728,
      "Ġdescri": 3729,
      "fx": 3730,
      "Ġmethods": 3731,
      "tric": 3732,
      "AAAA": 3733,
      "plied": 3734,
      "ming": 3735,
      "ĠMSI": 3736,
      "ethod": 3737,
      "Ġart": 3738,
      "ĠPrivileges": 3739,
      "tain": 3740,
      "ymb": 3741,
      "block": 3742,
      "ĠPython": 3743,
      "look": 3744,
      "ÂłÂł": 3745,
      "Registry": 3746,
      "ocuments": 3747,
      "ĠManager": 3748,
      "Ġassociated": 3749,
      "content": 3750,
      "ĠCommand": 3751,
      "values": 3752,
      "lows": 3753,
      "Ġrepresent": 3754,
      "Ġbreak": 3755,
      "PRO": 3756,
      "was": 3757,
      "response": 3758,
      "âĢĿ.": 3759,
      "EnableDelegation": 3760,
      "><": 3761,
      "EnableDelegationPrivilege": 3762,
      "Ġdebug": 3763,
      "102": 3764,
      "program": 3765,
      "hood": 3766,
      "Ġdestroyed": 3767,
      "ool": 3768,
      "mission": 3769,
      "ĠTr": 3770,
      "Ġcalls": 3771,
      "ĠDelete": 3772,
      "derstand": 3773,
      "Ġdisk": 3774,
      "Ġpe": 3775,
      "client": 3776,
      "DFI": 3777,
      "Ġ29": 3778,
      "verse": 3779,
      "400": 3780,
      "407": 3781,
      "enari": 3782,
      "ï¬Ĥ": 3783,
      "Pack": 3784,
      "Ġactiv": 3785,
      "perties": 3786,
      "perform": 3787,
      "dict": 3788,
      "Ġreboots": 3789,
      "Ġpower": 3790,
      "election": 3791,
      "eys": 3792,
      "Ġear": 3793,
      "Management": 3794,
      "ĠMSIE": 3795,
      "jump": 3796,
      "ifies": 3797,
      "mark": 3798,
      "ached": 3799,
      "ï¿½ï¿½ï¿½ï¿½": 3800,
      "CI": 3801,
      "write": 3802,
      "oh": 3803,
      "Ġu": 3804,
      "post": 3805,
      "OUR": 3806,
      "Ġensure": 3807,
      "Ġrule": 3808,
      "Ġ\"/": 3809,
      "ĠAWS": 3810,
      "ĠClass": 3811,
      "aving": 3812,
      "Ġ200": 3813,
      "adfF": 3814,
      "ShADadfF": 3815,
      "Ġbelow": 3816,
      "NTLM": 3817,
      "________________________________": 3818,
      "atically": 3819,
      "Ġinternal": 3820,
      "apping": 3821,
      "Ġplace": 3822,
      "Ġ25": 3823,
      "ecessary": 3824,
      "Ġwindow": 3825,
      "onent": 3826,
      "duce": 3827,
      "ELD": 3828,
      "LAB": 3829,
      "Ġkeys": 3830,
      "464": 3831,
      "tected": 3832,
      "ĠIdent": 3833,
      "Ġrules": 3834,
      "Ġfeature": 3835,
      "ĠAND": 3836,
      "PL": 3837,
      "models": 3838,
      "712": 3839,
      "ĠGu": 3840,
      "shell": 3841,
      "Ġpositively": 3842,
      "Ġacross": 3843,
      "Ġtechnique": 3844,
      "Ġproject": 3845,
      "172": 3846,
      "deploy": 3847,
      "need": 3848,
      "provid": 3849,
      "ty": 3850,
      "graph": 3851,
      "ĠTCP": 3852,
      "rror": 3853,
      "Ġoperations": 3854,
      "Ġsince": 3855,
      "umbers": 3856,
      "Ġvarious": 3857,
      "DU": 3858,
      "vc": 3859,
      "Ġequ": 3860,
      ".âĢĿ": 3861,
      "ansomware": 3862,
      "ĠĠĠĠĠĠĠĠĠ": 3863,
      "actic": 3864,
      "Ġnames": 3865,
      "check": 3866,
      "Ġgenerate": 3867,
      "ploy": 3868,
      "Ġest": 3869,
      "030": 3870,
      "FE": 3871,
      "services": 3872,
      "gorithms": 3873,
      "îģĦ": 3874,
      "itiated": 3875,
      "354": 3876,
      "Ġpop": 3877,
      "ison": 3878,
      "vestig": 3879,
      "dev": 3880,
      "Ident": 3881,
      "Ġalready": 3882,
      "PO": 3883,
      "FI": 3884,
      "VER": 3885,
      "ares": 3886,
      "users": 3887,
      "Ġsigned": 3888,
      "Ġevalu": 3889,
      "Ġoriginal": 3890,
      "Ġ36": 3891,
      "CL": 3892,
      "ĠShare": 3893,
      "/*": 3894,
      "ĠCRONENBERG": 3895,
      "Ġissu": 3896,
      "uman": 3897,
      "what": 3898,
      "elihood": 3899,
      "Search": 3900,
      "step": 3901,
      "writ": 3902,
      "Ġlocation": 3903,
      "about": 3904,
      "Ġdirectly": 3905,
      "irection": 3906,
      "ĠURL": 3907,
      "496": 3908,
      "Ġsteps": 3909,
      "unting": 3910,
      "Ġmy": 3911,
      "Ġgiven": 3912,
      "Ġstorage": 3913,
      "locationSize": 3914,
      "ĠRe": 3915,
      "Offset": 3916,
      "eto": 3917,
      "BF": 3918,
      "filter": 3919,
      "Net": 3920,
      "VMware": 3921,
      "Ġorigin": 3922,
      "ali": 3923,
      "asure": 3924,
      "Ġbec": 3925,
      "Fl": 3926,
      "ĠUS": 3927,
      "Model": 3928,
      "Ġneeds": 3929,
      "drivers": 3930,
      "witch": 3931,
      "istics": 3932,
      "Ġgreat": 3933,
      "Ġdetermine": 3934,
      "ĠIO": 3935,
      "Ġdesign": 3936,
      "Ġfollow": 3937,
      "Ġtypically": 3938,
      "Ġnormal": 3939,
      "Ġshow": 3940,
      "Storage": 3941,
      "ety": 3942,
      "='": 3943,
      "resh": 3944,
      "Ġcollect": 3945,
      "Ġcount": 3946,
      "Ġadversary": 3947,
      "ayers": 3948,
      "DR": 3949,
      "Ġattempt": 3950,
      "TA": 3951,
      "order": 3952,
      "ĠManagement": 3953,
      "Use": 3954,
      "mean": 3955,
      "Ġdetailed": 3956,
      "ĠUsing": 3957,
      "Gener": 3958,
      "Ġconnect": 3959,
      "212": 3960,
      "New": 3961,
      "010": 3962,
      "Ġheader": 3963,
      "MO": 3964,
      "protocol": 3965,
      "mediate": 3966,
      "Ġdisplay": 3967,
      "Ġstop": 3968,
      "voke": 3969,
      "=-.": 3970,
      "=-.-..\\": 3971,
      "Ġsec": 3972,
      "ĠProvider": 3973,
      "ĠATT": 3974,
      "condition": 3975,
      "DFIELD": 3976,
      "OLDFIELD": 3977,
      "Ġincludes": 3978,
      "roid": 3979,
      "terprise": 3980,
      "Pre": 3981,
      "feat": 3982,
      "ulate": 3983,
      "005": 3984,
      "sole": 3985,
      "However": 3986,
      "parameters": 3987,
      "andler": 3988,
      "Ġregistry": 3989,
      "URL": 3990,
      "Ġlanguage": 3991,
      "Client": 3992,
      "402": 3993,
      "Ġrele": 3994,
      "enter": 3995,
      "Resources": 3996,
      "kens": 3997,
      "mong": 3998,
      "Ġfolder": 3999,
      "olve": 4000,
      "ontroller": 4001,
      "Ġabove": 4002,
      "script": 4003,
      "Ġanalyz": 4004,
      "help": 4005,
      "wm": 4006,
      "optim": 4007,
      "Ġlead": 4008,
      "Ġparticular": 4009,
      "Ġoccurred": 4010,
      "conf": 4011,
      "504": 4012,
      "Ġcommunication": 4013,
      "my": 4014,
      "Ġam": 4015,
      "Ġmaint": 4016,
      "Ġextract": 4017,
      "az": 4018,
      "ename": 4019,
      "Ġrequests": 4020,
      "source": 4021,
      "uspicious": 4022,
      "ĠNTLM": 4023,
      "Dep": 4024,
      "ceed": 4025,
      "Ġrequires": 4026,
      "asp": 4027,
      "Ga": 4028,
      "rst": 4029,
      "2024": 4030,
      "url": 4031,
      "ĠModel": 4032,
      "Ġrelated": 4033,
      "Ġcomplete": 4034,
      "actions": 4035,
      "HINE": 4036,
      "down": 4037,
      "light": 4038,
      "tp": 4039,
      "Ġdel": 4040,
      "ĠOr": 4041,
      "ectors": 4042,
      "ummary": 4043,
      "Ġinstead": 4044,
      "ï£": 4045,
      "123": 4046,
      "--------------------------------": 4047,
      "003": 4048,
      "****": 4049,
      "Ġbrowser": 4050,
      "link": 4051,
      "Script": 4052,
      "ALL": 4053,
      "156": 4054,
      "Ġassess": 4055,
      "common": 4056,
      "empl": 4057,
      "Ġprocessing": 4058,
      "also": 4059,
      "base": 4060,
      "thev": 4061,
      "Ġreason": 4062,
      "stat": 4063,
      "Ġbetter": 4064,
      "redential": 4065,
      "clus": 4066,
      "IZ": 4067,
      "GGOLDFIELD": 4068,
      "Ġvariable": 4069,
      "exploit": 4070,
      "âĨĴ": 4071,
      "organ": 4072,
      "SeSecurityPrivilege": 4073,
      "ground": 4074,
      "ypes": 4075,
      "('": 4076,
      "Ġcertain": 4077,
      "points": 4078,
      "Ġinterface": 4079,
      "Ġcomplex": 4080,
      "learn": 4081,
      "Ġprior": 4082,
      "Ġexam": 4083,
      "unc": 4084,
      "1023": 4085,
      "swer": 4086,
      "blog": 4087,
      "Ġmechanis": 4088,
      "poration": 4089,
      "Ġresource": 4090,
      "Ġtasks": 4091,
      "Ġorganizations": 4092,
      "obe": 4093,
      "fs": 4094,
      "Ġcopy": 4095,
      "ĠPre": 4096,
      "CT": 4097,
      "Ġsimply": 4098,
      "hishing": 4099,
      "Âµ": 4100,
      "ĠREG": 4101,
      "ĠSHA": 4102,
      "HV": 4103,
      "2021": 4104,
      "ribute": 4105,
      "ĠWrite": 4106,
      "Ġeither": 4107,
      "String": 4108,
      "Ġalgorithm": 4109,
      "Ġcorrect": 4110,
      "DWORD": 4111,
      "anged": 4112,
      "CN": 4113,
      "Amd": 4114,
      "Ġparameter": 4115,
      "ĠEnd": 4116,
      "Authentication": 4117,
      "usr": 4118,
      "ĠNone": 4119,
      "Ġless": 4120,
      "Ġwineventlog": 4121,
      "annel": 4122,
      "\"}": 4123,
      "cee": 4124,
      "distribution": 4125,
      "eventlogs": 4126,
      "ĠAnd": 4127,
      "Ġkeep": 4128,
      "Ġbusiness": 4129,
      "Ġbehavior": 4130,
      "Ġresearch": 4131,
      "512": 4132,
      "ĠNon": 4133,
      "ĠDisposition": 4134,
      "oo": 4135,
      "Office": 4136,
      "380": 4137,
      "Ġel": 4138,
      "msg": 4139,
      "Ġexamples": 4140,
      "ĠNo": 4141,
      "ogn": 4142,
      "MACHINE": 4143,
      "ĠGroup": 4144,
      "Ġexper": 4145,
      "ĠLevel": 4146,
      "AV": 4147,
      "Ġmean": 4148,
      "target": 4149,
      "Return": 4150,
      "Ġmade": 4151,
      "LP": 4152,
      "ificant": 4153,
      "117": 4154,
      "Ġselection": 4155,
      "ĠRun": 4156,
      "Ġstat": 4157,
      "110": 4158,
      "254": 4159,
      "Ġ34": 4160,
      "open": 4161,
      "usc": 4162,
      "history": 4163,
      "Sup": 4164,
      "ProgramData": 4165,
      "CVE": 4166,
      "Ġrandom": 4167,
      "Ġbase": 4168,
      "Ġparameters": 4169,
      "ĠQuery": 4170,
      "Ġdone": 4171,
      "Blue": 4172,
      "Ġbypass": 4173,
      "Ġ2024": 4174,
      "Ġref": 4175,
      "aming": 4176,
      "ĠSID": 4177,
      "505": 4178,
      "ĠVulnerability": 4179,
      "ĠProcesses": 4180,
      "ably": 4181,
      "ĠMet": 4182,
      "mode": 4183,
      "gets": 4184,
      "Framework": 4185,
      "Ġ28": 4186,
      "MJ": 4187,
      "ĠKerberos": 4188,
      "reach": 4189,
      "=(": 4190,
      "Ġperformance": 4191,
      "Ġdataset": 4192,
      "tothe": 4193,
      "760": 4194,
      "ane": 4195,
      "UL": 4196,
      "Ġsend": 4197,
      "ĠPolicy": 4198,
      "PR": 4199,
      "Ġamong": 4200,
      "Ġ09": 4201,
      "first": 4202,
      "Resource": 4203,
      "ĠSQL": 4204,
      "Ġtrust": 4205,
      "max": 4206,
      "1844": 4207,
      "From": 4208,
      "cepts": 4209,
      "State": 4210,
      "between": 4211,
      "Ext": 4212,
      "Ġhardware": 4213,
      "plac": 4214,
      "ï¬Ģ": 4215,
      "ards": 4216,
      "ĠResponse": 4217,
      "Ġprovided": 4218,
      "Ġattackers": 4219,
      "rv": 4220,
      "itt": 4221,
      "ons": 4222,
      "ĠNULL": 4223,
      "imited": 4224,
      "obile": 4225,
      "WR": 4226,
      "IRP": 4227,
      "ĠWith": 4228,
      "ĠĠĠĠĠĠĠĠĠĠĠ": 4229,
      "Ġdoesn": 4230,
      "301": 4231,
      "wise": 4232,
      "gu": 4233,
      "gression": 4234,
      "Ġspecified": 4235,
      "Ġhandle": 4236,
      "Ġcomponents": 4237,
      "Ġincident": 4238,
      "blems": 4239,
      "Ġos": 4240,
      "enu": 4241,
      "would": 4242,
      "fr": 4243,
      "ume": 4244,
      "ĠInitiated": 4245,
      "Ġmakes": 4246,
      "Ġlow": 4247,
      "Ġprotection": 4248,
      "analysis": 4249,
      "Ġexecutable": 4250,
      "Ġ//": 4251,
      "Ġproblem": 4252,
      "calation": 4253,
      "Ġbegin": 4254,
      "Ġworks": 4255,
      "ĉčĊ": 4256,
      "Ġdele": 4257,
      "ĠInterface": 4258,
      "apt": 4259,
      "ulated": 4260,
      "case": 4261,
      "enet": 4262,
      "ama": 4263,
      "DS": 4264,
      "312": 4265,
      "Ġembed": 4266,
      "possible": 4267,
      "Ġreserved": 4268,
      "CBB": 4269,
      "905": 4270,
      "older": 4271,
      "bec": 4272,
      "erial": 4273,
      "500": 4274,
      "ĠAllocationSize": 4275,
      "ĠĠĠĠĠĠĠĠĠĠ": 4276,
      "uzz": 4277,
      "ĠAss": 4278,
      "utable": 4279,
      "Function": 4280,
      "aster": 4281,
      "Ġencod": 4282,
      "ĠDestinationPort": 4283,
      "alk": 4284,
      "ĠDestinationHostname": 4285,
      "ĠDestinationIp": 4286,
      "ĠNetworkConnect": 4287,
      "Ġcapture": 4288,
      "Ġconfigure": 4289,
      "Ġinvolv": 4290,
      "valid": 4291,
      "Ġpip": 4292,
      "tools": 4293,
      "Ġmac": 4294,
      "NO": 4295,
      "Ġ5464": 4296,
      "Ġpor": 4297,
      "ĠMalware": 4298,
      "Ġservers": 4299,
      "Ġstore": 4300,
      "Link": 4301,
      "ike": 4302,
      "Ġphysical": 4303,
      "Ġreport": 4304,
      "ĠSourcePort": 4305,
      "Ġretri": 4306,
      "ĠSourceIp": 4307,
      "ĠShareMode": 4308,
      "ĠListing": 4309,
      "ĠSourceHostname": 4310,
      "ĠSourceIsIpv": 4311,
      "Ġentire": 4312,
      "ĠSourcePortName": 4313,
      "Ġnetworks": 4314,
      "ĠDestinationPortName": 4315,
      "ĠDestinationIsIpv": 4316,
      "ĠPath": 4317,
      "âĹĭ": 4318,
      "ĠRed": 4319,
      "Ġprob": 4320,
      "Learning": 4321,
      "268": 4322,
      "Ġidentifier": 4323,
      "Gauss": 4324,
      "CLO": 4325,
      "ertificates": 4326,
      "ression": 4327,
      "char": 4328,
      "Ġarray": 4329,
      "high": 4330,
      "explore": 4331,
      "Ġquick": 4332,
      "grad": 4333,
      "Ab": 4334,
      "Ġhad": 4335,
      "space": 4336,
      "Using": 4337,
      "password": 4338,
      "Ġdiff": 4339,
      "their": 4340,
      "ĠCorporation": 4341,
      "sum": 4342,
      "Ġfr": 4343,
      "Ġï¬ģle": 4344,
      "ĠTransited": 4345,
      "Ġcourse": 4346,
      "137": 4347,
      "ĠImperson": 4348,
      "Î±": 4349,
      "ĠLLM": 4350,
      "ĠFalse": 4351,
      "After": 4352,
      "Ġpermissions": 4353,
      "Ġentry": 4354,
      "cing": 4355,
      "Ġplatform": 4356,
      "cloud": 4357,
      "Ġdid": 4358,
      "attern": 4359,
      "Ġsequ": 4360,
      "Ġvictim": 4361,
      "Ġcritical": 4362,
      "Ġexecuted": 4363,
      "ĠSim": 4364,
      "place": 4365,
      "should": 4366,
      "4634": 4367,
      "gress": 4368,
      "REJ": 4369,
      "winprint": 4370,
      "following": 4371,
      "Ġbuilt": 4372,
      "cryption": 4373,
      "winprintmon": 4374,
      "MIT": 4375,
      "Ġpost": 4376,
      "000000000000": 4377,
      "Core": 4378,
      "CLOSE": 4379,
      "Ġpointer": 4380,
      "Ġ!": 4381,
      "ĠOne": 4382,
      "Ġimages": 4383,
      "ĠConn": 4384,
      "Ġben": 4385,
      "ĠOpened": 4386,
      "inue": 4387,
      "ws": 4388,
      "const": 4389,
      "Ġsk": 4390,
      "shot": 4391,
      "rk": 4392,
      "systems": 4393,
      "Ġinjection": 4394,
      "âĢ¦âĢ¦": 4395,
      "gether": 4396,
      "118": 4397,
      "regmon": 4398,
      "Ġfurther": 4399,
      "âľ": 4400,
      "these": 4401,
      "techniques": 4402,
      "Ġcapabilities": 4403,
      "umn": 4404,
      "Ġneeded": 4405,
      "Ġindividual": 4406,
      "Ġprompt": 4407,
      "ĠAttacks": 4408,
      "interactive": 4409,
      "does": 4410,
      "ASQB": 4411,
      "Ġ41": 4412,
      "netmon": 4413,
      "analyst": 4414,
      "bound": 4415,
      "Ġdiffer": 4416,
      "ĠFl": 4417,
      "Ġshort": 4418,
      "Ġemploy": 4419,
      "By": 4420,
      "ourses": 4421,
      "')": 4422,
      "Ġleast": 4423,
      "Ġcertificate": 4424,
      "CloseFile": 4425,
      "Ġetc": 4426,
      "Ġhide": 4427,
      "___": 4428,
      "ĠBu": 4429,
      "ĠOpenResult": 4430,
      "Ġrequirements": 4431,
      "ias": 4432,
      "software": 4433,
      "Ph": 4434,
      "DOW": 4435,
      "FILE": 4436,
      "Ġ30": 4437,
      "izes": 4438,
      "Ġoffset": 4439,
      "ouse": 4440,
      "ĠCryptographic": 4441,
      "Ġlever": 4442,
      "because": 4443,
      "Enum": 4444,
      "VI": 4445,
      "Ġmitig": 4446,
      "lier": 4447,
      "jumpbox": 4448,
      "314": 4449,
      "Root": 4450,
      "iment": 4451,
      "ĠELS": 4452,
      "depth": 4453,
      "ĠProgram": 4454,
      "PP": 4455,
      "olutions": 4456,
      "Ġapply": 4457,
      "+]": 4458,
      "anted": 4459,
      "Ġboot": 4460,
      "outs": 4461,
      "Ġactions": 4462,
      "authentication": 4463,
      "rivileged": 4464,
      "ACK": 4465,
      "BAEEA": 4466,
      "122": 4467,
      "DQ": 4468,
      "Ġintrodu": 4469,
      "don": 4470,
      "aring": 4471,
      "iod": 4472,
      "ĠDetailed": 4473,
      "fde": 4474,
      "pc": 4475,
      "ĠAD": 4476,
      "1055": 4477,
      "ÃĹ": 4478,
      "given": 4479,
      "know": 4480,
      "ĠWinlogon": 4481,
      "tw": 4482,
      "Ġmonitoring": 4483,
      "ĠRegistry": 4484,
      "\"]": 4485,
      "Out": 4486,
      "au": 4487,
      "ti": 4488,
      "tom": 4489,
      "Ġz": 4490,
      "Ġprotect": 4491,
      "Token": 4492,
      "Ġbuffer": 4493,
      "zA": 4494,
      "Ġsplunk": 4495,
      "inuous": 4496,
      "WH": 4497,
      "criptor": 4498,
      "Ġimpact": 4499,
      "ections": 4500,
      "ĠTools": 4501,
      "edby": 4502,
      "Ġfree": 4503,
      "responding": 4504,
      "plit": 4505,
      "observ": 4506,
      "HKEY": 4507,
      "Ġsure": 4508,
      "ĠPer": 4509,
      "ĠUp": 4510,
      "=_\\": 4511,
      "udio": 4512,
      "Agent": 4513,
      "icult": 4514,
      "proto": 4515,
      "pli": 4516,
      "599": 4517,
      "Ġsensitive": 4518,
      "FO": 4519,
      "erts": 4520,
      "ĠLogic": 4521,
      "Ro": 4522,
      "query": 4523,
      "ouble": 4524,
      "tl": 4525,
      "iter": 4526,
      "tional": 4527,
      "encod": 4528,
      "LD": 4529,
      "ĠGr": 4530,
      "Af": 4531,
      "incip": 4532,
      "echnical": 4533,
      "afe": 4534,
      "Ġauthentic": 4535,
      "Ġwritten": 4536,
      "install": 4537,
      "Ġways": 4538,
      "admon": 4539,
      "Keys": 4540,
      "ĠTHE": 4541,
      "functions": 4542,
      "((": 4543,
      "157": 4544,
      "ĠAdvanced": 4545,
      "number": 4546,
      "Input": 4547,
      "Ġframework": 4548,
      "325": 4549,
      "Ġsite": 4550,
      "Ġagent": 4551,
      ",âĢĿ": 4552,
      "nel": 4553,
      "develop": 4554,
      "implement": 4555,
      "Ġpackets": 4556,
      "etch": 4557,
      "Ġmessages": 4558,
      "mt": 4559,
      "Exported": 4560,
      "jor": 4561,
      "Handles": 4562,
      "Ġencrypted": 4563,
      "plicit": 4564,
      "Ġ}": 4565,
      "Once": 4566,
      "ements": 4567,
      "Ġne": 4568,
      "GR": 4569,
      "DI": 4570,
      "101": 4571,
      "??": 4572,
      "Act": 4573,
      "tadata": 4574,
      "Ġenabled": 4575,
      "ĠLet": 4576,
      "acters": 4577,
      "ili": 4578,
      "vis": 4579,
      "Ġexternal": 4580,
      "Ġprivate": 4581,
      "Ġpeople": 4582,
      "posed": 4583,
      "approach": 4584,
      "Ġclear": 4585,
      "ĠBe": 4586,
      "ĠIncident": 4587,
      "EDF": 4588,
      "ĠBl": 4589,
      "Î»": 4590,
      "plug": 4591,
      "USER": 4592,
      "Ġwhom": 4593,
      "png": 4594,
      "Ġdevelopment": 4595,
      "Common": 4596,
      "Ġarchitecture": 4597,
      "1112": 4598,
      "Ġrep": 4599,
      "ict": 4600,
      "priate": 4601,
      "chi": 4602,
      "îģĪ": 4603,
      "Ġcontents": 4604,
      "Ġbits": 4605,
      "RedBlue": 4606,
      "Virtual": 4607,
      "InProc": 4608,
      "member": 4609,
      "crypt": 4610,
      "docs": 4611,
      "232": 4612,
      "ĠHow": 4613,
      "Download": 4614,
      "Temp": 4615,
      "ipher": 4616,
      "dump": 4617,
      "556": 4618,
      "inn": 4619,
      "thatthe": 4620,
      "arts": 4621,
      "atz": 4622,
      "210": 4623,
      "Ïĥ": 4624,
      "Dec": 4625,
      "Ġ46": 4626,
      "resents": 4627,
      "agn": 4628,
      "rows": 4629,
      "Ġca": 4630,
      "Ġpersist": 4631,
      "SC": 4632,
      "Ġscre": 4633,
      "AFEA": 4634,
      "Ġsepar": 4635,
      "ĠOut": 4636,
      "proc": 4637,
      "Ġparticip": 4638,
      "ĠRev": 4639,
      "Ġproper": 4640,
      "Ġcannot": 4641,
      "800": 4642,
      "rb": 4643,
      "LAN": 4644,
      "Ġ100": 4645,
      "*)": 4646,
      "RM": 4647,
      "ftp": 4648,
      "Ġcharacter": 4649,
      "instruction": 4650,
      "[\"": 4651,
      "rh": 4652,
      "erview": 4653,
      "Ġdefined": 4654,
      "Kernel": 4655,
      "Ġinstalled": 4656,
      "ablish": 4657,
      "ayes": 4658,
      "egment": 4659,
      "572": 4660,
      "Automation": 4661,
      "overn": 4662,
      "Ġadded": 4663,
      "Ġnamed": 4664,
      "Ġlive": 4665,
      "ĠRequ": 4666,
      "Ġtimes": 4667,
      "Ġcy": 4668,
      "Ġcost": 4669,
      "119": 4670,
      "Ġsomething": 4671,
      "305": 4672,
      "SeImpersonatePrivilege": 4673,
      "ested": 4674,
      "First": 4675,
      "training": 4676,
      "SeDebugPrivilege": 4677,
      "Sim": 4678,
      "ĠLoc": 4679,
      "uster": 4680,
      "Ġupdate": 4681,
      "Ġitself": 4682,
      "Ġeasy": 4683,
      "Ġexist": 4684,
      "Ġcover": 4685,
      "744": 4686,
      "MonitorNoHandle": 4687,
      "oll": 4688,
      "1406": 4689,
      "SeLoadDriverPrivilege": 4690,
      "mer": 4691,
      "variables": 4692,
      "rs": 4693,
      "mac": 4694,
      "SeBackupPrivilege": 4695,
      "atrix": 4696,
      "Ġthird": 4697,
      "ĠCyber": 4698,
      "Ġco": 4699,
      "acon": 4700,
      "Ġbas": 4701,
      "netfx": 4702,
      "Ġsmall": 4703,
      "SeSystemEnvironmentPrivilege": 4704,
      "AND": 4705,
      "Ġoriginated": 4706,
      "InProcServer": 4707,
      "uters": 4708,
      "ĠDeleted": 4709,
      "ini": 4710,
      "Ġdue": 4711,
      "Ġsur": 4712,
      "Ġloss": 4713,
      "update": 4714,
      "aximum": 4715,
      "Ġide": 4716,
      "Ġrange": 4717,
      "Ġpoints": 4718,
      "Ġlimit": 4719,
      "Next": 4720,
      "Ġmaking": 4721,
      "Ġgroups": 4722,
      "Call": 4723,
      "static": 4724,
      "Ġsettings": 4725,
      "Map": 4726,
      "imension": 4727,
      "âĪĴâĪĴ": 4728,
      "II": 4729,
      "Ġdesigned": 4730,
      "Ġimpersonate": 4731,
      "LEA": 4732,
      "SeTakeOwnershipPrivilege": 4733,
      "rd": 4734,
      "count": 4735,
      "SeRestorePrivilege": 4736,
      "8500": 4737,
      "Ġchall": 4738,
      "103": 4739,
      "bitrary": 4740,
      "Ġfocus": 4741,
      "BO": 4742,
      "173": 4743,
      "ĠCVE": 4744,
      "itu": 4745,
      "rypto": 4746,
      "Ġissues": 4747,
      "SQL": 4748,
      "bas": 4749,
      "Ġusually": 4750,
      "zon": 4751,
      "ĠKDC": 4752,
      "Be": 4753,
      "unt": 4754,
      "aper": 4755,
      "ĠThey": 4756,
      "Ġcmd": 4757,
      "EED": 4758,
      "ores": 4759,
      "default": 4760,
      "Ġ37": 4761,
      "624": 4762,
      "_.\\": 4763,
      "represent": 4764,
      "uture": 4765,
      "Basic": 4766,
      "Ġfin": 4767,
      "nd": 4768,
      "CEF": 4769,
      "val": 4770,
      "Ġdiscussed": 4771,
      "algorithm": 4772,
      "andling": 4773,
      "Ġverified": 4774,
      "Ġavoid": 4775,
      "ĠIs": 4776,
      "ĠPCA": 4777,
      "oid": 4778,
      "00106": 4779,
      "Ġindex": 4780,
      "Ġintermediate": 4781,
      "365": 4782,
      "Ġutil": 4783,
      "actics": 4784,
      "Ġtoo": 4785,
      "184467": 4786,
      "ĠWorker": 4787,
      "zY": 4788,
      "Ġjob": 4789,
      "econds": 4790,
      "ĠEnterprise": 4791,
      "YU": 4792,
      "ĠLO": 4793,
      "585": 4794,
      "Ġrole": 4795,
      "Module": 4796,
      "Ġinfrastructure": 4797,
      "Ġ39": 4798,
      "ping": 4799,
      "bes": 4800,
      "Ġloop": 4801,
      "eM": 4802,
      "Some": 4803,
      "And": 4804,
      "Ġstruct": 4805,
      "SeEnableDelegationPrivilege": 4806,
      "ĠâĢĺ": 4807,
      "itis": 4808,
      "ĠTarget": 4809,
      "7720": 4810,
      "Ġscenari": 4811,
      "ingthe": 4812,
      "ĠDec": 4813,
      "AX": 4814,
      "Ġability": 4815,
      "hash": 4816,
      "uri": 4817,
      "Ġfunctionality": 4818,
      "222": 4819,
      "ocket": 4820,
      "enetration": 4821,
      "Ġplan": 4822,
      "non": 4823,
      "Ġcreating": 4824,
      "ĠChange": 4825,
      "144": 4826,
      "QgB": 4827,
      "iexplore": 4828,
      "Ġcombin": 4829,
      "udy": 4830,
      "IGH": 4831,
      "Operation": 4832,
      "irmware": 4833,
      "json": 4834,
      "machine": 4835,
      "Advanced": 4836,
      "itimate": 4837,
      "PowerS": 4838,
      "Ġsignificant": 4839,
      "Ġworking": 4840,
      "806": 4841,
      "Ġfac": 4842,
      "ĠCO": 4843,
      "Ġimpersonation": 4844,
      "Ġ35": 4845,
      "located": 4846,
      "154": 4847,
      "0924": 4848,
      "SYN": 4849,
      "Ġseen": 4850,
      "Ġloaded": 4851,
      "Ġshared": 4852,
      "even": 4853,
      "illust": 4854,
      "Ġflag": 4855,
      "atively": 4856,
      "ars": 4857,
      "plan": 4858,
      "Ġrecomm": 4859,
      "ĠSystems": 4860,
      "ĠQ": 4861,
      "authorized": 4862,
      "Ġattemp": 4863,
      "rad": 4864,
      "udo": 4865,
      "Ġthough": 4866,
      "ĠBy": 4867,
      "ĠSome": 4868,
      "ĠAdvers": 4869,
      "hark": 4870,
      "EU": 4871,
      "Ġtakes": 4872,
      "View": 4873,
      "Ġ31": 4874,
      "ART": 4875,
      "ĠImpersonation": 4876,
      "Ġextent": 4877,
      "road": 4878,
      "cale": 4879,
      "/.": 4880,
      "Ġbyte": 4881,
      "FR": 4882,
      "names": 4883,
      "Remote": 4884,
      "165": 4885,
      "Ġgoing": 4886,
      "Op": 4887,
      "ulnerable": 4888,
      "Mapping": 4889,
      "eak": 4890,
      "Sigma": 4891,
      "Ġstarted": 4892,
      "ðĿĲ": 4893,
      "duration": 4894,
      "7354": 4895,
      "aff": 4896,
      "Ġbasic": 4897,
      "clusive": 4898,
      "109": 4899,
      "Ġcorrelate": 4900,
      "Base": 4901,
      "ero": 4902,
      "IZATION": 4903,
      "4403": 4904,
      "train": 4905,
      "inci": 4906,
      "Ġ49": 4907,
      "Ġfrequ": 4908,
      "TCP": 4909,
      "Ġremov": 4910,
      "79407": 4911,
      "argets": 4912,
      "741406": 4913,
      "741406151": 4914,
      "Ġaddition": 4915,
      "ĠScripts": 4916,
      "Ġunknown": 4917,
      "Ġgraph": 4918,
      "aren": 4919,
      "thest": 4920,
      "CS": 4921,
      "fcee": 4922,
      "LRQ": 4923,
      "ĠExecution": 4924,
      "Ġnecessary": 4925,
      "BE": 4926,
      "yper": 4927,
      "ĠÂ": 4928,
      "Ġcalc": 4929,
      "596": 4930,
      "Ġprivilege": 4931,
      "âĢĭ": 4932,
      "161": 4933,
      "ocial": 4934,
      "FL": 4935,
      "Ġthings": 4936,
      "CacheStorage": 4937,
      "bg": 4938,
      "probability": 4939,
      "ift": 4940,
      "Ġuntil": 4941,
      "092453": 4942,
      "681112": 4943,
      "4021055": 4944,
      "124": 4945,
      "ĠĠĠĠĠĠĠĠĠĠĠĠĠĠ": 4946,
      "GT": 4947,
      "avid": 4948,
      "InformationFile": 4949,
      "include": 4950,
      "537": 4951,
      "Ġspecial": 4952,
      "asR": 4953,
      "ler": 4954,
      "777": 4955,
      "Ġprint": 4956,
      "âĢĺ": 4957,
      "Join": 4958,
      "ĠSync": 4959,
      "Ġenumer": 4960,
      "commun": 4961,
      "emonstr": 4962,
      "164": 4963,
      "Ġachi": 4964,
      "empor": 4965,
      "1530": 4966,
      "Ġ%%": 4967,
      "VH": 4968,
      "enge": 4969,
      "email": 4970,
      "sensor": 4971,
      "icing": 4972,
      "WINDOW": 4973,
      "Do": 4974,
      "Ġlooking": 4975,
      "Ġexisting": 4976,
      "format": 4977,
      "STR": 4978,
      "Hide": 4979,
      "ĠSub": 4980,
      "imin": 4981,
      "Ġevidence": 4982,
      "Ġprocessor": 4983,
      "660": 4984,
      "CHA": 4985,
      "Attributes": 4986,
      "endent": 4987,
      "ster": 4988,
      "Ġinside": 4989,
      "ĠEd": 4990,
      "ĠAPIs": 4991,
      "-++": 4992,
      "forward": 4993,
      "Ġstrateg": 4994,
      "make": 4995,
      "578": 4996,
      "Ġ07": 4997,
      "available": 4998,
      "build": 4999,
      "chines": 5000,
      "6080": 5001,
      "203": 5002,
      "These": 5003,
      "30319": 5004,
      "ĠWhile": 5005,
      "Nrh": 5006,
      "Ġparent": 5007,
      "ĠTable": 5008,
      "rrC": 5009,
      "roduction": 5010,
      "Ġfirewall": 5011,
      "mmK": 5012,
      "iation": 5013,
      "rm": 5014,
      "âĪĪ": 5015,
      "asRrrC": 5016,
      "QeM": 5017,
      "jp": 5018,
      "389": 5019,
      "YUEB": 5020,
      "COR": 5021,
      "Ġpasswords": 5022,
      "zYQeM": 5023,
      "zYQeMv": 5024,
      "ond": 5025,
      "AfzA": 5026,
      "724": 5027,
      "Sc": 5028,
      "NrhAfzA": 5029,
      "Ġobserv": 5030,
      "ĠDo": 5031,
      "many": 5032,
      "Ġwords": 5033,
      "FASTIO": 5034,
      "raft": 5035,
      "parent": 5036,
      "ĠQu": 5037,
      "edbd": 5038,
      "Public": 5039,
      "Ġsolution": 5040,
      "ember": 5041,
      "info": 5042,
      "Ġprograms": 5043,
      "Ġstrings": 5044,
      "8381": 5045,
      "ana": 5046,
      "7061": 5047,
      "management": 5048,
      "ReadFile": 5049,
      "ĠDDK": 5050,
      "ĠAct": 5051,
      "ifacts": 5052,
      "pping": 5053,
      "wecan": 5054,
      "183": 5055,
      "BASE": 5056,
      "Ġpolicies": 5057,
      "ĠClient": 5058,
      "Ġonce": 5059,
      "ĠStep": 5060,
      "chema": 5061,
      "init": 5062,
      "everity": 5063,
      "Ġgeneral": 5064,
      "078": 5065,
      "End": 5066,
      "111": 5067,
      "754": 5068,
      "Ġanswer": 5069,
      "vironments": 5070,
      "ireshark": 5071,
      "=.-..\\": 5072,
      "âĸª": 5073,
      "524": 5074,
      "DL": 5075,
      "ĠKernel": 5076,
      "Ġrather": 5077,
      "Ġimplementation": 5078,
      "Packages": 5079,
      "Ġword": 5080,
      "RON": 5081,
      "eue": 5082,
      "cho": 5083,
      "Ġde": 5084,
      "Block": 5085,
      "ĠElastic": 5086,
      "linear": 5087,
      "isthe": 5088,
      "iving": 5089,
      "Bayes": 5090,
      "nap": 5091,
      "ditional": 5092,
      "ĠCopy": 5093,
      "SECTION": 5094,
      "Auth": 5095,
      "DNS": 5096,
      "ĠRep": 5097,
      "ĠSys": 5098,
      "missed": 5099,
      "Ġhand": 5100,
      "remote": 5101,
      "Hit": 5102,
      "309": 5103,
      "See": 5104,
      "icmp": 5105,
      "ĠAfter": 5106,
      "initial": 5107,
      "ĠStr": 5108,
      "Ġshellcode": 5109,
      "Cryptographic": 5110,
      "Ġvulnerable": 5111,
      "Ġfour": 5112,
      "Ġremain": 5113,
      "account": 5114,
      "*.": 5115,
      "HTTP": 5116,
      "autom": 5117,
      "DAT": 5118,
      "chain": 5119,
      "imal": 5120,
      "LEASE": 5121,
      "[+]": 5122,
      "sib": 5123,
      "ximum": 5124,
      "RY": 5125,
      "ven": 5126,
      "Ġplug": 5127,
      "648": 5128,
      "ĠĠĠĠĠĠĠĠĠĠĠĠĠ": 5129,
      "218": 5130,
      "while": 5131,
      "Ġ...": 5132,
      "problem": 5133,
      "Linux": 5134,
      "poses": 5135,
      "RELEASE": 5136,
      "Ġsys": 5137,
      "Sec": 5138,
      "Password": 5139,
      "ĠSI": 5140,
      "forc": 5141,
      "Ġconnections": 5142,
      "prior": 5143,
      "Ġnumbers": 5144,
      "IF": 5145,
      "ĠAction": 5146,
      "teredSecurity": 5147,
      "4468": 5148,
      "byte": 5149,
      "PowerSettings": 5150,
      "788": 5151,
      "00100": 5152,
      ";;": 5153,
      "allow": 5154,
      "isters": 5155,
      "Ġtrigger": 5156,
      "349": 5157,
      "pecially": 5158,
      "ĠOperation": 5159,
      "155": 5160,
      "Active": 5161,
      "thread": 5162,
      "parameter": 5163,
      "means": 5164,
      "RT": 5165,
      "force": 5166,
      "audit": 5167,
      "Ġflow": 5168,
      "Ġoptim": 5169,
      "policy": 5170,
      "well": 5171,
      "oring": 5172,
      "ĠCol": 5173,
      "Ġ................................................................": 5174,
      "ides": 5175,
      "pdf": 5176,
      "Ġswitch": 5177,
      "provider": 5178,
      "Ġlogging": 5179,
      "vention": 5180,
      "ips": 5181,
      "Ġhome": 5182,
      "tool": 5183,
      "Ġcompany": 5184,
      "12544": 5185,
      "ĠIDA": 5186,
      "ĠMonitoring": 5187,
      "ĠYOUR": 5188,
      "Ġversions": 5189,
      "300": 5190,
      "Ġ**": 5191,
      "Ġconst": 5192,
      "imik": 5193,
      "ynchronous": 5194,
      "wer": 5195,
      "token": 5196,
      "ÏĢ": 5197,
      "ĠPoint": 5198,
      "ecting": 5199,
      "ĠUnknown": 5200,
      "sensorname": 5201,
      "ĠFunction": 5202,
      "blob": 5203,
      "Ġ33": 5204,
      "ones": 5205,
      "EP": 5206,
      "Met": 5207,
      "ife": 5208,
      "WINDOWS": 5209,
      "idential": 5210,
      "511": 5211,
      "ĠTesting": 5212,
      "Ġaround": 5213,
      "asing": 5214,
      "Algorithm": 5215,
      "ĠEngine": 5216,
      "Ġdifficult": 5217,
      "sd": 5218,
      "Ġ55": 5219,
      "Gaussian": 5220,
      "tags": 5221,
      "forthe": 5222,
      "endswith": 5223,
      "preter": 5224,
      "607": 5225,
      "692": 5226,
      "612": 5227,
      "Ġscripts": 5228,
      "Ġwebsite": 5229,
      "both": 5230,
      "Ġcar": 5231,
      "under": 5232,
      "irus": 5233,
      "Ġquestion": 5234,
      "509": 5235,
      "ĠNote": 5236,
      "Ġeasily": 5237,
      "imikatz": 5238,
      "orch": 5239,
      "ams": 5240,
      "device": 5241,
      "Ġturn": 5242,
      "ocker": 5243,
      "brid": 5244,
      "ĠOR": 5245,
      "alt": 5246,
      "Ġreverse": 5247,
      "Ġautomatically": 5248,
      "âĶĢâĶĢâĶĢâĶĢ": 5249,
      "Ġlibrary": 5250,
      "Ġpreviously": 5251,
      "RedBlueHit": 5252,
      "130": 5253,
      "202": 5254,
      "Desktop": 5255,
      "Ġaff": 5256,
      "iler": 5257,
      "Ġintelligence": 5258,
      "bersecurity": 5259,
      "Ġaccur": 5260,
      "ĠMaximum": 5261,
      "world": 5262,
      "onthe": 5263,
      "TS": 5264,
      "encies": 5265,
      "enn": 5266,
      "roll": 5267,
      "Ġ08": 5268,
      "Creation": 5269,
      "ai": 5270,
      "find": 5271,
      "ĠSP": 5272,
      "WU": 5273,
      "Ġmiss": 5274,
      "ĈĈĈĈ": 5275,
      "ĠOperations": 5276,
      "ĠParameters": 5277,
      "Build": 5278,
      "209": 5279,
      "Instance": 5280,
      "ĠSearch": 5281,
      "Ġgain": 5282,
      "Ġtrack": 5283,
      "omes": 5284,
      "alle": 5285,
      "Ġfollows": 5286,
      "pop": 5287,
      "ĠVirtual": 5288,
      "Check": 5289,
      "eas": 5290,
      "ulnerabilities": 5291,
      "OWN": 5292,
      "secure": 5293,
      "12545": 5294,
      "essential": 5295,
      "SON": 5296,
      "Workstation": 5297,
      "images": 5298,
      "echo": 5299,
      "Rel": 5300,
      "Ġeax": 5301,
      "manager": 5302,
      "Ġvendor": 5303,
      "TC": 5304,
      "ĠDevelop": 5305,
      "Ġparticipated": 5306,
      "depUpdate": 5307,
      "filtr": 5308,
      "Col": 5309,
      "Ġ90": 5310,
      "ĠAllowed": 5311,
      "push": 5312,
      "utility": 5313,
      "Ġhel": 5314,
      "ĠStart": 5315,
      "estric": 5316,
      "224": 5317,
      "failure": 5318,
      "Ġ40": 5319,
      "4624": 5320,
      "page": 5321,
      "ĠDisc": 5322,
      "istance": 5323,
      "LQJ": 5324,
      "ĠSS": 5325,
      "different": 5326,
      "ixed": 5327,
      "upd": 5328,
      "469": 5329,
      "Ġhowever": 5330,
      "ling": 5331,
      "ped": 5332,
      "Ġticket": 5333,
      "click": 5334,
      "Ġengineering": 5335,
      "Ġerr": 5336,
      "ainer": 5337,
      "andbox": 5338,
      "508": 5339,
      "loss": 5340,
      "814": 5341,
      "Part": 5342,
      "Ġargument": 5343,
      "fusc": 5344,
      "While": 5345,
      "ĠJava": 5346,
      "Multi": 5347,
      "162": 5348,
      "ape": 5349,
      "arm": 5350,
      "olat": 5351,
      "specific": 5352,
      "illustr": 5353,
      "LY": 5354,
      "emplate": 5355,
      "utions": 5356,
      "Ġupdates": 5357,
      "incipal": 5358,
      "343": 5359,
      "Ġconfig": 5360,
      "Ġmodify": 5361,
      "hel": 5362,
      "Ġtokens": 5363,
      "Ġpredic": 5364,
      "CHRON": 5365,
      "Ġrecord": 5366,
      "msil": 5367,
      "table": 5368,
      "ï¬ģg": 5369,
      "Ġrecords": 5370,
      "];": 5371,
      "erms": 5372,
      "ecx": 5373,
      "mask": 5374,
      "avig": 5375,
      "Ġvariables": 5376,
      "328": 5377,
      "cast": 5378,
      "Mj": 5379,
      "Ġ38": 5380,
      "00000": 5381,
      "gt": 5382,
      "izer": 5383,
      "484": 5384,
      "216": 5385,
      "ĠDetects": 5386,
      "ationship": 5387,
      "Ġcache": 5388,
      "come": 5389,
      "node": 5390,
      "SYNCHRON": 5391,
      "Ġthink": 5392,
      "Ġpatch": 5393,
      "appen": 5394,
      "ze": 5395,
      "thers": 5396,
      "irc": 5397,
      "Ġask": 5398,
      "ĠEvents": 5399,
      "141": 5400,
      "Exploit": 5401,
      "Ġlabel": 5402,
      "Ġwhy": 5403,
      "FK": 5404,
      "Ġzero": 5405,
      "faces": 5406,
      "Ġknowledge": 5407,
      "google": 5408,
      "SYNCHRONIZATION": 5409,
      "ĠON": 5410,
      "Ar": 5411,
      "Here": 5412,
      "Ġcreation": 5413,
      "CreateFileMapping": 5414,
      "Ġsuspicious": 5415,
      "ĠGuide": 5416,
      "ideo": 5417,
      "Then": 5418,
      "Ġdestination": 5419,
      "Buffer": 5420,
      "mart": 5421,
      "Ġtell": 5422,
      "Ġef": 5423,
      "Ġid": 5424,
      "Ġidentified": 5425,
      "UM": 5426,
      "length": 5427,
      "Sub": 5428,
      "message": 5429,
      "Risk": 5430,
      "Ġnode": 5431,
      "ĠAdministrat": 5432,
      "Ġ172": 5433,
      "Ġalert": 5434,
      "ivot": 5435,
      "Ġcompromised": 5436,
      "lan": 5437,
      "ĠCase": 5438,
      "Date": 5439,
      "Ġimplemented": 5440,
      "canbe": 5441,
      "cel": 5442,
      "create": 5443,
      "estamp": 5444,
      "Mon": 5445,
      "Ġfam": 5446,
      "ĠBut": 5447,
      "ĠProtection": 5448,
      "264": 5449,
      "sof": 5450,
      "281": 5451,
      "Computer": 5452,
      "etal": 5453,
      "AEkA": 5454,
      "labs": 5455,
      "kelihood": 5456,
      "260": 5457,
      "ĠĠĠĠĠĠĠĠĠĠĠĠĠĠĠĠĠĠĠĠĠĠĠĠĠĠĠĠĠĠĠĠĠĠĠĠĠĠĠĠĠĠĠĠĠĠĠĠĠĠĠĠĠĠĠĠĠĠĠĠĠĠĠĠ": 5458,
      "andthe": 5459,
      "ĠImplement": 5460,
      "AlteredSecurity": 5461,
      "Ġactivities": 5462,
      "748": 5463,
      "ining": 5464,
      "Ġworld": 5465,
      "Ġfinal": 5466,
      "Ġproced": 5467,
      "SyncType": 5468,
      "ĠSyncType": 5469,
      "Ġsample": 5470,
      "Ġidentity": 5471,
      "503": 5472,
      "hard": 5473,
      "096": 5474,
      "])": 5475,
      "768": 5476,
      "AdminELS": 5477,
      "related": 5478,
      "oding": 5479,
      "ĠRemote": 5480,
      "ĠSY": 5481,
      "Ġpush": 5482,
      "Ġwinsec": 5483,
      "random": 5484,
      "dl": 5485,
      "could": 5486,
      "result": 5487,
      "auth": 5488,
      "emes": 5489,
      "approxim": 5490,
      "icens": 5491,
      "............": 5492,
      "Ġshare": 5493,
      "anch": 5494,
      "often": 5495,
      "Ġcare": 5496,
      "Ġearlier": 5497,
      "ees": 5498,
      "public": 5499,
      "signed": 5500,
      "student": 5501,
      "estim": 5502,
      "359": 5503,
      "LV": 5504,
      "plain": 5505,
      "324": 5506,
      "-++-": 5507,
      "ercises": 5508,
      "Ġgoal": 5509,
      "Library": 5510,
      "RA": 5511,
      "sue": 5512,
      "ĠMethod": 5513,
      "called": 5514,
      "attacker": 5515,
      "correct": 5516,
      "Ġ0000": 5517,
      "ĠCre": 5518,
      "Ġrestric": 5519,
      "ĠLearning": 5520,
      "749": 5521,
      "634": 5522,
      "NULL": 5523,
      "kk": 5524,
      "Disc": 5525,
      "Ġrelevant": 5526,
      "Ġ56": 5527,
      "Ġfil": 5528,
      "Ġspecify": 5529,
      "BHA": 5530,
      "ugg": 5531,
      "Thes": 5532,
      "features": 5533,
      "home": 5534,
      "ĠSup": 5535,
      "Example": 5536,
      "after": 5537,
      "SV": 5538,
      "threat": 5539,
      "defined": 5540,
      "Ġcyber": 5541,
      "engine": 5542,
      "Ġslide": 5543,
      "Ġhis": 5544,
      "Ġmodules": 5545,
      "Ġlayers": 5546,
      "4672": 5547,
      "cdf": 5548,
      "Ġput": 5549,
      "Ġmem": 5550,
      "Ġcharacters": 5551,
      "Ġadministrator": 5552,
      "PTER": 5553,
      "ifact": 5554,
      "Ġintegrity": 5555,
      "iph": 5556,
      "Step": 5557,
      "Find": 5558,
      "tting": 5559,
      "Ġexact": 5560,
      "Ġprivacy": 5561,
      "Ġproxy": 5562,
      "rupt": 5563,
      "Ġcause": 5564,
      "vestigation": 5565,
      "agnost": 5566,
      "plies": 5567,
      "Ġ(\"": 5568,
      "raries": 5569,
      "ireless": 5570,
      "execution": 5571,
      "ĠSecure": 5572,
      "Ġreference": 5573,
      "244": 5574,
      "Roaming": 5575,
      "product": 5576,
      "Ġregular": 5577,
      "Ġunderstanding": 5578,
      "ï¬ģrst": 5579,
      "Transited": 5580,
      "Ġden": 5581,
      "Ġred": 5582,
      "Ġmedia": 5583,
      "internal": 5584,
      "consider": 5585,
      "ĠOnce": 5586,
      "Ġlot": 5587,
      "TML": 5588,
      "atterns": 5589,
      "ĠPE": 5590,
      "][": 5591,
      "anging": 5592,
      "Ġarguments": 5593,
      "DV": 5594,
      "Â·": 5595,
      "Ġgive": 5596,
      "184": 5597,
      "aved": 5598,
      "Ġmark": 5599,
      "trics": 5600,
      "Ġenable": 5601,
      "pped": 5602,
      "UR": 5603,
      "ves": 5604,
      "ival": 5605,
      "Ġbug": 5606,
      "270": 5607,
      "Ġprimary": 5608,
      "ening": 5609,
      "();": 5610,
      "Ġinternet": 5611,
      "Ġactive": 5612,
      "atched": 5613,
      "prove": 5614,
      "Ġdrive": 5615,
      "ĠVer": 5616,
      "show": 5617,
      "inv": 5618,
      "'ll": 5619,
      "Ġintegr": 5620,
      "Ġlimited": 5621,
      "vantage": 5622,
      "ĠAS": 5623,
      "abilistic": 5624,
      "ube": 5625,
      "ĠCPU": 5626,
      "ampling": 5627,
      "Ġlogin": 5628,
      "iate": 5629,
      "Ġnote": 5630,
      "printf": 5631,
      "Ġlegitimate": 5632,
      "ests": 5633,
      "îģī": 5634,
      "ËĨ": 5635,
      "WE": 5636,
      "Ġsequence": 5637,
      "orm": 5638,
      "std": 5639,
      "ITH": 5640,
      "environment": 5641,
      "Ġlock": 5642,
      "4192": 5643,
      "asets": 5644,
      "asploit": 5645,
      "PATH": 5646,
      "eax": 5647,
      "Cloud": 5648,
      "Ġisn": 5649,
      "aunch": 5650,
      "Reader": 5651,
      "snip": 5652,
      "Sid": 5653,
      "inte": 5654,
      "fac": 5655,
      "âĪĹ": 5656,
      "=___.\\": 5657,
      "Ġchoose": 5658,
      "ĠMay": 5659,
      "âĪĤ": 5660,
      "149": 5661,
      "146": 5662,
      "YA": 5663,
      "wd": 5664,
      "ĠTO": 5665,
      "12548": 5666,
      "ium": 5667,
      "foo": 5668,
      "document": 5669,
      "Ġchain": 5670,
      "187": 5671,
      "Hub": 5672,
      "Ġdump": 5673,
      "Ġendpoint": 5674,
      "HO": 5675,
      "ĠSign": 5676,
      "îģĤ": 5677,
      "Ġappropriate": 5678,
      "Ġactually": 5679,
      "ECT": 5680,
      "Ġge": 5681,
      "LI": 5682,
      "Error": 5683,
      "Ġsetting": 5684,
      "zip": 5685,
      "ĠThat": 5686,
      "IGHT": 5687,
      "219": 5688,
      "Ġinteresting": 5689,
      "Ġconfigured": 5690,
      "Ġwon": 5691,
      "ĠSc": 5692,
      "malware": 5693,
      "edin": 5694,
      "GPD": 5695,
      "Ġcontainer": 5696,
      "ĠAdmin": 5697,
      "199": 5698,
      "Exp": 5699,
      "Ġhosts": 5700,
      "Attack": 5701,
      "Sign": 5702,
      "atory": 5703,
      "\":\"/": 5704,
      "mgr": 5705,
      "yle": 5706,
      "idth": 5707,
      "Ġ48": 5708,
      "Ġissue": 5709,
      "Ġamount": 5710,
      "ux": 5711,
      "atal": 5712,
      "othes": 5713,
      "erior": 5714,
      "169": 5715,
      "si": 5716,
      "Ġmedium": 5717,
      "136": 5718,
      "530": 5719,
      "metric": 5720,
      "543": 5721,
      "644": 5722,
      "Ġperformed": 5723,
      "WORD": 5724,
      "186": 5725,
      "ĠMode": 5726,
      "Î£": 5727,
      "Ġforward": 5728,
      "\":[]": 5729,
      "Par": 5730,
      "azure": 5731,
      "113": 5732,
      "Ġyears": 5733,
      "Ġwriting": 5734,
      "isual": 5735,
      "Ġchanged": 5736,
      "ĠScript": 5737,
      "tal": 5738,
      "206": 5739,
      "215": 5740,
      "472": 5741,
      "Ġattempts": 5742,
      "xd": 5743,
      "lean": 5744,
      "hot": 5745,
      "295": 5746,
      "ditions": 5747,
      "layer": 5748,
      "Ġquickly": 5749,
      "servicing": 5750,
      "inger": 5751,
      "cheme": 5752,
      "cache": 5753,
      "Ġcontaining": 5754,
      "Ġdetermin": 5755,
      "AUQB": 5756,
      "Ġfar": 5757,
      "variable": 5758,
      "ittle": 5759,
      "ookie": 5760,
      "Ġelements": 5761,
      "132": 5762,
      "mof": 5763,
      "icient": 5764,
      "ising": 5765,
      "Ġtermin": 5766,
      "ha": 5767,
      "%%": 5768,
      "ĠShell": 5769,
      "ĠThen": 5770,
      "require": 5771,
      ":/": 5772,
      "âĢĿ,": 5773,
      "integr": 5774,
      "aid": 5775,
      "Ġreturns": 5776,
      "Cyber": 5777,
      "ours": 5778,
      "Ġ800": 5779,
      "directory": 5780,
      "Ġentries": 5781,
      "aQB": 5782,
      "064": 5783,
      "nl": 5784,
      "aking": 5785,
      "rw": 5786,
      "MITRE": 5787,
      "pliance": 5788,
      "Ġenough": 5789,
      "KN": 5790,
      "140": 5791,
      "quis": 5792,
      "Ġcompromise": 5793,
      "itter": 5794,
      "alled": 5795,
      "Ġitems": 5796,
      "727": 5797,
      "patch": 5798,
      "ĠApple": 5799,
      "Free": 5800,
      "attacks": 5801,
      "ĠPrint": 5802,
      "148": 5803,
      "Ġperiod": 5804,
      "~~": 5805,
      "FW": 5806,
      "ĠFr": 5807,
      "},": 5808,
      "Ġstream": 5809,
      "Property": 5810,
      "Ġself": 5811,
      "forcement": 5812,
      "622": 5813,
      "Ġdrivers": 5814,
      "Adobe": 5815,
      "aim": 5816,
      "So": 5817,
      "752": 5818,
      "icate": 5819,
      "Ġusername": 5820,
      "iec": 5821,
      "EADER": 5822,
      "Ġlib": 5823,
      "Ġmon": 5824,
      "ples": 5825,
      "âĿ": 5826,
      "itle": 5827,
      "Ġbox": 5828,
      "ĠClassification": 5829,
      "Target": 5830,
      "vector": 5831,
      "Ġtechnology": 5832,
      "ĠHost": 5833,
      "Ġadmin": 5834,
      "Ġtab": 5835,
      "scan": 5836,
      "Ġeffective": 5837,
      "ALLOW": 5838,
      "ĠSo": 5839,
      "Ġqueries": 5840,
      "ĠDefender": 5841,
      "Protection": 5842,
      "Iy": 5843,
      "td": 5844,
      "ĠPAGE": 5845,
      "Ġnull": 5846,
      "016": 5847,
      "535": 5848,
      "Ġdeep": 5849,
      "006": 5850,
      "TM": 5851,
      "ctfmon": 5852,
      "ignment": 5853,
      "AEUA": 5854,
      "Cap": 5855,
      "Ġassets": 5856,
      "outside": 5857,
      "vi": 5858,
      "Ġtri": 5859,
      "Ġnever": 5860,
      "eved": 5861,
      "ĠDIS": 5862,
      "ĠML": 5863,
      "Ġports": 5864,
      "array": 5865,
      "Ġprotected": 5866,
      "Ġanalyst": 5867,
      "Ġ47": 5868,
      "rees": 5869,
      "Ġms": 5870,
      "apps": 5871,
      "Ġchecks": 5872,
      "Ver": 5873,
      "Ġ50": 5874,
      "384": 5875,
      "Ġvector": 5876,
      "Hash": 5877,
      "boot": 5878,
      "SANS": 5879,
      "payload": 5880,
      "Ġet": 5881,
      "every": 5882,
      "evalu": 5883,
      "bi": 5884,
      "asm": 5885,
      "Ġpotentially": 5886,
      "..-": 5887,
      "Ġexception": 5888,
      "Ġthreats": 5889,
      "Indexed": 5890,
      "Message": 5891,
      "hid": 5892,
      "Ġcomm": 5893,
      "560": 5894,
      "Ġda": 5895,
      "Ġsyn": 5896,
      "Ġinteract": 5897,
      "Ġpractice": 5898,
      "Ġquestions": 5899,
      "organization": 5900,
      "Ġmajor": 5901,
      "including": 5902,
      "Ġpages": 5903,
      "Ġdigital": 5904,
      "ifications": 5905,
      "uc": 5906,
      "ĠDriver": 5907,
      "Ġactual": 5908,
      "Ġoffer": 5909,
      "7292": 5910,
      "Platform": 5911,
      "RD": 5912,
      "leg": 5913,
      "ĠBack": 5914,
      "861": 5915,
      "break": 5916,
      "Ġstarting": 5917,
      "ĠGeneral": 5918,
      "wes": 5919,
      "bem": 5920,
      "pip": 5921,
      "matrix": 5922,
      "Ġlonger": 5923,
      "ĠReader": 5924,
      "ĠTLS": 5925,
      "adow": 5926,
      "abling": 5927,
      "ology": 5928,
      "ORE": 5929,
      "itionally": 5930,
      "âŀ": 5931,
      "Filter": 5932,
      "crypted": 5933,
      "son": 5934,
      "UH": 5935,
      "predic": 5936,
      "trusion": 5937,
      "without": 5938,
      "Ġconduct": 5939,
      "Ġmetadata": 5940,
      "QU": 5941,
      "Ġhigher": 5942,
      "eparse": 5943,
      "Ġ58": 5944,
      "166": 5945,
      "Ġalong": 5946,
      "Ġmove": 5947,
      "445": 5948,
      "189": 5949,
      "ĠReparse": 5950,
      "pcap": 5951,
      "Native": 5952,
      "ĠRef": 5953,
      "Ġmachines": 5954,
      "Ġarea": 5955,
      "icle": 5956,
      "ĠîĢ": 5957,
      "examples": 5958,
      ")\",\"": 5959,
      "Sp": 5960,
      "session": 5961,
      "112": 5962,
      "\":[]}": 5963,
      "ĠEach": 5964,
      "Ġexercise": 5965,
      "FFFF": 5966,
      "SIA": 5967,
      "7760": 5968,
      "ĠDate": 5969,
      "Ġlower": 5970,
      "Images": 5971,
      "methods": 5972,
      "Ġtth": 5973,
      "vels": 5974,
      "2018": 5975,
      "lol": 5976,
      "phan": 5977,
      "Ġtogether": 5978,
      "Context": 5979,
      "adm": 5980,
      "asures": 5981,
      "339": 5982,
      "OD": 5983,
      "Ġtrain": 5984,
      "Ġenterprise": 5985,
      "wi": 5986,
      "ĠDevice": 5987,
      "ME": 5988,
      "####": 5989,
      "Top": 5990,
      "ĠNet": 5991,
      "results": 5992,
      "ypically": 5993,
      "WriteTime": 5994,
      "eger": 5995,
      "binary": 5996,
      "fox": 5997,
      "ĠTH": 5998,
      "cab": 5999,
      "Ġonline": 6000,
      "ients": 6001,
      "Ġhuman": 6002,
      "Ġbackup": 6003,
      "Ġsources": 6004,
      "entral": 6005,
      "139": 6006,
      "ĠYour": 6007,
      "Ġbuilding": 6008,
      "131": 6009,
      "incre": 6010,
      "BP": 6011,
      "IE": 6012,
      "ublish": 6013,
      "167": 6014,
      "ĠFire": 6015,
      "CreationTime": 6016,
      "ORT": 6017,
      "dataset": 6018,
      "ContentIndexed": 6019,
      "Ġpres": 6020,
      "ĠResources": 6021,
      "234": 6022,
      "133": 6023,
      "thesame": 6024,
      "bot": 6025,
      "onn": 6026,
      "Ġ(*)": 6027,
      "126": 6028,
      "ina": 6029,
      "arning": 6030,
      "clusion": 6031,
      "ĠCall": 6032,
      "research": 6033,
      "Acro": 6034,
      "ĠMac": 6035,
      "ealth": 6036,
      "Ġbecome": 6037,
      "Ġ59": 6038,
      "label": 6039,
      "Ġstatic": 6040,
      "ï¿½ï¿½ï¿½ï¿½ï¿½ï¿½ï¿½ï¿½": 6041,
      "Vulnerability": 6042,
      "Ġcomponent": 6043,
      "Ġothers": 6044,
      "Policies": 6045,
      "ĠNotContentIndexed": 6046,
      "160": 6047,
      "Ġdescription": 6048,
      "cket": 6049,
      "ĠLastWriteTime": 6050,
      "proxy": 6051,
      "Request": 6052,
      "Each": 6053,
      "lete": 6054,
      "processes": 6055,
      "Over": 6056,
      "opt": 6057,
      "GAC": 6058,
      "arr": 6059,
      "304": 6060,
      "ĠmacOS": 6061,
      "!!": 6062,
      "Ġhaving": 6063,
      "long": 6064,
      "036": 6065,
      "Ġmanager": 6066,
      "510": 6067,
      "lying": 6068,
      "SMB": 6069,
      "strings": 6070,
      "Ġfail": 6071,
      "again": 6072,
      "party": 6073,
      "Ġlooks": 6074,
      "ament": 6075,
      "Bytes": 6076,
      "must": 6077,
      "125": 6078,
      "ressed": 6079,
      "Ġvalidation": 6080,
      "expected": 6081,
      "derstanding": 6082,
      "\";": 6083,
      "ja": 6084,
      "BHEU": 6085,
      "atures": 6086,
      "Ġcome": 6087,
      "214": 6088,
      "444": 6089,
      "strain": 6090,
      "\\.": 6091,
      "eload": 6092,
      "abases": 6093,
      "ĠBypass": 6094,
      "ÂŃ": 6095,
      "Ġconcept": 6096,
      "CON": 6097,
      "cern": 6098,
      "icro": 6099,
      "READ": 6100,
      "oA": 6101,
      "pa": 6102,
      "xc": 6103,
      "Ø§": 6104,
      "aditional": 6105,
      "AccessTime": 6106,
      "ALLOWED": 6107,
      "Ġmanip": 6108,
      "door": 6109,
      "Ġincluded": 6110,
      "He": 6111,
      "Ġlines": 6112,
      "229": 6113,
      "Last": 6114,
      "ĠAt": 6115,
      "555": 6116,
      "ABLE": 6117,
      "urs": 6118,
      "BR": 6119,
      "Ġsum": 6120,
      "ĠBlock": 6121,
      "207": 6122,
      "Ġcross": 6123,
      "Ġcolumn": 6124,
      "Can": 6125,
      "oop": 6126,
      "ĠSEC": 6127,
      "ĠFirst": 6128,
      "SD": 6129,
      "chemes": 6130,
      "php": 6131,
      "ĠIntelligence": 6132,
      "Ġstatus": 6133,
      "activ": 6134,
      "QwB": 6135,
      "Text": 6136,
      "kit": 6137,
      "Ġextension": 6138,
      "ilities": 6139,
      "CM": 6140,
      "release": 6141,
      "ĠĠĠĠĠĠĠĠĠĠĠĠĠĠĠ": 6142,
      "Ġ2025": 6143,
      ".âĢľ": 6144,
      "ïĤ": 6145,
      "real": 6146,
      "eder": 6147,
      "Ġpurpose": 6148,
      "ĠChangeTime": 6149,
      "Ed": 6150,
      "original": 6151,
      "Ġtransfer": 6152,
      "ĠFOR": 6153,
      "Ġalgorithms": 6154,
      "ĠLastAccessTime": 6155,
      "ĠAndroid": 6156,
      "ĠFileAttributes": 6157,
      "Ġsegment": 6158,
      "||||||||": 6159,
      "ĠEnumer": 6160,
      "Ġmulti": 6161,
      "OID": 6162,
      "ĠCredential": 6163,
      "Inf": 6164,
      "ĠOF": 6165,
      "ĠIPv": 6166,
      "args": 6167,
      "rior": 6168,
      "Ġbad": 6169,
      "Ġmechanism": 6170,
      "cert": 6171,
      "eee": 6172,
      "Ġsupports": 6173,
      "700": 6174,
      "Another": 6175,
      "thical": 6176,
      "Rev": 6177,
      ":~": 6178,
      "arger": 6179,
      "îģĩ": 6180,
      "networks": 6181,
      "424": 6182,
      "Ġresponsible": 6183,
      "ĠHunting": 6184,
      "Ġallowed": 6185,
      "650": 6186,
      "Invoke": 6187,
      "COM": 6188,
      "306": 6189,
      "persistence": 6190,
      "echnologies": 6191,
      "756": 6192,
      "ĠPh": 6193,
      "uk": 6194,
      "emo": 6195,
      "ĠLocal": 6196,
      "âĢĭâĢĭ": 6197,
      "Forexample": 6198,
      "403": 6199,
      "arly": 6200,
      "Ġ=>": 6201,
      "descri": 6202,
      "ĠHigh": 6203,
      "286": 6204,
      "Severity": 6205,
      "ervised": 6206,
      "fromthe": 6207,
      "184467380": 6208,
      "emporary": 6209,
      "bdc": 6210,
      "IX": 6211,
      "Ġdemonstr": 6212,
      "Analysis": 6213,
      "Ġclassification": 6214,
      "Method": 6215,
      "âī": 6216,
      "âĬ": 6217,
      "208": 6218,
      "ĠSp": 6219,
      "Protect": 6220,
      "language": 6221,
      "2092": 6222,
      "Ġenc": 6223,
      "sites": 6224,
      "Ġlogic": 6225,
      "atis": 6226,
      "196": 6227,
      "Ġdirectories": 6228,
      "BasicInformationFile": 6229,
      "ĠCheck": 6230,
      "Ġpassed": 6231,
      "losed": 6232,
      "here": 6233,
      "Based": 6234,
      "ĠAnal": 6235,
      "ench": 6236,
      "134": 6237,
      "akes": 6238,
      "ADM": 6239,
      "ateral": 6240,
      "isions": 6241,
      "Ġsolutions": 6242,
      "extr": 6243,
      "Ġdetail": 6244,
      "SM": 6245,
      "Ġsets": 6246,
      "Scheduler": 6247,
      "SystemRoot": 6248,
      "Secure": 6249,
      "tod": 6250,
      "icense": 6251,
      "ĠAb": 6252,
      "ĠRansomware": 6253,
      "Product": 6254,
      "ðĿĳĸ": 6255,
      "Ġside": 6256,
      "Ġrisks": 6257,
      "ĠDISALLOWED": 6258,
      "ĠMitig": 6259,
      "Ġdonate": 6260,
      "tionary": 6261,
      "Ġmis": 6262,
      "risk": 6263,
      "Ġrecovery": 6264,
      "($": 6265,
      "Ġwait": 6266,
      "Ġhappen": 6267,
      "Acrobat": 6268,
      "dns": 6269,
      "ïģ": 6270,
      "ĠList": 6271,
      "Ġmanage": 6272,
      "pective": 6273,
      "rompt": 6274,
      "RR": 6275,
      "ĠNumber": 6276,
      "null": 6277,
      "tax": 6278,
      "ilit": 6279,
      "rbf": 6280,
      "QueryOpen": 6281,
      "Ġverify": 6282,
      "ĠInjection": 6283,
      "QueryBasicInformationFile": 6284,
      "QQBBAEEAQQBBAEEAQQBBAEEAQQBBAEEA": 6285,
      "Intel": 6286,
      "izational": 6287,
      "îģķ": 6288,
      "Ġterms": 6289,
      "Count": 6290,
      "icular": 6291,
      "omal": 6292,
      "offset": 6293,
      "368": 6294,
      "Ġanalyze": 6295,
      "\\*": 6296,
      "ĠDep": 6297,
      "Ġ\"*": 6298,
      "ï¬ĥ": 6299,
      "588": 6300,
      "Ġexecuting": 6301,
      "elines": 6302,
      "adget": 6303,
      "Ġ60": 6304,
      "ĠEndpoint": 6305,
      "mag": 6306,
      "istributed": 6307,
      "9056": 6308,
      "Ġmind": 6309,
      "weep": 6310,
      "Gu": 6311,
      "wew": 6312,
      "tot": 6313,
      "RC": 6314,
      "//_::_": 6315,
      "ycle": 6316,
      "ÏĨ": 6317,
      "Ġmention": 6318,
      "project": 6319,
      "smtp": 6320,
      "KNOWN": 6321,
      "itHub": 6322,
      "ymmetric": 6323,
      "600": 6324,
      "Finally": 6325,
      "Ġpersistence": 6326,
      "Flow": 6327,
      "Po": 6328,
      "817": 6329,
      "Ġfe": 6330,
      "Ġguid": 6331,
      "overs": 6332,
      "enses": 6333,
      "Ġ:=": 6334,
      "401": 6335,
      "ln": 6336,
      "undament": 6337,
      "general": 6338,
      "Ġprivileged": 6339,
      "actical": 6340,
      "Ġupon": 6341,
      "ully": 6342,
      "hee": 6343,
      "']": 6344,
      "Ġtun": 6345,
      "239": 6346,
      "Copy": 6347,
      "liver": 6348,
      "locate": 6349,
      "334": 6350,
      "Ġessential": 6351,
      "ervis": 6352,
      "Orphan": 6353,
      "ills": 6354,
      "307": 6355,
      "xf": 6356,
      "recor": 6357,
      "197": 6358,
      "Ġusage": 6359,
      "ques": 6360,
      "ARQB": 6361,
      "gradient": 6362,
      "ders": 6363,
      "150": 6364,
      "reme": 6365,
      "package": 6366,
      "Ġruns": 6367,
      "Ġreach": 6368,
      "îģı": 6369,
      "connect": 6370,
      "ĠAdversaries": 6371,
      "urations": 6372,
      "ĠCourses": 6373,
      "Ġnet": 6374,
      "Exam": 6375,
      "effect": 6376,
      "Ġconsist": 6377,
      "Ġsave": 6378,
      "Ġreve": 6379,
      "oph": 6380,
      "eader": 6381,
      "îĢ¹": 6382,
      "enges": 6383,
      "576": 6384,
      "Ġeb": 6385,
      "Ġdebugger": 6386,
      "ifically": 6387,
      "Ġallowing": 6388,
      "Ġexpected": 6389,
      "och": 6390,
      "Ġfuture": 6391,
      "Ġwr": 6392,
      "elsfoo": 6393,
      "argum": 6394,
      "ĠPassword": 6395,
      "Configuration": 6396,
      "ï¬Ģer": 6397,
      "match": 6398,
      "ĠHe": 6399,
      "poof": 6400,
      "stream": 6401,
      "umberof": 6402,
      "Ġdocuments": 6403,
      "dimension": 6404,
      "sa": 6405,
      "ationof": 6406,
      "imp": 6407,
      "Ġexpect": 6408,
      "ampa": 6409,
      "00101": 6410,
      "ĠEX": 6411,
      "Ġconsidered": 6412,
      "Ġlocated": 6413,
      "UT": 6414,
      "ailability": 6415,
      "Ġobtain": 6416,
      "Ġdecision": 6417,
      "ijack": 6418,
      "ĠGraph": 6419,
      "Ġcontinue": 6420,
      "applications": 6421,
      "header": 6422,
      "ĠSee": 6423,
      "Ġconvert": 6424,
      "eedback": 6425,
      "ky": 6426,
      "Initial": 6427,
      "Ġdoing": 6428,
      "Ġeasier": 6429,
      "ontrolled": 6430,
      "================": 6431,
      "gmt": 6432,
      "ivery": 6433,
      "shown": 6434,
      "Ġday": 6435,
      "OO": 6436,
      "weight": 6437,
      "fficient": 6438,
      "ZwB": 6439,
      "fession": 6440,
      "Ġtrusted": 6441,
      "discuss": 6442,
      "Ġartifacts": 6443,
      "Ġ57": 6444,
      "Elastic": 6445,
      "ASP": 6446,
      "EEB": 6447,
      "plugins": 6448,
      "008": 6449,
      "portun": 6450,
      "withthe": 6451,
      "Ġdate": 6452,
      "Provid": 6453,
      "ording": 6454,
      "()(": 6455,
      "stack": 6456,
      "mum": 6457,
      "refer": 6458,
      "Ġupdated": 6459,
      "ampaign": 6460,
      "found": 6461,
      "Ġcalling": 6462,
      "atabase": 6463,
      "5464": 6464,
      "RegEnum": 6465,
      "{'": 6466,
      "pool": 6467,
      "Ġinsp": 6468,
      "1700": 6469,
      "Entry": 6470,
      "Ġbutton": 6471,
      "Ġreceived": 6472,
      "CHAPTER": 6473,
      "Ġforensic": 6474,
      "Ġbot": 6475,
      "lot": 6476,
      "Ġlists": 6477,
      "Ġelse": 6478,
      "Ġimprov": 6479,
      "Ġdescribed": 6480,
      "Ġpopular": 6481,
      "ĠNIST": 6482,
      "ooking": 6483,
      "Flags": 6484,
      "ctl": 6485,
      "ĠWITH": 6486,
      "dw": 6487,
      "Ġinject": 6488,
      "themodel": 6489,
      "olation": 6490,
      "(),": 6491,
      "691": 6492,
      "standard": 6493,
      "['": 6494,
      "Ġransomware": 6495,
      "pur": 6496,
      "ĠNext": 6497,
      "176": 6498,
      "Prob": 6499,
      "eloading": 6500,
      "Ġsitu": 6501,
      "Ġattribute": 6502,
      "Ġscenario": 6503,
      "Ġgovern": 6504,
      "istributions": 6505,
      "1000": 6506,
      "umns": 6507,
      "ĠEsql": 6508,
      ",...": 6509,
      "TY": 6510,
      "Ġ---": 6511,
      "Ġassessment": 6512,
      "cases": 6513,
      "sans": 6514,
      "anguages": 6515,
      "740": 6516,
      "145": 6517,
      "AEk": 6518,
      "ĠSettings": 6519,
      "==---": 6520,
      "atent": 6521,
      "Ġespecially": 6522,
      "Ġproduction": 6523,
      "Ġdecryp": 6524,
      "bits": 6525,
      "CCE": 6526,
      "\");": 6527,
      "cheduled": 6528,
      "ĠCopyright": 6529,
      "Crypto": 6530,
      "ĠST": 6531,
      "175": 6532,
      "296": 6533,
      "whic": 6534,
      "EXECU": 6535,
      "ĠSSH": 6536,
      "Ġcomes": 6537,
      "Ġ()": 6538,
      "048": 6539,
      "Ġmeaning": 6540,
      "Display": 6541,
      "Ġenvironments": 6542,
      "CMP": 6543,
      "debug": 6544,
      "089": 6545,
      "152": 6546,
      "suchas": 6547,
      "mbers": 6548,
      "gl": 6549,
      "alf": 6550,
      "Ġmeasure": 6551,
      "select": 6552,
      "Alert": 6553,
      "important": 6554,
      "Ġseparate": 6555,
      "apple": 6556,
      "generated": 6557,
      "module": 6558,
      "GP": 6559,
      "ĠHere": 6560,
      "Ġxmm": 6561,
      "188": 6562,
      "aluable": 6563,
      "Ag": 6564,
      "Cr": 6565,
      ":\\\\": 6566,
      "Thisis": 6567,
      "Dll": 6568,
      "multi": 6569,
      "Ġpast": 6570,
      "716": 6571,
      "TLS": 6572,
      "hind": 6573,
      "Ġmenu": 6574,
      "Ġreduce": 6575,
      "akness": 6576,
      "Ġdefine": 6577,
      "inference": 6578,
      "indep": 6579,
      "==___": 6580,
      "Ġintention": 6581,
      "taid": 6582,
      "Protocol": 6583,
      "ĠAudit": 6584,
      "Ġadversaries": 6585,
      "best": 6586,
      "1029": 6587,
      "Ġdocumentation": 6588,
      "ĠFramework": 6589,
      "previous": 6590,
      "Ġmechanisms": 6591,
      "ĠSysmon": 6592,
      "bar": 6593,
      "aaS": 6594,
      "OrphanFiles": 6595,
      "Test": 6596,
      "volution": 6597,
      "Ġinvolves": 6598,
      "Writ": 6599,
      "ĠNow": 6600,
      "iliar": 6601,
      "download": 6602,
      "ropy": 6603,
      "ĠPRO": 6604,
      "within": 6605,
      "esp": 6606,
      "=--====": 6607,
      "=--/=--====": 6608,
      "//_::_=--/=--====": 6609,
      "report": 6610,
      "img": 6611,
      "Ġproperty": 6612,
      "IPS": 6613,
      "Ġidea": 6614,
      "Ġcop": 6615,
      "Ġapps": 6616,
      "Ġaccept": 6617,
      "bs": 6618,
      "ĠOther": 6619,
      "arant": 6620,
      "tasks": 6621,
      "UNKNOWN": 6622,
      "Since": 6623,
      "405": 6624,
      "wed": 6625,
      "yy": 6626,
      "anks": 6627,
      "ene": 6628,
      "Ġtechnical": 6629,
      "ĠFind": 6630,
      "But": 6631,
      "Low": 6632,
      "--..": 6633,
      ")====": 6634,
      "Az": 6635,
      "egin": 6636,
      "mor": 6637,
      "326": 6638,
      "Ġdynamic": 6639,
      "ăăăăăăăă": 6640,
      "ĠAg": 6641,
      "lood": 6642,
      "Ġappear": 6643,
      "inFigure": 6644,
      "iled": 6645,
      "rike": 6646,
      ":_--": 6647,
      "(:_)====": 6648,
      "Ġproperly": 6649,
      "GS": 6650,
      "esh": 6651,
      "Ġnt": 6652,
      "159": 6653,
      "Ġplain": 6654,
      ":_--_::": 6655,
      "Ġ45": 6656,
      "mediately": 6657,
      "Ġphase": 6658,
      "BJ": 6659,
      "True": 6660,
      "XW": 6661,
      "ĠBoot": 6662,
      "Pe": 6663,
      "svc": 6664,
      "518": 6665,
      "Br": 6666,
      "ĠView": 6667,
      ".\"": 6668,
      "Ġestablish": 6669,
      "ĠChrome": 6670,
      "ĠOperating": 6671,
      "tained": 6672,
      "jpg": 6673,
      "320": 6674,
      "pret": 6675,
      "enced": 6676,
      "been": 6677,
      "Ġjump": 6678,
      "ryptography": 6679,
      "Ġreceive": 6680,
      "Ġptr": 6681,
      "TL": 6682,
      "Ġbound": 6683,
      "utor": 6684,
      "Ġproblems": 6685,
      "252": 6686,
      "olving": 6687,
      "power": 6688,
      "atom": 6689,
      "Go": 6690,
      "events": 6691,
      "aves": 6692,
      "ustry": 6693,
      "Ġdomains": 6694,
      "messages": 6695,
      "na": 6696,
      "iring": 6697,
      "Ġadding": 6698,
      "665": 6699,
      "ĠError": 6700,
      "ĠKnown": 6701,
      "shows": 6702,
      "Ġoutside": 6703,
      "REP": 6704,
      "308": 6705,
      "Ġphishing": 6706,
      "ĠCI": 6707,
      "Ġhashes": 6708,
      "ĠMO": 6709,
      "Ġrecommend": 6710,
      "atalog": 6711,
      "ĠPart": 6712,
      "HG": 6713,
      "SSP": 6714,
      "Ġquite": 6715,
      "ĠForensics": 6716,
      "Ġaltern": 6717,
      "Credential": 6718,
      "aying": 6719,
      "lients": 6720,
      "pag": 6721,
      "arison": 6722,
      "ĠAutom": 6723,
      "179": 6724,
      "allows": 6725,
      "Ġcreates": 6726,
      "Ġcore": 6727,
      "ĠMachine": 6728,
      "anies": 6729,
      "736": 6730,
      "AEIA": 6731,
      "olders": 6732,
      "404": 6733,
      "linux": 6734,
      "135": 6735,
      "180": 6736,
      "Ġvisual": 6737,
      "Ġ2017": 6738,
      "AGk": 6739,
      ",[": 6740,
      "DAF": 6741,
      "ulting": 6742,
      "Ġremove": 6743,
      "ĠîģĬ": 6744,
      "284": 6745,
      "eval": 6746,
      "ulations": 6747,
      "ĠExample": 6748,
      "TaskScheduler": 6749,
      "oT": 6750,
      "Ġstudent": 6751,
      "likelihood": 6752,
      "Ġscope": 6753,
      "MSIL": 6754,
      "clean": 6755,
      "icon": 6756,
      "posterior": 6757,
      "Ġ!=": 6758,
      "Ġunauthorized": 6759,
      "being": 6760,
      "thatis": 6761,
      "groups": 6762,
      "288": 6763,
      "sol": 6764,
      "ĠIT": 6765,
      "Ġmult": 6766,
      "ĠRem": 6767,
      "Logoff": 6768,
      "//_::_=--/=--====--..": 6769,
      "//_::_=--/=--====--..==---": 6770,
      "Parameters": 6771,
      "istin": 6772,
      "two": 6773,
      "Ġpackage": 6774,
      "7702": 6775,
      "BM": 6776,
      "LU": 6777,
      "Ġbatch": 6778,
      "ĠTactic": 6779,
      "ĠCan": 6780,
      "Ġapplied": 6781,
      "assemb": 6782,
      "Bayesian": 6783,
      "Ġchild": 6784,
      "Ġdevelopers": 6785,
      "hidden": 6786,
      "ĠÂł": 6787,
      "othing": 6788,
      "Ġdig": 6789,
      "ĠDavid": 6790,
      "since": 6791,
      "ybrid": 6792,
      "whichis": 6793,
      "met": 6794,
      "raf": 6795,
      "htb": 6796,
      "Ġneg": 6797,
      "ĠDebug": 6798,
      "ONG": 6799,
      "CBC": 6800,
      "ADD": 6801,
      "Ġgenerally": 6802,
      "Ġhidden": 6803,
      "Ġrout": 6804,
      "oy": 6805,
      "uck": 6806,
      "Reference": 6807,
      "ĠPack": 6808,
      "agment": 6809,
      "340": 6810,
      "ĠJan": 6811,
      "Ġmill": 6812,
      "ĠUsers": 6813,
      "Ġrate": 6814,
      "ĠConfiguration": 6815,
      "dest": 6816,
      "2025": 6817,
      "appens": 6818,
      "Ġtrying": 6819,
      "Ġeffor": 6820,
      "942": 6821,
      "sur": 6822,
      "Ġconnected": 6823,
      "CIS": 6824,
      "Ġtaken": 6825,
      "My": 6826,
      "Ġfirmware": 6827,
      "266": 6828,
      "Ġoccurs": 6829,
      "EXECUTE": 6830,
      "ĠSection": 6831,
      "Ġrepos": 6832,
      "olatility": 6833,
      "jan": 6834,
      "Ġdouble": 6835,
      "Fi": 6836,
      "wik": 6837,
      "isen": 6838,
      "00007": 6839,
      "ĠArchitecture": 6840,
      "predict": 6841,
      "adding": 6842,
      "Ġtransform": 6843,
      ":(": 6844,
      "250": 6845,
      "estinations": 6846,
      "ĠSession": 6847,
      "]:": 6848,
      "section": 6849,
      "DCA": 6850,
      "last": 6851,
      "646": 6852,
      "sand": 6853,
      "WMI": 6854,
      "ĠPo": 6855,
      "RSA": 6856,
      "Ġterm": 6857,
      "242": 6858,
      "AdwB": 6859,
      ":\"": 6860,
      "Ëľ": 6861,
      "utation": 6862,
      "resource": 6863,
      "ebook": 6864,
      "Impersonation": 6865,
      "SN": 6866,
      "\\ă": 6867,
      "ĠSynchronous": 6868,
      "029": 6869,
      "ariable": 6870,
      "Ġconfirm": 6871,
      "Ġhyp": 6872,
      "__:\\": 6873,
      "7480": 6874,
      "CAP": 6875,
      "==___(:_)====": 6876,
      "//_::_=--/=--====--..==---==___(:_)====": 6877,
      "//_::_=--/=--====--..==---==___(:_)====__:\\": 6878,
      "([": 6879,
      "Ġcard": 6880,
      "Ġcondition": 6881,
      "Ġupload": 6882,
      "ĠUSB": 6883,
      "Ġproviders": 6884,
      "786": 6885,
      "Di": 6886,
      "Ġdefin": 6887,
      "IME": 6888,
      "WM": 6889,
      "ĠSince": 6890,
      "keys": 6891,
      "URE": 6892,
      "reason": 6893,
      "another": 6894,
      "249": 6895,
      "factor": 6896,
      "476": 6897,
      "Lib": 6898,
      "Ġcurrently": 6899,
      "Ġsecret": 6900,
      "ournal": 6901,
      "Ġregisters": 6902,
      "Ġblocks": 6903,
      "framework": 6904,
      "ecomp": 6905,
      "olved": 6906,
      "CTION": 6907,
      "289": 6908,
      "Exercise": 6909,
      "REG": 6910,
      "Ġbenef": 6911,
      "WOR": 6912,
      "term": 6913,
      "ebp": 6914,
      "672": 6915,
      "8876": 6916,
      "icated": 6917,
      "ĠTool": 6918,
      "Ġsymb": 6919,
      "Ġvolume": 6920,
      "REIGHT": 6921,
      "fit": 6922,
      "694": 6923,
      "Ġperforming": 6924,
      "allel": 6925,
      "Processes": 6926,
      "Ġstrong": 6927,
      "Anal": 6928,
      "dm": 6929,
      "205": 6930,
      "umes": 6931,
      "Ġautomated": 6932,
      "HP": 6933,
      "full": 6934,
      "erse": 6935,
      "elete": 6936,
      "Î²": 6937,
      "Threat": 6938,
      "MachineLearning": 6939,
      "ivalent": 6940,
      "Ġterminal": 6941,
      "eld": 6942,
      "fix": 6943,
      "ĠLatest": 6944,
      "Ġ42": 6945,
      "Identity": 6946,
      "ude": 6947,
      "ACL": 6948,
      "Ġsometimes": 6949,
      "support": 6950,
      "NativeImages": 6951,
      "ract": 6952,
      "evasion": 6953,
      "213": 6954,
      "ĠOver": 6955,
      "10586": 6956,
      "ĠCON": 6957,
      "ĠFrom": 6958,
      "Install": 6959,
      "ĠTechniques": 6960,
      "ytics": 6961,
      "ruption": 6962,
      "Ġstarts": 6963,
      "sent": 6964,
      "PAGE": 6965,
      "Config": 6966,
      "784": 6967,
      "Pass": 6968,
      "technique": 6969,
      "228": 6970,
      "Ġarbitrary": 6971,
      "Ġattention": 6972,
      "Parent": 6973,
      "ikelihood": 6974,
      "îģĢ": 6975,
      "context": 6976,
      "Ġglobal": 6977,
      "before": 6978,
      "Ġinputs": 6979,
      "Ġinvestigation": 6980,
      "Box": 6981,
      "cell": 6982,
      "xmm": 6983,
      "ĠTim": 6984,
      "Equ": 6985,
      "ĠExclusive": 6986,
      "Ġreturned": 6987,
      "VISO": 6988,
      "hidra": 6989,
      "ï¬ĥc": 6990,
      "699": 6991,
      "storage": 6992,
      "ĠAr": 6993,
      "194": 6994,
      "Ġoh": 6995,
      "SZ": 6996,
      "Engine": 6997,
      "width": 6998,
      "onal": 6999,
      "Ġpurposes": 7000,
      "Ġstructures": 7001,
      "Hacker": 7002,
      "num": 7003,
      "arp": 7004,
      "Cor": 7005,
      "den": 7006,
      "ua": 7007,
      "Ġpattern": 7008,
      "Ġroles": 7009,
      "ĠTrust": 7010,
      "WebResources": 7011,
      "408": 7012,
      "Ġpair": 7013,
      "IyMj": 7014,
      "10011": 7015,
      "Ġ2018": 7016,
      "198": 7017,
      "une": 7018,
      "Ġsamples": 7019,
      "Me": 7020,
      "adgets": 7021,
      "ĠLayer": 7022,
      "Ġtransl": 7023,
      "Init": 7024,
      "ialog": 7025,
      "ookies": 7026,
      "Ġrelationship": 7027,
      "Ġerrors": 7028,
      "Ġmobile": 7029,
      "231": 7030,
      "mi": 7031,
      "rives": 7032,
      "Ġregard": 7033,
      "Ġmaintain": 7034,
      "Ġretrieve": 7035,
      "ĠConnection": 7036,
      "rets": 7037,
      "leep": 7038,
      "Ġexplore": 7039,
      "Ġprogramming": 7040,
      "ram": 7041,
      "Ġdistribution": 7042,
      "568": 7043,
      "................................................": 7044,
      "ĠIntel": 7045,
      "via": 7046,
      "ĠArt": 7047,
      "Mark": 7048,
      "015": 7049,
      "Ġinstances": 7050,
      "ptim": 7051,
      "Ġsimpl": 7052,
      "store": 7053,
      "158": 7054,
      "IR": 7055,
      "wmi": 7056,
      "multiple": 7057,
      "Ġyet": 7058,
      "ĠApply": 7059,
      "Ġpersisted": 7060,
      "Ġleak": 7061,
      "Ġachieve": 7062,
      "reed": 7063,
      "buffer": 7064,
      "Ġdays": 7065,
      "Ġeng": 7066,
      "likely": 7067,
      "cision": 7068,
      "eu": 7069,
      "atur": 7070,
      "activity": 7071,
      "Ġelement": 7072,
      "*\",": 7073,
      "enz": 7074,
      "2013": 7075,
      "python": 7076,
      "LANEF": 7077,
      "lin": 7078,
      "Ġtotal": 7079,
      "ĠFilter": 7080,
      "BY": 7081,
      "ĠMedium": 7082,
      "Ġiter": 7083,
      "ebru": 7084,
      "Point": 7085,
      "might": 7086,
      "îģĭ": 7087,
      "Ġbig": 7088,
      "Ġlittle": 7089,
      "ĠVPN": 7090,
      "AEI": 7091,
      "ĠJSON": 7092,
      "ĠAdded": 7093,
      "performance": 7094,
      "(_": 7095,
      "Ġtargets": 7096,
      "060": 7097,
      "ulating": 7098,
      "235": 7099,
      "theres": 7100,
      "sing": 7101,
      "ĠEDR": 7102,
      "gy": 7103,
      "LANEFREIGHT": 7104,
      "Ġpress": 7105,
      "ni": 7106,
      "246": 7107,
      "Response": 7108,
      "Ġeverything": 7109,
      "Ġproducts": 7110,
      "Ġtthhee": 7111,
      "ĠForensic": 7112,
      "exam": 7113,
      "defense": 7114,
      "Ġsections": 7115,
      "Ġadministrative": 7116,
      "$$": 7117,
      "live": 7118,
      "ĠMAC": 7119,
      "237": 7120,
      "Ġmodified": 7121,
      "END": 7122,
      "Due": 7123,
      "xe": 7124,
      "Ġreli": 7125,
      "Ġflags": 7126,
      "Ġav": 7127,
      "Ġlevels": 7128,
      "wr": 7129,
      "ĠâĹı": 7130,
      "iting": 7131,
      "deï¬ģn": 7132,
      "ervisor": 7133,
      "DN": 7134,
      "Ġcontroller": 7135,
      "sibility": 7136,
      "vision": 7137,
      "Ġassembly": 7138,
      "********": 7139,
      "LC": 7140,
      "225": 7141,
      "Deploy": 7142,
      "types": 7143,
      "Ġpatterns": 7144,
      "option": 7145,
      "Ġmap": 7146,
      "ategories": 7147,
      "7541": 7148,
      "037": 7149,
      "ĠRisk": 7150,
      "Ġsupported": 7151,
      "ĠBuild": 7152,
      "Ġleverage": 7153,
      "Â¢": 7154,
      "ebruary": 7155,
      "0200": 7156,
      "------------": 7157,
      "ĠScan": 7158,
      "oder": 7159,
      "ĠRob": 7160,
      "aver": 7161,
      "Ġframe": 7162,
      "ĠSMB": 7163,
      "236": 7164,
      "Ġgeneration": 7165,
      "îĢ·": 7166,
      "Î¼": 7167,
      "iced": 7168,
      "addr": 7169,
      "Ġï¬ģles": 7170,
      "Ġdeveloped": 7171,
      "Ġcovered": 7172,
      "ĠTicket": 7173,
      "credential": 7174,
      "211": 7175,
      "195": 7176,
      "143": 7177,
      "Ġitem": 7178,
      "CCC": 7179,
      "Ġentered": 7180,
      "mo": 7181,
      "monitor": 7182,
      "uming": 7183,
      "151029": 7184,
      "fff": 7185,
      "Graph": 7186,
      "Ġfine": 7187,
      "AAAAAAAA": 7188,
      "ĠPos": 7189,
      "fully": 7190,
      "arily": 7191,
      "quant": 7192,
      "overview": 7193,
      "master": 7194,
      "ĠInvestigation": 7195,
      "ĠohNrhAfzA": 7196,
      "ĠReview": 7197,
      "){": 7198,
      "ello": 7199,
      "ĠConf": 7200,
      "running": 7201,
      "337": 7202,
      "losure": 7203,
      "900": 7204,
      "Non": 7205,
      "Ġexamine": 7206,
      "Ġrepresents": 7207,
      "976": 7208,
      "ĠResearch": 7209,
      "aut": 7210,
      "ofthes": 7211,
      "Ġdeal": 7212,
      ",...,": 7213,
      "exper": 7214,
      "Ġexploitation": 7215,
      "instance": 7216,
      "Ġ2011": 7217,
      "Ġbeginning": 7218,
      "984": 7219,
      "Ġsort": 7220,
      "ï¬ģc": 7221,
      "ĠStandard": 7222,
      "mitted": 7223,
      "ZH": 7224,
      "wbem": 7225,
      "Ġthus": 7226,
      "duced": 7227,
      "ruc": 7228,
      "Required": 7229,
      "ĠAN": 7230,
      "îģĵ": 7231,
      "Certificates": 7232,
      "Ġsn": 7233,
      "AFD": 7234,
      "efre": 7235,
      "3508": 7236,
      "Ġsuccess": 7237,
      "provides": 7238,
      "uzzing": 7239,
      "Ġones": 7240,
      "ordin": 7241,
      "Ġ+=": 7242,
      "ancial": 7243,
      "Ġmentioned": 7244,
      "ĠControls": 7245,
      "Related": 7246,
      "Boot": 7247,
      "login": 7248,
      "Ġpipeline": 7249,
      "lines": 7250,
      "Ġchannel": 7251,
      "017": 7252,
      "configuration": 7253,
      ":.": 7254,
      "Drive": 7255,
      "Final": 7256,
      "zh": 7257,
      "Ġassign": 7258,
      "filesystem": 7259,
      "architect": 7260,
      "atural": 7261,
      "ĠCA": 7262,
      "Ġlocations": 7263,
      "CPAU": 7264,
      "processing": 7265,
      "porate": 7266,
      "Vendor": 7267,
      "MultiMachine": 7268,
      "tf": 7269,
      "profile": 7270,
      "994": 7271,
      "PowerSchemes": 7272,
      "ĠAdministrator": 7273,
      "verage": 7274,
      "RegEnumKey": 7275,
      "335": 7276,
      "Ġcustomer": 7277,
      "621": 7278,
      "FEF": 7279,
      "fortun": 7280,
      "142": 7281,
      "timeout": 7282,
      "ĠSeDebugPrivilege": 7283,
      "Ms": 7284,
      "aus": 7285,
      "Ġfollowed": 7286,
      "plicitly": 7287,
      "Ġscreen": 7288,
      "filtration": 7289,
      "9987": 7290,
      "rate": 7291,
      "Ġfast": 7292,
      "wards": 7293,
      "duces": 7294,
      "team": 7295,
      "Ġnear": 7296,
      "Ġhistory": 7297,
      "443": 7298,
      "7907": 7299,
      "iddle": 7300,
      "Ġdifference": 7301,
      "KEY": 7302,
      "Min": 7303,
      "PROCESS": 7304,
      "atives": 7305,
      "isnot": 7306,
      "ĠSpec": 7307,
      "174": 7308,
      "5784": 7309,
      "ĠChain": 7310,
      "eural": 7311,
      "loating": 7312,
      "inaries": 7313,
      "ablished": 7314,
      "iï¬ģed": 7315,
      "Bit": 7316,
      "acing": 7317,
      "elves": 7318,
      "+\\": 7319,
      "usual": 7320,
      "Ġattributes": 7321,
      "rele": 7322,
      "ĠBecause": 7323,
      "Ġimprove": 7324,
      "Ġpersonal": 7325,
      "ĠEngineering": 7326,
      "iï¬ģcation": 7327,
      "_.": 7328,
      "Ġbroad": 7329,
      "Ġbreach": 7330,
      "PNF": 7331,
      "Sideloading": 7332,
      "MIN": 7333,
      "884": 7334,
      "Ġpiec": 7335,
      "Ġproviding": 7336,
      "Ġminutes": 7337,
      "Runtime": 7338,
      "identiality": 7339,
      "Many": 7340,
      "Destinations": 7341,
      "ĠEs": 7342,
      "Ġmodern": 7343,
      "lead": 7344,
      "ebe": 7345,
      "TI": 7346,
      "iginal": 7347,
      "ĠOf": 7348,
      "ĠGitHub": 7349,
      "360": 7350,
      "lanefre": 7351,
      "435": 7352,
      "inder": 7353,
      "EFD": 7354,
      "Ġthing": 7355,
      "Ġtag": 7356,
      "ĠMS": 7357,
      "396": 7358,
      "executable": 7359,
      "Ġfailed": 7360,
      "chapter": 7361,
      "Ġselected": 7362,
      "istration": 7363,
      "Ġspeed": 7364,
      "controls": 7365,
      "Ġmember": 7366,
      "Ġ53": 7367,
      "805": 7368,
      "Ġcontinu": 7369,
      "Ġhelps": 7370,
      "840": 7371,
      "eh": 7372,
      "ĠScore": 7373,
      "lp": 7374,
      "lanefreight": 7375,
      "Main": 7376,
      "Ġ89": 7377,
      "Ġ<<": 7378,
      "MonNoHandle": 7379,
      "mari": 7380,
      "FORM": 7381,
      "env": 7382,
      "Ġintentionally": 7383,
      "Ġcert": 7384,
      "eption": 7385,
      "ĠSeImpersonatePrivilege": 7386,
      "Ġcapability": 7387,
      "reshold": 7388,
      "2014": 7389,
      "âĢ¢âĢ¢": 7390,
      "gn": 7391,
      "EXP": 7392,
      "Ġlearned": 7393,
      "DDF": 7394,
      "fect": 7395,
      "0135": 7396,
      "Ġowner": 7397,
      "ATE": 7398,
      "VW": 7399,
      "Values": 7400,
      "240": 7401,
      "HQW": 7402,
      "uff": 7403,
      "Ġmanaged": 7404,
      "704": 7405,
      "248": 7406,
      "ĠMetasploit": 7407,
      "796": 7408,
      "High": 7409,
      "1157": 7410,
      "ĠĠĠĠĠĠĠĠĠĠĠĠĠĠĠĠĠ": 7411,
      "Ġinterest": 7412,
      "Ġmeet": 7413,
      "Ġvariety": 7414,
      "ĠSeTakeOwnershipPrivilege": 7415,
      "Ġlibraries": 7416,
      "GB": 7417,
      "Ġsocial": 7418,
      "ĠEAX": 7419,
      "Ġgather": 7420,
      "Ġconcepts": 7421,
      "ĠClick": 7422,
      "ĠSeBackupPrivilege": 7423,
      "Ġdiscovered": 7424,
      "Ġtree": 7425,
      "Drop": 7426,
      "Ġanything": 7427,
      "Rem": 7428,
      "Ġauth": 7429,
      "erspective": 7430,
      "plays": 7431,
      "ĠSeRestorePrivilege": 7432,
      "Ġresulting": 7433,
      "528": 7434,
      "left": 7435,
      "178": 7436,
      "ĠSeLoadDriverPrivilege": 7437,
      "ohn": 7438,
      "Ġadvantage": 7439,
      "aaa": 7440,
      "ðĿľ": 7441,
      "Ġfully": 7442,
      "properties": 7443,
      "Ġcomputing": 7444,
      "Ġtrained": 7445,
      "wher": 7446,
      "ommunication": 7447,
      "ĠOffensive": 7448,
      "ssh": 7449,
      "1212": 7450,
      "605": 7451,
      "evidence": 7452,
      "274": 7453,
      "virtual": 7454,
      "Ġteams": 7455,
      "national": 7456,
      "ĠEC": 7457,
      "Ġdeployment": 7458,
      ")]": 7459,
      "Select": 7460,
      "Ġpa": 7461,
      "2358": 7462,
      "ields": 7463,
      "221": 7464,
      "sA": 7465,
      "identity": 7466,
      "Ġdepend": 7467,
      "consent": 7468,
      "written": 7469,
      "0144": 7470,
      "0413": 7471,
      "Ġtargeted": 7472,
      "src": 7473,
      "Ġsaf": 7474,
      "setup": 7475,
      "accur": 7476,
      ")`": 7477,
      "large": 7478,
      "endors": 7479,
      "ĠSeSystemEnvironmentPrivilege": 7480,
      "hen": 7481,
      "0040": 7482,
      "226": 7483,
      "USH": 7484,
      "PUB": 7485,
      "Ġscanning": 7486,
      "Ġreplac": 7487,
      "2521": 7488,
      "8212": 7489,
      "jj": 7490,
      "whether": 7491,
      "ĠMath": 7492,
      "Ġtests": 7493,
      "ÂłÂłÂłÂł": 7494,
      "4157": 7495,
      "Ġadvanced": 7496,
      "Ps": 7497,
      "Early": 7498,
      "del": 7499,
      "Ġclose": 7500,
      "regression": 7501,
      "Ġseconds": 7502,
      "uel": 7503,
      "ublished": 7504,
      "potential": 7505,
      "Ġsending": 7506,
      "ĠTrue": 7507,
      "470": 7508,
      "Ġcorresponding": 7509,
      "ĠModule": 7510,
      "ring": 7511,
      "tiv": 7512,
      "Ġagents": 7513,
      "UP": 7514,
      "ĠSelect": 7515,
      "Ġreally": 7516,
      "imple": 7517,
      "Ġvs": 7518,
      "ĠExt": 7519,
      "Ġembedded": 7520,
      "Ġcallback": 7521,
      "Summary": 7522,
      "080": 7523,
      "ProcessHacker": 7524,
      "()=": 7525,
      "Ġexperience": 7526,
      "hi": 7527,
      ")+": 7528,
      "Ġgrad": 7529,
      "1480": 7530,
      "XT": 7531,
      "516": 7532,
      "ĠICMP": 7533,
      "FH": 7534,
      "322": 7535,
      "386": 7536,
      "SSH": 7537,
      "520": 7538,
      "GN": 7539,
      "wp": 7540,
      "567": 7541,
      "223": 7542,
      "8889": 7543,
      "455": 7544,
      "hand": 7545,
      "administrat": 7546,
      "797": 7547,
      "//_::._+\\": 7548,
      "feature": 7549,
      "Output": 7550,
      "bda": 7551,
      "Malware": 7552,
      "fro": 7553,
      "asthe": 7554,
      "Ġhook": 7555,
      "345": 7556,
      "888": 7557,
      "ĠTest": 7558,
      "aterial": 7559,
      "6403": 7560,
      "Ġalerts": 7561,
      "xffff": 7562,
      "devices": 7563,
      "31459": 7564,
      "ĠCap": 7565,
      "DQG": 7566,
      "2649": 7567,
      "ĠBase": 7568,
      "who": 7569,
      "ept": 7570,
      "Ġbo": 7571,
      "350874": 7572,
      "edc": 7573,
      "icial": 7574,
      "ĠHash": 7575,
      "Ġobfusc": 7576,
      "Ġregion": 7577,
      "0131459": 7578,
      "84350874": 7579,
      "Ġocc": 7580,
      "998708": 7581,
      "578429": 7582,
      "10100": 7583,
      "2189": 7584,
      "ĠInitial": 7585,
      "fortunately": 7586,
      "Ġexists": 7587,
      "ierarch": 7588,
      "measure": 7589,
      "îģĶ": 7590,
      "ĠMitigation": 7591,
      "ĠInstead": 7592,
      "ceptions": 7593,
      "ensity": 7594,
      "instead": 7595,
      "ĠMany": 7596,
      "ABB": 7597,
      "updates": 7598,
      "Valid": 7599,
      "Ġsay": 7600,
      "AUwB": 7601,
      "aticDestinations": 7602,
      "376": 7603,
      "\\%": 7604,
      "Ġing": 7605,
      "9937": 7606,
      "rules": 7607,
      "oney": 7608,
      "connection": 7609,
      "oto": 7610,
      "ĠSeEnableDelegationPrivilege": 7611,
      "EH": 7612,
      "_*": 7613,
      "ĠAuthor": 7614,
      "191": 7615,
      "181": 7616,
      "privilege": 7617,
      "AFM": 7618,
      "cape": 7619,
      "Ġpowerful": 7620,
      "6005": 7621,
      "Ġclasses": 7622,
      "Ġnotice": 7623,
      "Ġhighly": 7624,
      "canb": 7625,
      "Ġotherwise": 7626,
      "Ġrecogn": 7627,
      "XXXX": 7628,
      "ĠModels": 7629,
      "packet": 7630,
      "csv": 7631,
      "177": 7632,
      "Ġoutputs": 7633,
      "detection": 7634,
      "follows": 7635,
      "276": 7636,
      "Ġsaved": 7637,
      "GE": 7638,
      "\">": 7639,
      "Ġnumer": 7640,
      "587": 7641,
      "computer": 7642,
      "040": 7643,
      "usters": 7644,
      "Ġintroduced": 7645,
      "Ġdisabled": 7646,
      "CUR": 7647,
      "ĠVerification": 7648,
      "De": 7649,
      "custom": 7650,
      "Ġweek": 7651,
      "193": 7652,
      "rief": 7653,
      "Ġauthorization": 7654,
      "same": 7655,
      "Ġq": 7656,
      "Ġscal": 7657,
      "rast": 7658,
      "icensed": 7659,
      "Maps": 7660,
      "Ġmanually": 7661,
      "PER": 7662,
      "onym": 7663,
      "0861": 7664,
      "ĠOutput": 7665,
      "LT": 7666,
      "seg": 7667,
      "KH": 7668,
      "Most": 7669,
      "61267": 7670,
      "DDFE": 7671,
      "Activ": 7672,
      "Ġidentifying": 7673,
      "72996": 7674,
      "lter": 7675,
      "trained": 7676,
      "ned": 7677,
      "Ġ\"\"": 7678,
      "366": 7679,
      "0023": 7680,
      "olds": 7681,
      "Ġprofile": 7682,
      "ACAF": 7683,
      "Ġsetup": 7684,
      "6750": 7685,
      "Ġdiscover": 7686,
      "free": 7687,
      "Ġcipher": 7688,
      "290": 7689,
      "Ġapplic": 7690,
      "'}": 7691,
      "rob": 7692,
      "else": 7693,
      "ĠTake": 7694,
      "Perform": 7695,
      "814507": 7696,
      "CCEB": 7697,
      "Ġappears": 7698,
      "Slide": 7699,
      "lay": 7700,
      "ĠRet": 7701,
      "CBCB": 7702,
      "Providers": 7703,
      "0413349": 7704,
      "usually": 7705,
      "305814507": 7706,
      "dx": 7707,
      "07585": 7708,
      "estimate": 7709,
      "SystemKeys": 7710,
      "ĠVersion": 7711,
      "Consider": 7712,
      "Although": 7713,
      "Ġstrategy": 7714,
      "IyMjIyMj": 7715,
      "WD": 7716,
      "dings": 7717,
      "ptr": 7718,
      "Ġmount": 7719,
      "Ġincrease": 7720,
      "givenby": 7721,
      "dit": 7722,
      "making": 7723,
      "Standard": 7724,
      "SFT": 7725,
      "Only": 7726,
      "07585078": 7727,
      "mas": 7728,
      "344": 7729,
      "285": 7730,
      "Project": 7731,
      "Ġlabels": 7732,
      "Ġutility": 7733,
      "encrypted": 7734,
      "platform": 7735,
      "vv": 7736,
      "igration": 7737,
      "00008": 7738,
      "raight": 7739,
      "malicious": 7740,
      "ĠDefense": 7741,
      "ĠLanguage": 7742,
      "ĠRequest": 7743,
      "Com": 7744,
      "367": 7745,
      "ĠGo": 7746,
      "LOG": 7747,
      "Ġextensions": 7748,
      "ZE": 7749,
      "Ġclients": 7750,
      "388": 7751,
      "ĠâĢ¦": 7752,
      "inciples": 7753,
      "ounds": 7754,
      "introdu": 7755,
      "Ġabuse": 7756,
      "Ġprocedures": 7757,
      "170": 7758,
      "respect": 7759,
      "\\*\\": 7760,
      "Ġopportun": 7761,
      "Platforms": 7762,
      "275": 7763,
      "Ġaccuracy": 7764,
      "ventory": 7765,
      "Ġcommunications": 7766,
      "aad": 7767,
      "batch": 7768,
      "cur": 7769,
      "1111": 7770,
      "ĠHTML": 7771,
      "Ġconcern": 7772,
      "Ġscreens": 7773,
      "handle": 7774,
      "Â»": 7775,
      "Ġillustr": 7776,
      "Ġpermission": 7777,
      "appsvc": 7778,
      "tor": 7779,
      "Ġ::": 7780,
      "sequences": 7781,
      "VX": 7782,
      "ĠWMI": 7783,
      "hp": 7784,
      "Ġhandling": 7785,
      "7608": 7786,
      "Ob": 7787,
      "ĠEric": 7788,
      "299": 7789,
      "Because": 7790,
      "job": 7791,
      "Ġecx": 7792,
      "Ġbreakpoint": 7793,
      "forensics": 7794,
      "Ġsites": 7795,
      "ĠAcc": 7796,
      "anel": 7797,
      "istingu": 7798,
      "ops": 7799,
      "Ġmetrics": 7800,
      "msi": 7801,
      "Ġfailure": 7802,
      "ĠSO": 7803,
      "Ġ43": 7804,
      "EST": 7805,
      "Wecan": 7806,
      "ĠMore": 7807,
      "99691": 7808,
      "AACBCB": 7809,
      "584": 7810,
      "VOID": 7811,
      "Ġefficient": 7812,
      "488": 7813,
      "proton": 7814,
      "Execution": 7815,
      "PM": 7816,
      "2000": 7817,
      "ijacking": 7818,
      "759": 7819,
      "mazon": 7820,
      "Ġstores": 7821,
      "Ġoperand": 7822,
      "Normal": 7823,
      "essment": 7824,
      "Tasks": 7825,
      "ercial": 7826,
      "190": 7827,
      "Certificate": 7828,
      "useful": 7829,
      "oss": 7830,
      "GAN": 7831,
      "Ġcompute": 7832,
      "rax": 7833,
      "TTPS": 7834,
      "ĠIdentity": 7835,
      "351157": 7836,
      "îĢ¾": 7837,
      "5998889": 7838,
      "23589937": 7839,
      "351157107": 7840,
      "599888933": 7841,
      "QJ": 7842,
      "bad": 7843,
      "going": 7844,
      "ĠDevelopment": 7845,
      "409": 7846,
      "Hound": 7847,
      "haps": 7848,
      "ĠCS": 7849,
      "manifests": 7850,
      "Ġ52": 7851,
      "elong": 7852,
      "Ġcomplet": 7853,
      "ĠMov": 7854,
      "combin": 7855,
      "issance": 7856,
      "EADERS": 7857,
      "oundation": 7858,
      "Ġ99": 7859,
      "Ġpay": 7860,
      "alicious": 7861,
      "aced": 7862,
      "Ġaw": 7863,
      "387": 7864,
      "ĠEncryption": 7865,
      "aknesses": 7866,
      "med": 7867,
      "007": 7868,
      "4824": 7869,
      "ALwA": 7870,
      "algorithms": 7871,
      "edge": 7872,
      "icture": 7873,
      "Ġ..": 7874,
      "msf": 7875,
      "thedata": 7876,
      "Custom": 7877,
      "verview": 7878,
      "Internal": 7879,
      "032": 7880,
      "elnet": 7881,
      "ĠHacking": 7882,
      "particular": 7883,
      "LLM": 7884,
      "Language": 7885,
      "fi": 7886,
      "ĠLee": 7887,
      "277": 7888,
      "icks": 7889,
      "Ġthroughout": 7890,
      "ĠTechnique": 7891,
      "Ġ\\\\": 7892,
      "RITE": 7893,
      "Ġmatrix": 7894,
      "ĠMost": 7895,
      "Ġstage": 7896,
      "867": 7897,
      "Ġsomeone": 7898,
      "Ġposition": 7899,
      "enant": 7900,
      "Ġlisted": 7901,
      "xb": 7902,
      "Ġhappens": 7903,
      "Ġalmost": 7904,
      "________________________________________________________________": 7905,
      "Ġcybersecurity": 7906,
      "Ġï¬ģrst": 7907,
      "LB": 7908,
      "More": 7909,
      "ĠLD": 7910,
      "problems": 7911,
      "thata": 7912,
      "795": 7913,
      "356": 7914,
      "BCED": 7915,
      "provide": 7916,
      "ĠHacker": 7917,
      "78818": 7918,
      "protonmail": 7919,
      "osen": 7920,
      "pract": 7921,
      "8928": 7922,
      "rowsers": 7923,
      "remely": 7924,
      "INT": 7925,
      "ara": 7926,
      "ĠSent": 7927,
      "Ġvaluable": 7928,
      "392": 7929,
      "ateway": 7930,
      "AEQA": 7931,
      "Ġintended": 7932,
      "Scan": 7933,
      "tactic": 7934,
      "Press": 7935,
      "Ġlatest": 7936,
      "Advers": 7937,
      "Ġdefense": 7938,
      "FDCE": 7939,
      "amps": 7940,
      "394": 7941,
      "1142189": 7942,
      "88761142189": 7943,
      "640349": 7944,
      "7881888761142189": 7945,
      "uber": 7946,
      "253": 7947,
      "ĠGeneric": 7948,
      "iagram": 7949,
      "Ġmitigations": 7950,
      "\":[\"": 7951,
      "279": 7952,
      "ĠLtd": 7953,
      "Ġshe": 7954,
      "230": 7955,
      "phy": 7956,
      "KL": 7957,
      "tid": 7958,
      "inet": 7959,
      "utational": 7960,
      "Ġpenetration": 7961,
      "Ġmaximum": 7962,
      "coming": 7963,
      "251": 7964,
      "Ġimmediately": 7965,
      "Ġevaluation": 7966,
      "dn": 7967,
      "Ġinser": 7968,
      "00009": 7969,
      "5332": 7970,
      "lower": 7971,
      "AGcA": 7972,
      "Ġreveal": 7973,
      "forensic": 7974,
      "Ġreading": 7975,
      "field": 7976,
      "extract": 7977,
      "374": 7978,
      "Ġchallenge": 7979,
      "dimensional": 7980,
      "Python": 7981,
      "Ġbody": 7982,
      "abs": 7983,
      "Ġmembers": 7984,
      "wiz": 7985,
      "Ġbar": 7986,
      "EFI": 7987,
      "Ġeffectively": 7988,
      "sure": 7989,
      "very": 7990,
      "\\|": 7991,
      "ben": 7992,
      "xr": 7993,
      "Ġcryptographic": 7994,
      "created": 7995,
      "ĠPlatform": 7996,
      "315": 7997,
      "Proxy": 7998,
      "153": 7999,
      "RESS": 8000,
      "ĠSYSTEM": 8001,
      "CISA": 8002,
      "().": 8003,
      "Rtl": 8004,
      "orth": 8005,
      "elastic": 8006,
      "annels": 8007,
      "ĠJavaScript": 8008,
      "Ġcomputers": 8009,
      "Ġchunk": 8010,
      "ĠîģĨ": 8011,
      "apters": 8012,
      "Ġ65": 8013,
      "012": 8014,
      "245": 8015,
      "ĠWireshark": 8016,
      "182": 8017,
      "ĠNt": 8018,
      "Ġbehind": 8019,
      "orting": 8020,
      "Ġconditions": 8021,
      "ictionary": 8022,
      "ĠZero": 8023,
      "804": 8024,
      "ĠLine": 8025,
      "ĠLink": 8026,
      "ASgB": 8027,
      "Auto": 8028,
      "ĠInstall": 8029,
      "apply": 8030,
      "ilarly": 8031,
      "amazon": 8032,
      "Ġvideo": 8033,
      "ofthis": 8034,
      "Ġhours": 8035,
      "Ġlarger": 8036,
      "untu": 8037,
      "cad": 8038,
      "sample": 8039,
      "allenge": 8040,
      "umption": 8041,
      "Fr": 8042,
      "Ġtechnologies": 8043,
      "ighb": 8044,
      "NIST": 8045,
      "vulnerabilities": 8046,
      "Ġwireless": 8047,
      "ompl": 8048,
      "âĢ¦âĢ¦âĢ¦âĢ¦": 8049,
      "keyboard": 8050,
      "Introduction": 8051,
      "Ġsl": 8052,
      "Ġdrop": 8053,
      "Ġhandler": 8054,
      "EV": 8055,
      "authentic": 8056,
      "ATUS": 8057,
      "AEEAQQB": 8058,
      "ĠONLY": 8059,
      "}}": 8060,
      "reference": 8061,
      "Ġlife": 8062,
      "marks": 8063,
      "542": 8064,
      "Ġtraditional": 8065,
      "Ġscore": 8066,
      "Ġelev": 8067,
      "=____": 8068,
      "Ġplaintext": 8069,
      "Ġsessions": 8070,
      "respond": 8071,
      "0010026": 8072,
      "Ġip": 8073,
      "cca": 8074,
      "entry": 8075,
      "share": 8076,
      "operation": 8077,
      "blue": 8078,
      "80100": 8079,
      "ĠBlue": 8080,
      "CAT": 8081,
      "LW": 8082,
      "isco": 8083,
      "ï»Ł": 8084,
      "708": 8085,
      "foc": 8086,
      "Ġciph": 8087,
      "014": 8088,
      "ĠInvoke": 8089,
      "Ġesp": 8090,
      "Ġ73": 8091,
      "ĠAltered": 8092,
      "321": 8093,
      "hh": 8094,
      "Ġperforms": 8095,
      "coding": 8096,
      "(,": 8097,
      "Dbg": 8098,
      "sat": 8099,
      "ĠToken": 8100,
      "OAB": 8101,
      "50200": 8102,
      "Ġdesktop": 8103,
      "Ġfiltering": 8104,
      "610": 8105,
      "ĠProduction": 8106,
      "Ġneural": 8107,
      "ADAA": 8108,
      "associated": 8109,
      "Ġsignal": 8110,
      "Ġthreads": 8111,
      "Ġexactly": 8112,
      "ativ": 8113,
      "mentation": 8114,
      "Ġearly": 8115,
      "ĠMark": 8116,
      "protection": 8117,
      "communication": 8118,
      "269": 8119,
      "Ġcompanies": 8120,
      "ferences": 8121,
      "Ġ128": 8122,
      "Ġpractices": 8123,
      "ĠPrivilege": 8124,
      "Ġher": 8125,
      "ĠVisual": 8126,
      "rece": 8127,
      "ĠFormat": 8128,
      "Documents": 8129,
      "gex": 8130,
      "Ġstatement": 8131,
      "750": 8132,
      "areness": 8133,
      "687": 8134,
      "Car": 8135,
      "INF": 8136,
      "Ol": 8137,
      "raining": 8138,
      "send": 8139,
      "Ġgets": 8140,
      "Ġinit": 8141,
      "Ġproperties": 8142,
      "AY": 8143,
      "much": 8144,
      "xC": 8145,
      "ĠExcel": 8146,
      "ĠAlso": 8147,
      "ĠExploited": 8148,
      "Probabilistic": 8149,
      "fam": 8150,
      "orld": 8151,
      "Ġconsole": 8152,
      "Ġremoved": 8153,
      "ĠRefer": 8154,
      "Ġcirc": 8155,
      "Ġmask": 8156,
      "phone": 8157,
      "Ġendpoints": 8158,
      "MAP": 8159,
      "amer": 8160,
      "apid": 8161,
      "Ġasset": 8162,
      "Draft": 8163,
      "rain": 8164,
      "reh": 8165,
      "Ġsends": 8166,
      "oles": 8167,
      "Ġreports": 8168,
      "278": 8169,
      "Ġdelete": 8170,
      ":[": 8171,
      "AGkA": 8172,
      "cut": 8173,
      "ĠMIT": 8174,
      "tgt": 8175,
      "Ġdatasets": 8176,
      "Xiv": 8177,
      "cdd": 8178,
      "np": 8179,
      "SYS": 8180,
      "Ġquant": 8181,
      "2604": 8182,
      "Ġchecking": 8183,
      "ĠMy": 8184,
      "Ġtherefore": 8185,
      "extron": 8186,
      "Â£": 8187,
      "Ġins": 8188,
      "ĠXML": 8189,
      "9281": 8190,
      "ĠGhidra": 8191,
      "crimin": 8192,
      "ĠThread": 8193,
      "Tool": 8194,
      "DATA": 8195,
      "Su": 8196,
      "Ġdialog": 8197,
      "ipe": 8198,
      "ROM": 8199,
      "ĠMike": 8200,
      "ovari": 8201,
      "Ġep": 8202,
      "EFFB": 8203,
      "ĠInternal": 8204,
      "operations": 8205,
      "were": 8206,
      "ickets": 8207,
      "register": 8208,
      "Ġrepository": 8209,
      "driver": 8210,
      "thiss": 8211,
      "thecon": 8212,
      "ĠController": 8213,
      "Ġnavig": 8214,
      "obj": 8215,
      "ĠEvasion": 8216,
      "knowledge": 8217,
      "orts": 8218,
      "Ġquality": 8219,
      "Conf": 8220,
      "exact": 8221,
      "FileMaps": 8222,
      "ĠLOCK": 8223,
      "ĠTechnology": 8224,
      "Ġvi": 8225,
      "Ġdepending": 8226,
      "ĠNVISO": 8227,
      "62234": 8228,
      "10000": 8229,
      "3829": 8230,
      "348": 8231,
      "rather": 8232,
      "Ġenables": 8233,
      "Gr": 8234,
      "Ġder": 8235,
      "Ġmaterial": 8236,
      "Implement": 8237,
      "Ġenumerate": 8238,
      "QH": 8239,
      "313": 8240,
      "CreateSection": 8241,
      "Ġstandards": 8242,
      "states": 8243,
      "aca": 8244,
      "565": 8245,
      "FBCE": 8246,
      "objects": 8247,
      "Extensions": 8248,
      "ously": 8249,
      "Ġprobably": 8250,
      "ĠWi": 8251,
      "CV": 8252,
      "Stack": 8253,
      "Spec": 8254,
      "calls": 8255,
      "Ġworth": 8256,
      "Ġencoding": 8257,
      "8928744": 8258,
      "62234578": 8259,
      "mfl": 8260,
      "Ġ77": 8261,
      "ulator": 8262,
      "iminal": 8263,
      "ĠAny": 8264,
      "Ġparts": 8265,
      "Le": 8266,
      "ÏĦ": 8267,
      "Ġadv": 8268,
      "Ġoverall": 8269,
      "Ġinstallation": 8270,
      "Ġtables": 8271,
      "labor": 8272,
      "Ġclean": 8273,
      "emodel": 8274,
      "ensors": 8275,
      "Ġaccessible": 8276,
      "Ġdatabases": 8277,
      "Mac": 8278,
      "ĠOx": 8279,
      "rray": 8280,
      "inciple": 8281,
      "FORMATION": 8282,
      "RS": 8283,
      "Ġdi": 8284,
      "Ġtaking": 8285,
      "Ġproduce": 8286,
      "additional": 8287,
      "OH": 8288,
      "Ġ]": 8289,
      "Ġcluster": 8290,
      "NOTE": 8291,
      "Cert": 8292,
      "Ġpaper": 8293,
      "Nextron": 8294,
      "ANDLE": 8295,
      "Ġ((": 8296,
      "////": 8297,
      "encryption": 8298,
      "ĠCert": 8299,
      "Ġready": 8300,
      "quisition": 8301,
      "indic": 8302,
      "Ġaccompl": 8303,
      "AHcA": 8304,
      "person": 8305,
      "esto": 8306,
      "buf": 8307,
      "sequence": 8308,
      "short": 8309,
      "CAPEC": 8310,
      "641": 8311,
      "294": 8312,
      "Ġevaluate": 8313,
      "Ġ88": 8314,
      "ĠPO": 8315,
      "Ġdescribe": 8316,
      "088": 8317,
      "ĠMeg": 8318,
      "identify": 8319,
      "strained": 8320,
      "247": 8321,
      "calc": 8322,
      "522": 8323,
      "Del": 8324,
      "VV": 8325,
      "ks": 8326,
      "ĠFinally": 8327,
      "istor": 8328,
      "Alloc": 8329,
      "ĠFirefox": 8330,
      "gers": 8331,
      "Ġvol": 8332,
      "Ġpool": 8333,
      "RF": 8334,
      "AEM": 8335,
      "herit": 8336,
      "Binary": 8337,
      "Ġhex": 8338,
      "ĠKill": 8339,
      "istinct": 8340,
      "đă": 8341,
      "Ġold": 8342,
      "ĠStack": 8343,
      "AMAB": 8344,
      "analyz": 8345,
      "black": 8346,
      "consist": 8347,
      "Our": 8348,
      "etary": 8349,
      "Ġregistered": 8350,
      "agnostics": 8351,
      "ategor": 8352,
      "ĠGranted": 8353,
      "Ele": 8354,
      "cover": 8355,
      "399": 8356,
      "quence": 8357,
      "AMSI": 8358,
      "riter": 8359,
      "deep": 8360,
      "Ġresponses": 8361,
      "Ġcollected": 8362,
      "cn": 8363,
      "eloc": 8364,
      "Ġexploits": 8365,
      "533251": 8366,
      "Your": 8367,
      "Ġsplit": 8368,
      "Ġpython": 8369,
      "INS": 8370,
      "username": 8371,
      "ĠOrgan": 8372,
      "OM": 8373,
      "ners": 8374,
      "rl": 8375,
      "amodel": 8376,
      "ĠEm": 8377,
      "Ġaspect": 8378,
      "osition": 8379,
      "54533251": 8380,
      "those": 8381,
      "cidents": 8382,
      "ĠDesktop": 8383,
      "267": 8384,
      "ĠAlthough": 8385,
      "Distribution": 8386,
      "foreach": 8387,
      "Ġlinks": 8388,
      "00000001": 8389,
      "319": 8390,
      "SERVICE": 8391,
      "gp": 8392,
      "bing": 8393,
      "range": 8394,
      "Ġfix": 8395,
      "Tim": 8396,
      "Ġcertificates": 8397,
      "Ġlogical": 8398,
      "tivirus": 8399,
      "Ġ84": 8400,
      "maximum": 8401,
      "eature": 8402,
      "traffic": 8403,
      "Ġguess": 8404,
      "Ġdeleted": 8405,
      "ĠLDAP": 8406,
      "squ": 8407,
      "Ġâĸł": 8408,
      "287": 8409,
      "iscalled": 8410,
      "311": 8411,
      "3572": 8412,
      "540": 8413,
      "ĠSyncTypeOther": 8414,
      "px": 8415,
      "tree": 8416,
      "Ġ00000000": 8417,
      "itives": 8418,
      "Ġredirect": 8419,
      "Ġ445": 8420,
      "BHASIA": 8421,
      "wner": 8422,
      "abit": 8423,
      "ĠHard": 8424,
      "against": 8425,
      "259": 8426,
      "Ġ76": 8427,
      "ĠCertificate": 8428,
      "ĠDetails": 8429,
      "406": 8430,
      "eco": 8431,
      "ĠPass": 8432,
      "ipedia": 8433,
      "cores": 8434,
      "ĈĈĈĈĈĈĈĈ": 8435,
      "Topics": 8436,
      "loader": 8437,
      "ci": 8438,
      "Ġcorrectly": 8439,
      "arial": 8440,
      "Ġlisting": 8441,
      "keep": 8442,
      "writing": 8443,
      "Ġplatforms": 8444,
      "Ġded": 8445,
      "ĠEntra": 8446,
      "DG": 8447,
      "258": 8448,
      "Ġ511": 8449,
      "display": 8450,
      "=[": 8451,
      "ecr": 8452,
      "Ġrely": 8453,
      "ĠMc": 8454,
      "requires": 8455,
      "Ġpredict": 8456,
      "ami": 8457,
      "552": 8458,
      "ACHE": 8459,
      "Ġtransaction": 8460,
      "ats": 8461,
      "2006": 8462,
      "IG": 8463,
      "ä¸": 8464,
      "Ġ2016": 8465,
      "490": 8466,
      "852": 8467,
      "Endpoint": 8468,
      "Pending": 8469,
      "drop": 8470,
      "DEV": 8471,
      "Ġruntime": 8472,
      "ixture": 8473,
      "Ġdisable": 8474,
      "Catalog": 8475,
      "necessary": 8476,
      "7659": 8477,
      "Before": 8478,
      "Ġfrequently": 8479,
      "ubernet": 8480,
      "Î·": 8481,
      "ĠBit": 8482,
      "former": 8483,
      "Ġmax": 8484,
      "tech": 8485,
      "265": 8486,
      "546": 8487,
      "Ġloading": 8488,
      "\"],\"": 8489,
      "game": 8490,
      "kali": 8491,
      "estricted": 8492,
      "AzAD": 8493,
      "Ġscale": 8494,
      "uly": 8495,
      "ĠInf": 8496,
      "Ġgives": 8497,
      "Ġ*/": 8498,
      "Depth": 8499,
      "certain": 8500,
      "Ġauto": 8501,
      "Ġencoded": 8502,
      "aml": 8503,
      "292": 8504,
      "sysmon": 8505,
      "role": 8506,
      "urp": 8507,
      "kbook": 8508,
      "dependent": 8509,
      "ccf": 8510,
      "ĠDiscovery": 8511,
      "ubernetes": 8512,
      "Any": 8513,
      "nowledge": 8514,
      "Ġinvalid": 8515,
      "907": 8516,
      "RX": 8517,
      "Ġexplor": 8518,
      "evin": 8519,
      "Ġexit": 8520,
      "604": 8521,
      "aults": 8522,
      "Ġ70": 8523,
      "Ġ61": 8524,
      "MT": 8525,
      "358": 8526,
      "They": 8527,
      "built": 8528,
      "Applications": 8529,
      "thereis": 8530,
      "separ": 8531,
      "ustering": 8532,
      "Ġpaths": 8533,
      "ilking": 8534,
      "thernet": 8535,
      "Ġplay": 8536,
      "ilkington": 8537,
      "318": 8538,
      "=-..\\": 8539,
      "erpreter": 8540,
      ".....": 8541,
      "Ġsignatures": 8542,
      "Execute": 8543,
      "straints": 8544,
      "336": 8545,
      "vulnerability": 8546,
      "Ġorganizational": 8547,
      "uit": 8548,
      "Ġinvolved": 8549,
      "BS": 8550,
      "Co": 8551,
      "Payload": 8552,
      "Ġplease": 8553,
      "exts": 8554,
      "9685": 8555,
      "Ġseq": 8556,
      "Ġrefers": 8557,
      "grade": 8558,
      "SET": 8559,
      "media": 8560,
      "testing": 8561,
      "amper": 8562,
      "Ġprofession": 8563,
      "Ġmapping": 8564,
      "GHO": 8565,
      "302": 8566,
      "urple": 8567,
      "clude": 8568,
      "Ġ----": 8569,
      "cli": 8570,
      "uchs": 8571,
      "basic": 8572,
      "changes": 8573,
      "ĠREADERS": 8574,
      "554": 8575,
      "Ġcombination": 8576,
      "Mgmt": 8577,
      "browser": 8578,
      "Ġsugg": 8579,
      "ĠTGT": 8580,
      "configure": 8581,
      "Ġmonth": 8582,
      "ĠEscalation": 8583,
      "467": 8584,
      "ashboard": 8585,
      "Ġfamiliar": 8586,
      "WORK": 8587,
      "609": 8588,
      "857": 8589,
      "Ġlogoff": 8590,
      "bcb": 8591,
      "Connection": 8592,
      "Ġdeployed": 8593,
      "ĠRobert": 8594,
      "Licensed": 8595,
      "latest": 8596,
      "orp": 8597,
      "ĠTTP": 8598,
      "ĠState": 8599,
      "PowerScheme": 8600,
      "Mur": 8601,
      "makes": 8602,
      "Ġtoday": 8603,
      "INFO": 8604,
      "ĠCustom": 8605,
      "tobe": 8606,
      "Ġtemplate": 8607,
      "depend": 8608,
      "ki": 8609,
      "Ġconstruct": 8610,
      "EAR": 8611,
      "Node": 8612,
      "guid": 8613,
      "272": 8614,
      "Ġcommunicate": 8615,
      "Ġlinked": 8616,
      "Action": 8617,
      "atency": 8618,
      "adec": 8619,
      "Ġ74": 8620,
      "Ġareas": 8621,
      "sequent": 8622,
      "ĠEven": 8623,
      "3325": 8624,
      "May": 8625,
      "uu": 8626,
      "ecode": 8627,
      "PowerSchemeValues": 8628,
      "ybersecurity": 8629,
      "{}": 8630,
      "1414": 8631,
      "avel": 8632,
      "proper": 8633,
      "always": 8634,
      "ĠĠĠĠĠĠĠĠĠĠĠĠĠĠĠĠĠĠĠĠĠĠĠĠĠĠĠĠĠĠĠĠĠĠĠĠĠĠĠĠĠĠĠĠĠĠĠĠ": 8635,
      "Apple": 8636,
      "nls": 8637,
      "osing": 8638,
      "ĠWake": 8639,
      "Ġopened": 8640,
      "ĠLOCKED": 8641,
      "Dir": 8642,
      "ups": 8643,
      "ertext": 8644,
      "9616": 8645,
      "Ġtypical": 8646,
      "Ġrecent": 8647,
      "kind": 8648,
      "ĠIR": 8649,
      "184467380268": 8650,
      "bash": 8651,
      "ï¼": 8652,
      "Ġsense": 8653,
      "umb": 8654,
      "263": 8655,
      "347": 8656,
      "andid": 8657,
      "ĠPageProtection": 8658,
      "ĠSyncTypeCreateSection": 8659,
      "ï¬Ģerent": 8660,
      "thisc": 8661,
      "ðĿĴ": 8662,
      "âĸĪ": 8663,
      "ULONG": 8664,
      "Ġseries": 8665,
      "659": 8666,
      "Ġraw": 8667,
      "components": 8668,
      "Ġmanual": 8669,
      "NOC": 8670,
      "Terminal": 8671,
      "criptions": 8672,
      "ducing": 8673,
      "reen": 8674,
      "858": 8675,
      "Ġattach": 8676,
      "thenumberof": 8677,
      "'ve": 8678,
      "lt": 8679,
      "land": 8680,
      "Ġdev": 8681,
      "Ġbecomes": 8682,
      "aspnet": 8683,
      "vs": 8684,
      "ĠPenetration": 8685,
      "estamps": 8686,
      "anger": 8687,
      "ifiers": 8688,
      "Ġdesired": 8689,
      "949": 8690,
      "EG": 8691,
      "Ġactors": 8692,
      "copy": 8693,
      "desktop": 8694,
      "Ġindustry": 8695,
      "Ġprobability": 8696,
      "ZQB": 8697,
      "iding": 8698,
      "Item": 8699,
      "Ġpresented": 8700,
      "WQB": 8701,
      "INLANEFREIGHT": 8702,
      "Ġ66": 8703,
      "Est": 8704,
      "required": 8705,
      "DefaultPowerSchemeValues": 8706,
      "Optim": 8707,
      "PID": 8708,
      "Ġign": 8709,
      "Ġcentral": 8710,
      "andwidth": 8711,
      "plicated": 8712,
      "802": 8713,
      "database": 8714,
      "frame": 8715,
      "next": 8716,
      "temp": 8717,
      "1113": 8718,
      "Ġinteger": 8719,
      "ĠSIEM": 8720,
      ")(?": 8721,
      "contain": 8722,
      "696": 8723,
      "Ġinfo": 8724,
      "ulme": 8725,
      "Ġexport": 8726,
      "Yes": 8727,
      "Ġfaster": 8728,
      "297": 8729,
      "00010": 8730,
      "Ġgoals": 8731,
      "design": 8732,
      "Ġheaders": 8733,
      "February": 8734,
      "cost": 8735,
      "dp": 8736,
      "ĠHat": 8737,
      "370": 8738,
      "468": 8739,
      "ĠConrad": 8740,
      "La": 8741,
      "ĠPilkington": 8742,
      "Ġls": 8743,
      "optional": 8744,
      "trusted": 8745,
      "ĠFA": 8746,
      "aAB": 8747,
      "ARAB": 8748,
      "sibilities": 8749,
      "TYPE": 8750,
      "'re": 8751,
      "64596": 8752,
      "Ġvers": 8753,
      "Exception": 8754,
      "ĠXSS": 8755,
      "4222": 8756,
      "VAL": 8757,
      "mnt": 8758,
      "itical": 8759,
      "5058": 8760,
      "pointer": 8761,
      "ĠSeth": 8762,
      "Ġaccording": 8763,
      "Ġpriority": 8764,
      "ðĿĳĸðĿĳĸ": 8765,
      "False": 8766,
      "ĠSec": 8767,
      "wehave": 8768,
      "BI": 8769,
      "pol": 8770,
      "ĠVulnerable": 8771,
      "Change": 8772,
      "Ġdescriptor": 8773,
      "olves": 8774,
      "isenar": 8775,
      "gi": 8776,
      "Â°": 8777,
      "plained": 8778,
      "853": 8779,
      "Ġcrash": 8780,
      "gs": 8781,
      "Ġsandbox": 8782,
      "ĠAES": 8783,
      "andatory": 8784,
      "473829": 8785,
      "897659": 8786,
      "238897659": 8787,
      "332564596": 8788,
      "473829301": 8789,
      "rp": 8790,
      "idely": 8791,
      "Ġlanguages": 8792,
      "())": 8793,
      "Click": 8794,
      "atibility": 8795,
      "anning": 8796,
      "Ġheap": 8797,
      "IEX": 8798,
      "prompt": 8799,
      "ĠMisenar": 8800,
      "havi": 8801,
      "909": 8802,
      "Emp": 8803,
      "863": 8804,
      "Enumer": 8805,
      "ubeus": 8806,
      "library": 8807,
      "Ġsyntax": 8808,
      "ĠMathias": 8809,
      "execute": 8810,
      "NOCACHE": 8811,
      "ĠAgent": 8812,
      "ctime": 8813,
      "options": 8814,
      "Profile": 8815,
      "ĠBo": 8816,
      "257": 8817,
      "Ġelect": 8818,
      "ategy": 8819,
      "Ġauthenticate": 8820,
      "ĠTaz": 8821,
      "otes": 8822,
      "ĠFuchs": 8823,
      "Ġextra": 8824,
      "Ġassume": 8825,
      "'}]": 8826,
      "Bo": 8827,
      "Ġauthorized": 8828,
      "VL": 8829,
      "wec": 8830,
      "\\_": 8831,
      "ism": 8832,
      "individual": 8833,
      "complete": 8834,
      "Ġnoise": 8835,
      "Ġlinear": 8836,
      "Ġarchitect": 8837,
      "abytes": 8838,
      "SID": 8839,
      "};": 8840,
      "Ġcur": 8841,
      "Print": 8842,
      "cm": 8843,
      "iam": 8844,
      "maxim": 8845,
      "Ġinference": 8846,
      "iveness": 8847,
      "Font": 8848,
      "ayout": 8849,
      "chedule": 8850,
      "Pool": 8851,
      "UE": 8852,
      "Î³": 8853,
      "inwhich": 8854,
      "Courses": 8855,
      "la": 8856,
      "still": 8857,
      "Ġlaw": 8858,
      "mdm": 8859,
      "ĠProject": 8860,
      "ĠSSL": 8861,
      "Global": 8862,
      "sulting": 8863,
      "ici": 8864,
      "ĠPS": 8865,
      "oded": 8866,
      "Ġhold": 8867,
      "PH": 8868,
      "Ġfive": 8869,
      "ĠPersistence": 8870,
      "ĠFlow": 8871,
      "xity": 8872,
      "Ġexecutes": 8873,
      "ohNrhAfzA": 8874,
      "Dynamic": 8875,
      "Logs": 8876,
      "Ġtimeout": 8877,
      "determin": 8878,
      "2222": 8879,
      "Ġforce": 8880,
      "ontrollers": 8881,
      "Ġemployees": 8882,
      "VID": 8883,
      "767": 8884,
      "Ġfinding": 8885,
      "Ġwide": 8886,
      "quire": 8887,
      "ĠSeSecurityPrivilege": 8888,
      "Ġparticularly": 8889,
      "observed": 8890,
      "Ġgetting": 8891,
      "termin": 8892,
      "597": 8893,
      "Ġoffers": 8894,
      "......": 8895,
      "Ġconï¬ģg": 8896,
      "ugges": 8897,
      "Ġcompliance": 8898,
      "Ġadministrators": 8899,
      "Ġdebugging": 8900,
      "least": 8901,
      "comes": 8902,
      "registry": 8903,
      "BHAS": 8904,
      "oe": 8905,
      "592": 8906,
      "ĠTherefore": 8907,
      "Ġdeliver": 8908,
      "auto": 8909,
      "ĠShe": 8910,
      "WindowsPowerShell": 8911,
      "171": 8912,
      "548": 8913,
      "weights": 8914,
      "complex": 8915,
      "ĠJames": 8916,
      "Why": 8917,
      "Ġhighlight": 8918,
      "Ġdefinition": 8919,
      "bee": 8920,
      "emplates": 8921,
      "ĠUpdate": 8922,
      "question": 8923,
      "Develop": 8924,
      "âĪ¼": 8925,
      "7000": 8926,
      "ĠUDP": 8927,
      "Ġsearching": 8928,
      "Training": 8929,
      "endix": 8930,
      "ĠRece": 8931,
      "Ġencounter": 8932,
      "Murphy": 8933,
      "679": 8934,
      "362": 8935,
      "requests": 8936,
      "Crypt": 8937,
      "SidTypeUser": 8938,
      "Ġdeveloper": 8939,
      "plicate": 8940,
      "ĠCommon": 8941,
      "233": 8942,
      "formed": 8943,
      "ĠRDP": 8944,
      "501": 8945,
      "aspx": 8946,
      "napshot": 8947,
      "scription": 8948,
      "SINT": 8949,
      "ĠWhy": 8950,
      "Ġreferences": 8951,
      "ĉĠ": 8952,
      "Ġnodes": 8953,
      "Separ": 8954,
      "special": 8955,
      "wide": 8956,
      "omed": 8957,
      "ï¬ģne": 8958,
      "Ġ63": 8959,
      "Ġcustomers": 8960,
      "Ġgreater": 8961,
      "261": 8962,
      "EAX": 8963,
      "physical": 8964,
      "940": 8965,
      "enders": 8966,
      "vectors": 8967,
      "ley": 8968,
      "ï¬ģle": 8969,
      "interface": 8970,
      "Ġseem": 8971,
      "aj": 8972,
      "trust": 8973,
      "Ġanomal": 8974,
      "plant": 8975,
      "traction": 8976,
      "rent": 8977,
      "window": 8978,
      "Ġhelpful": 8979,
      "Ġreferred": 8980,
      "cer": 8981,
      "schema": 8982,
      "âĦ": 8983,
      "wineventlog": 8984,
      "ĠNetworks": 8985,
      "Ġparse": 8986,
      "addresses": 8987,
      "neg": 8988,
      "powers": 8989,
      "xa": 8990,
      "Ġcontinuous": 8991,
      "Ġspecifically": 8992,
      "SION": 8993,
      "></": 8994,
      "Ġtalk": 8995,
      "tokens": 8996,
      "commands": 8997,
      "Recent": 8998,
      "sibly": 8999,
      "kill": 9000,
      "privileges": 9001,
      "HCP": 9002,
      "hu": 9003,
      "Ġwww": 9004,
      "emant": 9005,
      "536": 9006,
      "ka": 9007,
      "Bag": 9008,
      "TF": 9009,
      "magine": 9010,
      "Ġbeli": 9011,
      "epresent": 9012,
      "ensure": 9013,
      "494": 9014,
      "FileName": 9015,
      "Ġplugin": 9016,
      "Ġconstant": 9017,
      "Ops": 9018,
      "maker": 9019,
      "ĠAdditional": 9020,
      "split": 9021,
      "want": 9022,
      "ĠPayload": 9023,
      "ĠFirewall": 9024,
      "Ġindicators": 9025,
      "Ġoverflow": 9026,
      "Ġrespond": 9027,
      "asy": 9028,
      "Ġmeasures": 9029,
      "ĠResults": 9030,
      ":~$": 9031,
      "valu": 9032,
      "ĠSaf": 9033,
      "ecuring": 9034,
      "ERR": 9035,
      "Locker": 9036,
      "during": 9037,
      "ĠCom": 9038,
      "377": 9039,
      "FIG": 9040,
      "945": 9041,
      "ADC": 9042,
      "vol": 9043,
      "ĠDLLs": 9044,
      "Ġlegal": 9045,
      "mount": 9046,
      "tri": 9047,
      "isto": 9048,
      "rays": 9049,
      "neural": 9050,
      "ALwB": 9051,
      "5696": 9052,
      "ĠValues": 9053,
      "330": 9054,
      "Ġrespect": 9055,
      "338": 9056,
      "803": 9057,
      "fee": 9058,
      "ved": 9059,
      "obalt": 9060,
      "shared": 9061,
      "creen": 9062,
      "connected": 9063,
      "Cs": 9064,
      "alert": 9065,
      "Ġpercent": 9066,
      "Ġ68": 9067,
      "Handler": 9068,
      "srv": 9069,
      "romise": 9070,
      "ĠMITRE": 9071,
      "offsec": 9072,
      "Ġequal": 9073,
      "bef": 9074,
      "hr": 9075,
      "Ġavailability": 9076,
      "works": 9077,
      "itself": 9078,
      "Ġloader": 9079,
      "TX": 9080,
      "cdc": 9081,
      "good": 9082,
      "Ġcell": 9083,
      "ĠUN": 9084,
      "Ġpayloads": 9085,
      "APE": 9086,
      "Ġpull": 9087,
      "Ġintrusion": 9088,
      "ĠCourse": 9089,
      "ĠIA": 9090,
      "Setup": 9091,
      "operating": 9092,
      "ĠSummary": 9093,
      "quality": 9094,
      "AFAA": 9095,
      "Ġidentifies": 9096,
      "ĠConsider": 9097,
      "Ġapplicable": 9098,
      "Ġanalysts": 9099,
      "Kevin": 9100,
      "Ġcampaign": 9101,
      "Ġ./": 9102,
      "Thus": 9103,
      "instructions": 9104,
      "cleanmgr": 9105,
      "Markov": 9106,
      "477": 9107,
      "Ġî": 9108,
      "Ġoperate": 9109,
      "ĠExploitation": 9110,
      "439": 9111,
      "Ġbal": 9112,
      "Ġroutine": 9113,
      "[{'": 9114,
      "ĠAuto": 9115,
      "Stream": 9116,
      "Ġphone": 9117,
      "547": 9118,
      "999": 9119,
      "nc": 9120,
      "559": 9121,
      "Ġinterfaces": 9122,
      "details": 9123,
      "ĠGuard": 9124,
      "Vol": 9125,
      "Ġpick": 9126,
      "ĠCWE": 9127,
      "Ġ69": 9128,
      "Ġdecomp": 9129,
      "ĠDigital": 9130,
      "346": 9131,
      "modules": 9132,
      "Ġdownloaded": 9133,
      "Ġanalyzing": 9134,
      "agnostic": 9135,
      "isan": 9136,
      "isthat": 9137,
      "xxxx": 9138,
      "pet": 9139,
      "Ã©": 9140,
      "obtain": 9141,
      "ATQB": 9142,
      "atching": 9143,
      "human": 9144,
      "Properties": 9145,
      "Ġdisplayed": 9146,
      "ĠEnumeration": 9147,
      "uela": 9148,
      ":\\$": 9149,
      "answer": 9150,
      "inlanefreight": 9151,
      "inputs": 9152,
      "----------------------------------------------------------------": 9153,
      "WMF": 9154,
      "Deployment": 9155,
      "exit": 9156,
      "Ġvendors": 9157,
      "Ġbugs": 9158,
      "ORY": 9159,
      "541": 9160,
      "CLIP": 9161,
      "âĶĢâĶĢâĶĢâĶĢâĶĢâĶĢâĶĢâĶĢ": 9162,
      "sync": 9163,
      "Ġreplace": 9164,
      "1833": 9165,
      "similar": 9166,
      "hardware": 9167,
      "nodes": 9168,
      "raud": 9169,
      "Ġsupply": 9170,
      "Ġemails": 9171,
      "Ġmatches": 9172,
      "cellent": 9173,
      "itude": 9174,
      "Ġbinaries": 9175,
      "oment": 9176,
      "greg": 9177,
      "itors": 9178,
      "Ġallocated": 9179,
      "Ġcommunity": 9180,
      "BL": 9181,
      "009": 9182,
      "569": 9183,
      "Ġpositive": 9184,
      "Ġdecrypt": 9185,
      "ä»": 9186,
      "ĠLam": 9187,
      "construct": 9188,
      "Ġ256": 9189,
      "Ġestablished": 9190,
      "Ġskills": 9191,
      "inding": 9192,
      "028": 9193,
      "supervised": 9194,
      "Ġscenarios": 9195,
      "ael": 9196,
      "taining": 9197,
      "ĠInput": 9198,
      "Interface": 9199,
      "font": 9200,
      "lm": 9201,
      "behavior": 9202,
      "ĠStudy": 9203,
      "prietary": 9204,
      "PRGHO": 9205,
      "typ": 9206,
      "ĠLSA": 9207,
      "Ġstand": 9208,
      "FFER": 9209,
      "architecture": 9210,
      "iinn": 9211,
      "layers": 9212,
      "ĠExecute": 9213,
      "ManagementProvider": 9214,
      "optimization": 9215,
      "450": 9216,
      "escalation": 9217,
      "emy": 9218,
      "ĠThus": 9219,
      "regular": 9220,
      "Expected": 9221,
      "00006": 9222,
      "Ġ72": 9223,
      "Creating": 9224,
      "QLQJ": 9225,
      "volutional": 9226,
      "GPT": 9227,
      "Ġbro": 9228,
      "ĠTactics": 9229,
      "protected": 9230,
      "Ġchanging": 9231,
      "Ġcolumns": 9232,
      "Ġîģĩ": 9233,
      "encoded": 9234,
      "Ġbottom": 9235,
      "âķ": 9236,
      "ataset": 9237,
      "Ġyear": 9238,
      "549": 9239,
      "hosts": 9240,
      "Shared": 9241,
      "bose": 9242,
      "Ġaccessing": 9243,
      "Ġaren": 9244,
      "Ġgoes": 9245,
      "iii": 9246,
      "ren": 9247,
      "Ġansw": 9248,
      "ĠAPT": 9249,
      "tty": 9250,
      "MgmtProvider": 9251,
      "SL": 9252,
      "ye": 9253,
      "ĠSM": 9254,
      "plist": 9255,
      "imits": 9256,
      "1234": 9257,
      "550": 9258,
      "parse": 9259,
      "acks": 9260,
      "imize": 9261,
      "369": 9262,
      "Ġmovement": 9263,
      "Ġchoice": 9264,
      "sudo": 9265,
      "Ġedx": 9266,
      "atisf": 9267,
      "Util": 9268,
      "press": 9269,
      "Ġweights": 9270,
      "THE": 9271,
      "Setting": 9272,
      "PLORE": 9273,
      "IRU": 9274,
      "Media": 9275,
      "Ġexercises": 9276,
      "Ġtimestamp": 9277,
      "CII": 9278,
      "Downloads": 9279,
      "atthe": 9280,
      "asingle": 9281,
      "istical": 9282,
      "edb": 9283,
      "epad": 9284,
      "ĠKeys": 9285,
      "ultim": 9286,
      "psd": 9287,
      ">\"": 9288,
      "UDP": 9289,
      "mael": 9290,
      "omin": 9291,
      "5984": 9292,
      "artment": 9293,
      "coded": 9294,
      "ancy": 9295,
      "ĠFlags": 9296,
      "enzuela": 9297,
      "seen": 9298,
      "func": 9299,
      "ale": 9300,
      "arrow": 9301,
      "Ġfixed": 9302,
      "ĠiOS": 9303,
      "ĠHand": 9304,
      "define": 9305,
      "Ġwrong": 9306,
      "Ġtro": 9307,
      "acle": 9308,
      "âĢ²": 9309,
      "ĠRAM": 9310,
      "ublication": 9311,
      "mbed": 9312,
      "IEXPLORE": 9313,
      "964": 9314,
      "alenzuela": 9315,
      "Ġwhole": 9316,
      "conditional": 9317,
      "Ġyourself": 9318,
      "directly": 9319,
      "Ġreflect": 9320,
      "ĠCOM": 9321,
      "Patched": 9322,
      "propag": 9323,
      "urthermore": 9324,
      "allowed": 9325,
      "ariables": 9326,
      "pty": 9327,
      "ĠâĨĴ": 9328,
      "PK": 9329,
      "066": 9330,
      "ĠAdditionally": 9331,
      "wiki": 9332,
      "332": 9333,
      "nop": 9334,
      "Ġfault": 9335,
      "379": 9336,
      "argument": 9337,
      "handler": 9338,
      "changed": 9339,
      "irr": 9340,
      "Ġstates": 9341,
      "Ġminimum": 9342,
      "ĠIntroduction": 9343,
      "809": 9344,
      "Ġra": 9345,
      "ĠGrant": 9346,
      "Max": 9347,
      "ïĢ": 9348,
      "AdvancedTopics": 9349,
      "Sa": 9350,
      "Wait": 9351,
      "Identify": 9352,
      "better": 9353,
      "ufact": 9354,
      "yond": 9355,
      "Ġ96": 9356,
      "Ġfake": 9357,
      "Ġinvok": 9358,
      "Ġescalation": 9359,
      "ĠPerform": 9360,
      "ĠStephen": 9361,
      "AWS": 9362,
      "ĠACE": 9363,
      "Ġrelease": 9364,
      "316": 9365,
      "idge": 9366,
      "îĢ´": 9367,
      "0002": 9368,
      "oward": 9369,
      "2612": 9370,
      "compute": 9371,
[...]
